{
  "version": "1.0",
  "truncation": null,
  "padding": null,
  "added_tokens": [
    {
      "id": 0,
      "content": "<|pad|>",
      "single_word": false,
      "lstrip": false,
      "rstrip": false,
      "normalized": false,
      "special": true
    },
    {
      "id": 1,
      "content": ">>ABSTRACT<<",
      "single_word": false,
      "lstrip": false,
      "rstrip": false,
      "normalized": false,
      "special": true
    },
    {
      "id": 2,
      "content": ">>INTRODUCTION<<",
      "single_word": false,
      "lstrip": false,
      "rstrip": false,
      "normalized": false,
      "special": true
    },
    {
      "id": 3,
      "content": ">>SUMMARY<<",
      "single_word": false,
      "lstrip": false,
      "rstrip": false,
      "normalized": false,
      "special": true
    },
    {
      "id": 4,
      "content": ">>COMMENT<<",
      "single_word": false,
      "lstrip": false,
      "rstrip": false,
      "normalized": false,
      "special": true
    },
    {
      "id": 5,
      "content": ">>ANSWER<<",
      "single_word": false,
      "lstrip": false,
      "rstrip": false,
      "normalized": false,
      "special": true
    },
    {
      "id": 6,
      "content": ">>QUESTION<<",
      "single_word": false,
      "lstrip": false,
      "rstrip": false,
      "normalized": false,
      "special": true
    },
    {
      "id": 7,
      "content": ">>DOMAIN<<",
      "single_word": false,
      "lstrip": false,
      "rstrip": false,
      "normalized": false,
      "special": true
    },
    {
      "id": 8,
      "content": ">>PREFIX<<",
      "single_word": false,
      "lstrip": false,
      "rstrip": false,
      "normalized": false,
      "special": true
    },
    {
      "id": 9,
      "content": ">>SUFFIX<<",
      "single_word": false,
      "lstrip": false,
      "rstrip": false,
      "normalized": false,
      "special": true
    },
    {
      "id": 10,
      "content": ">>MIDDLE<<",
      "single_word": false,
      "lstrip": false,
      "rstrip": false,
      "normalized": false,
      "special": true
    },
    {
      "id": 11,
      "content": "<|end_of_text|>",
      "single_word": false,
      "lstrip": false,
      "rstrip": false,
      "normalized": false,
      "special": true
    },
    {
      "id": 12,
      "content": "<|finetune_right_pad_id|>",
      "single_word": false,
      "lstrip": false,
      "rstrip": false,
      "normalized": false,
      "special": true
    },
    {
      "id": 13,
      "content": "<|start_header_id|>",
      "single_word": false,
      "lstrip": false,
      "rstrip": false,
      "normalized": false,
      "special": true
    },
    {
      "id": 14,
      "content": "<|end_header_id|>",
      "single_word": false,
      "lstrip": false,
      "rstrip": false,
      "normalized": false,
      "special": true
    },
    {
      "id": 15,
      "content": "<|eom_id|>",
      "single_word": false,
      "lstrip": false,
      "rstrip": false,
      "normalized": false,
      "special": true
    },
    {
      "id": 16,
      "content": "<|eot_id|>",
      "single_word": false,
      "lstrip": false,
      "rstrip": false,
      "normalized": false,
      "special": true
    },
    {
      "id": 17,
      "content": "<|begin_of_text|>",
      "single_word": false,
      "lstrip": false,
      "rstrip": false,
      "normalized": false,
      "special": true
    },
    {
      "id": 18,
      "content": ">>TITLE<<",
      "single_word": false,
      "lstrip": false,
      "rstrip": false,
      "normalized": false,
      "special": true
    },
    {
      "id": 19,
      "content": "<tool_response>",
      "single_word": false,
      "lstrip": false,
      "rstrip": false,
      "normalized": false,
      "special": true
    },
    {
      "id": 20,
      "content": "</tool_response>",
      "single_word": false,
      "lstrip": false,
      "rstrip": false,
      "normalized": false,
      "special": true
    },
    {
      "id": 21,
      "content": "<tool_call>",
      "single_word": false,
      "lstrip": false,
      "rstrip": false,
      "normalized": false,
      "special": true
    },
    {
      "id": 22,
      "content": "</tool_call>",
      "single_word": false,
      "lstrip": false,
      "rstrip": false,
      "normalized": false,
      "special": true
    },
    {
      "id": 23,
      "content": "<schema>",
      "single_word": false,
      "lstrip": false,
      "rstrip": false,
      "normalized": false,
      "special": true
    },
    {
      "id": 24,
      "content": "</schema>",
      "single_word": false,
      "lstrip": false,
      "rstrip": false,
      "normalized": false,
      "special": true
    },
    {
      "id": 25,
      "content": "<scratch_pad>",
      "single_word": false,
      "lstrip": false,
      "rstrip": false,
      "normalized": false,
      "special": true
    },
    {
      "id": 26,
      "content": "</scratch_pad>",
      "single_word": false,
      "lstrip": false,
      "rstrip": false,
      "normalized": false,
      "special": true
    },
    {
      "id": 27,
      "content": "<thinking>",
      "single_word": false,
      "lstrip": false,
      "rstrip": false,
      "normalized": false,
      "special": true
    },
    {
      "id": 28,
      "content": "</thinking>",
      "single_word": false,
      "lstrip": false,
      "rstrip": false,
      "normalized": false,
      "special": true
    },
    {
      "id": 29,
      "content": "<explanation>",
      "single_word": false,
      "lstrip": false,
      "rstrip": false,
      "normalized": false,
      "special": true
    },
    {
      "id": 30,
      "content": "</explanation>",
      "single_word": false,
      "lstrip": false,
      "rstrip": false,
      "normalized": false,
      "special": true
    },
    {
      "id": 31,
      "content": "<file_sep>",
      "single_word": false,
      "lstrip": false,
      "rstrip": false,
      "normalized": false,
      "special": true
    },
    {
      "id": 32,
      "content": "<repo_name>",
      "single_word": false,
      "lstrip": false,
      "rstrip": false,
      "normalized": false,
      "special": true
    },
    {
      "id": 33,
      "content": "\\blindtext",
      "single_word": false,
      "lstrip": false,
      "rstrip": false,
      "normalized": false,
      "special": false
    },
    {
      "id": 34,
      "content": "\\newpage",
      "single_word": false,
      "lstrip": false,
      "rstrip": false,
      "normalized": false,
      "special": false
    },
    {
      "id": 35,
      "content": "\\boxed",
      "single_word": false,
      "lstrip": false,
      "rstrip": false,
      "normalized": false,
      "special": false
    },
    {
      "id": 36,
      "content": "\\framebox",
      "single_word": false,
      "lstrip": false,
      "rstrip": false,
      "normalized": false,
      "special": false
    },
    {
      "id": 37,
      "content": "\\fbox",
      "single_word": false,
      "lstrip": false,
      "rstrip": false,
      "normalized": false,
      "special": false
    },
    {
      "id": 38,
      "content": "\\tag",
      "single_word": false,
      "lstrip": false,
      "rstrip": false,
      "normalized": false,
      "special": false
    },
    {
      "id": 39,
      "content": "\\nonumber",
      "single_word": false,
      "lstrip": false,
      "rstrip": false,
      "normalized": false,
      "special": false
    },
    {
      "id": 40,
      "content": "\\item",
      "single_word": false,
      "lstrip": false,
      "rstrip": false,
      "normalized": false,
      "special": false
    },
    {
      "id": 41,
      "content": "\\centering",
      "single_word": false,
      "lstrip": false,
      "rstrip": false,
      "normalized": false,
      "special": false
    },
    {
      "id": 42,
      "content": "\\caption",
      "single_word": false,
      "lstrip": false,
      "rstrip": false,
      "normalized": false,
      "special": false
    },
    {
      "id": 43,
      "content": "\\includegraphics",
      "single_word": false,
      "lstrip": false,
      "rstrip": false,
      "normalized": false,
      "special": false
    },
    {
      "id": 44,
      "content": "\\label",
      "single_word": false,
      "lstrip": false,
      "rstrip": false,
      "normalized": false,
      "special": false
    },
    {
      "id": 45,
      "content": "\\multicolumn",
      "single_word": false,
      "lstrip": false,
      "rstrip": false,
      "normalized": false,
      "special": false
    },
    {
      "id": 46,
      "content": "\\cline",
      "single_word": false,
      "lstrip": false,
      "rstrip": false,
      "normalized": false,
      "special": false
    },
    {
      "id": 47,
      "content": "\\hline",
      "single_word": false,
      "lstrip": false,
      "rstrip": false,
      "normalized": false,
      "special": false
    },
    {
      "id": 48,
      "content": "\\end",
      "single_word": false,
      "lstrip": false,
      "rstrip": false,
      "normalized": false,
      "special": false
    },
    {
      "id": 49,
      "content": "\\begin",
      "single_word": false,
      "lstrip": false,
      "rstrip": false,
      "normalized": false,
      "special": false
    },
    {
      "id": 50,
      "content": "\\tableofcontents",
      "single_word": false,
      "lstrip": false,
      "rstrip": false,
      "normalized": false,
      "special": false
    },
    {
      "id": 51,
      "content": "\\maketitle",
      "single_word": false,
      "lstrip": false,
      "rstrip": false,
      "normalized": false,
      "special": false
    },
    {
      "id": 52,
      "content": "\\date",
      "single_word": false,
      "lstrip": false,
      "rstrip": false,
      "normalized": false,
      "special": false
    },
    {
      "id": 53,
      "content": "\\author",
      "single_word": false,
      "lstrip": false,
      "rstrip": false,
      "normalized": false,
      "special": false
    },
    {
      "id": 54,
      "content": "\\title",
      "single_word": false,
      "lstrip": false,
      "rstrip": false,
      "normalized": false,
      "special": false
    },
    {
      "id": 55,
      "content": "\\chapter",
      "single_word": false,
      "lstrip": false,
      "rstrip": false,
      "normalized": false,
      "special": false
    },
    {
      "id": 56,
      "content": "\\subsubsection",
      "single_word": false,
      "lstrip": false,
      "rstrip": false,
      "normalized": false,
      "special": false
    },
    {
      "id": 57,
      "content": "\\subsection",
      "single_word": false,
      "lstrip": false,
      "rstrip": false,
      "normalized": false,
      "special": false
    },
    {
      "id": 58,
      "content": "\\section",
      "single_word": false,
      "lstrip": false,
      "rstrip": false,
      "normalized": false,
      "special": false
    },
    {
      "id": 59,
      "content": "\\noindent",
      "single_word": false,
      "lstrip": false,
      "rstrip": false,
      "normalized": false,
      "special": false
    },
    {
      "id": 60,
      "content": "\\newline",
      "single_word": false,
      "lstrip": false,
      "rstrip": false,
      "normalized": false,
      "special": false
    },
    {
      "id": 61,
      "content": "\\par",
      "single_word": false,
      "lstrip": false,
      "rstrip": false,
      "normalized": false,
      "special": false
    },
    {
      "id": 62,
      "content": "\\ddot",
      "single_word": false,
      "lstrip": false,
      "rstrip": false,
      "normalized": false,
      "special": false
    },
    {
      "id": 63,
      "content": "\\dot",
      "single_word": false,
      "lstrip": false,
      "rstrip": false,
      "normalized": false,
      "special": false
    },
    {
      "id": 64,
      "content": "\\bar",
      "single_word": false,
      "lstrip": false,
      "rstrip": false,
      "normalized": false,
      "special": false
    },
    {
      "id": 65,
      "content": "\\iff",
      "single_word": false,
      "lstrip": false,
      "rstrip": false,
      "normalized": false,
      "special": false
    },
    {
      "id": 66,
      "content": "\\implies",
      "single_word": false,
      "lstrip": false,
      "rstrip": false,
      "normalized": false,
      "special": false
    },
    {
      "id": 67,
      "content": "\\neg",
      "single_word": false,
      "lstrip": false,
      "rstrip": false,
      "normalized": false,
      "special": false
    },
    {
      "id": 68,
      "content": "\\lor",
      "single_word": false,
      "lstrip": false,
      "rstrip": false,
      "normalized": false,
      "special": false
    },
    {
      "id": 69,
      "content": "\\land",
      "single_word": false,
      "lstrip": false,
      "rstrip": false,
      "normalized": false,
      "special": false
    },
    {
      "id": 70,
      "content": "\\qquad",
      "single_word": false,
      "lstrip": false,
      "rstrip": false,
      "normalized": false,
      "special": false
    },
    {
      "id": 71,
      "content": "\\quad",
      "single_word": false,
      "lstrip": false,
      "rstrip": false,
      "normalized": false,
      "special": false
    },
    {
      "id": 72,
      "content": "\\arctan",
      "single_word": false,
      "lstrip": false,
      "rstrip": false,
      "normalized": false,
      "special": false
    },
    {
      "id": 73,
      "content": "\\arccos",
      "single_word": false,
      "lstrip": false,
      "rstrip": false,
      "normalized": false,
      "special": false
    },
    {
      "id": 74,
      "content": "\\arcsin",
      "single_word": false,
      "lstrip": false,
      "rstrip": false,
      "normalized": false,
      "special": false
    },
    {
      "id": 75,
      "content": "\\cot",
      "single_word": false,
      "lstrip": false,
      "rstrip": false,
      "normalized": false,
      "special": false
    },
    {
      "id": 76,
      "content": "\\sec",
      "single_word": false,
      "lstrip": false,
      "rstrip": false,
      "normalized": false,
      "special": false
    },
    {
      "id": 77,
      "content": "\\csc",
      "single_word": false,
      "lstrip": false,
      "rstrip": false,
      "normalized": false,
      "special": false
    },
    {
      "id": 78,
      "content": "\\tan",
      "single_word": false,
      "lstrip": false,
      "rstrip": false,
      "normalized": false,
      "special": false
    },
    {
      "id": 79,
      "content": "\\cos",
      "single_word": false,
      "lstrip": false,
      "rstrip": false,
      "normalized": false,
      "special": false
    },
    {
      "id": 80,
      "content": "\\sin",
      "single_word": false,
      "lstrip": false,
      "rstrip": false,
      "normalized": false,
      "special": false
    },
    {
      "id": 81,
      "content": "\\widetilde",
      "single_word": false,
      "lstrip": false,
      "rstrip": false,
      "normalized": false,
      "special": false
    },
    {
      "id": 82,
      "content": "\\widehat",
      "single_word": false,
      "lstrip": false,
      "rstrip": false,
      "normalized": false,
      "special": false
    },
    {
      "id": 83,
      "content": "\\complement",
      "single_word": false,
      "lstrip": false,
      "rstrip": false,
      "normalized": false,
      "special": false
    },
    {
      "id": 84,
      "content": "\\varnothing",
      "single_word": false,
      "lstrip": false,
      "rstrip": false,
      "normalized": false,
      "special": false
    },
    {
      "id": 85,
      "content": "\\tilde",
      "single_word": false,
      "lstrip": false,
      "rstrip": false,
      "normalized": false,
      "special": false
    },
    {
      "id": 86,
      "content": "\\hat",
      "single_word": false,
      "lstrip": false,
      "rstrip": false,
      "normalized": false,
      "special": false
    },
    {
      "id": 87,
      "content": "\\vec",
      "single_word": false,
      "lstrip": false,
      "rstrip": false,
      "normalized": false,
      "special": false
    },
    {
      "id": 88,
      "content": "\\mathfrak",
      "single_word": false,
      "lstrip": false,
      "rstrip": false,
      "normalized": false,
      "special": false
    },
    {
      "id": 89,
      "content": "\\mathcal",
      "single_word": false,
      "lstrip": false,
      "rstrip": false,
      "normalized": false,
      "special": false
    },
    {
      "id": 90,
      "content": "\\mathbb",
      "single_word": false,
      "lstrip": false,
      "rstrip": false,
      "normalized": false,
      "special": false
    },
    {
      "id": 91,
      "content": "\\emptyset",
      "single_word": false,
      "lstrip": false,
      "rstrip": false,
      "normalized": false,
      "special": false
    },
    {
      "id": 92,
      "content": "\\bot",
      "single_word": false,
      "lstrip": false,
      "rstrip": false,
      "normalized": false,
      "special": false
    },
    {
      "id": 93,
      "content": "\\aleph",
      "single_word": false,
      "lstrip": false,
      "rstrip": false,
      "normalized": false,
      "special": false
    },
    {
      "id": 94,
      "content": "\\Re",
      "single_word": false,
      "lstrip": false,
      "rstrip": false,
      "normalized": false,
      "special": false
    },
    {
      "id": 95,
      "content": "\\Im",
      "single_word": false,
      "lstrip": false,
      "rstrip": false,
      "normalized": false,
      "special": false
    },
    {
      "id": 96,
      "content": "\\ell",
      "single_word": false,
      "lstrip": false,
      "rstrip": false,
      "normalized": false,
      "special": false
    },
    {
      "id": 97,
      "content": "\\hbar",
      "single_word": false,
      "lstrip": false,
      "rstrip": false,
      "normalized": false,
      "special": false
    },
    {
      "id": 98,
      "content": "\\exists",
      "single_word": false,
      "lstrip": false,
      "rstrip": false,
      "normalized": false,
      "special": false
    },
    {
      "id": 99,
      "content": "\\forall",
      "single_word": false,
      "lstrip": false,
      "rstrip": false,
      "normalized": false,
      "special": false
    },
    {
      "id": 100,
      "content": "\\partial",
      "single_word": false,
      "lstrip": false,
      "rstrip": false,
      "normalized": false,
      "special": false
    },
    {
      "id": 101,
      "content": "\\nabla",
      "single_word": false,
      "lstrip": false,
      "rstrip": false,
      "normalized": false,
      "special": false
    },
    {
      "id": 102,
      "content": "\\infty",
      "single_word": false,
      "lstrip": false,
      "rstrip": false,
      "normalized": false,
      "special": false
    },
    {
      "id": 103,
      "content": "\\binom",
      "single_word": false,
      "lstrip": false,
      "rstrip": false,
      "normalized": false,
      "special": false
    },
    {
      "id": 104,
      "content": "\\overline",
      "single_word": false,
      "lstrip": false,
      "rstrip": false,
      "normalized": false,
      "special": false
    },
    {
      "id": 105,
      "content": "\\sqrt",
      "single_word": false,
      "lstrip": false,
      "rstrip": false,
      "normalized": false,
      "special": false
    },
    {
      "id": 106,
      "content": "\\tfrac",
      "single_word": false,
      "lstrip": false,
      "rstrip": false,
      "normalized": false,
      "special": false
    },
    {
      "id": 107,
      "content": "\\dfrac",
      "single_word": false,
      "lstrip": false,
      "rstrip": false,
      "normalized": false,
      "special": false
    },
    {
      "id": 108,
      "content": "\\frac",
      "single_word": false,
      "lstrip": false,
      "rstrip": false,
      "normalized": false,
      "special": false
    },
    {
      "id": 109,
      "content": "\\textsc",
      "single_word": false,
      "lstrip": false,
      "rstrip": false,
      "normalized": false,
      "special": false
    },
    {
      "id": 110,
      "content": "\\textsf",
      "single_word": false,
      "lstrip": false,
      "rstrip": false,
      "normalized": false,
      "special": false
    },
    {
      "id": 111,
      "content": "\\texttt",
      "single_word": false,
      "lstrip": false,
      "rstrip": false,
      "normalized": false,
      "special": false
    },
    {
      "id": 112,
      "content": "\\emph",
      "single_word": false,
      "lstrip": false,
      "rstrip": false,
      "normalized": false,
      "special": false
    },
    {
      "id": 113,
      "content": "\\underline",
      "single_word": false,
      "lstrip": false,
      "rstrip": false,
      "normalized": false,
      "special": false
    },
    {
      "id": 114,
      "content": "\\textit",
      "single_word": false,
      "lstrip": false,
      "rstrip": false,
      "normalized": false,
      "special": false
    },
    {
      "id": 115,
      "content": "\\textbf",
      "single_word": false,
      "lstrip": false,
      "rstrip": false,
      "normalized": false,
      "special": false
    },
    {
      "id": 116,
      "content": "\\bigoplus",
      "single_word": false,
      "lstrip": false,
      "rstrip": false,
      "normalized": false,
      "special": false
    },
    {
      "id": 117,
      "content": "\\bigcap",
      "single_word": false,
      "lstrip": false,
      "rstrip": false,
      "normalized": false,
      "special": false
    },
    {
      "id": 118,
      "content": "\\bigcup",
      "single_word": false,
      "lstrip": false,
      "rstrip": false,
      "normalized": false,
      "special": false
    },
    {
      "id": 119,
      "content": "\\prod",
      "single_word": false,
      "lstrip": false,
      "rstrip": false,
      "normalized": false,
      "special": false
    },
    {
      "id": 120,
      "content": "\\sum",
      "single_word": false,
      "lstrip": false,
      "rstrip": false,
      "normalized": false,
      "special": false
    },
    {
      "id": 121,
      "content": "\\oint",
      "single_word": false,
      "lstrip": false,
      "rstrip": false,
      "normalized": false,
      "special": false
    },
    {
      "id": 122,
      "content": "\\iiint",
      "single_word": false,
      "lstrip": false,
      "rstrip": false,
      "normalized": false,
      "special": false
    },
    {
      "id": 123,
      "content": "\\iint",
      "single_word": false,
      "lstrip": false,
      "rstrip": false,
      "normalized": false,
      "special": false
    },
    {
      "id": 124,
      "content": "\\int",
      "single_word": false,
      "lstrip": false,
      "rstrip": false,
      "normalized": false,
      "special": false
    },
    {
      "id": 125,
      "content": "\\right",
      "single_word": false,
      "lstrip": false,
      "rstrip": false,
      "normalized": false,
      "special": false
    },
    {
      "id": 126,
      "content": "\\left",
      "single_word": false,
      "lstrip": false,
      "rstrip": false,
      "normalized": false,
      "special": false
    },
    {
      "id": 127,
      "content": "\\Bigr",
      "single_word": false,
      "lstrip": false,
      "rstrip": false,
      "normalized": false,
      "special": false
    },
    {
      "id": 128,
      "content": "\\Bigl",
      "single_word": false,
      "lstrip": false,
      "rstrip": false,
      "normalized": false,
      "special": false
    },
    {
      "id": 129,
      "content": "\\bigr",
      "single_word": false,
      "lstrip": false,
      "rstrip": false,
      "normalized": false,
      "special": false
    },
    {
      "id": 130,
      "content": "\\bigl",
      "single_word": false,
      "lstrip": false,
      "rstrip": false,
      "normalized": false,
      "special": false
    },
    {
      "id": 131,
      "content": ">>UNUSED_119<<",
      "single_word": false,
      "lstrip": false,
      "rstrip": false,
      "normalized": false,
      "special": true
    },
    {
      "id": 132,
      "content": ">>UNUSED_120<<",
      "single_word": false,
      "lstrip": false,
      "rstrip": false,
      "normalized": false,
      "special": true
    },
    {
      "id": 133,
      "content": "\\rceil",
      "single_word": false,
      "lstrip": false,
      "rstrip": false,
      "normalized": false,
      "special": false
    },
    {
      "id": 134,
      "content": "\\lceil",
      "single_word": false,
      "lstrip": false,
      "rstrip": false,
      "normalized": false,
      "special": false
    },
    {
      "id": 135,
      "content": "\\rfloor",
      "single_word": false,
      "lstrip": false,
      "rstrip": false,
      "normalized": false,
      "special": false
    },
    {
      "id": 136,
      "content": "\\lfloor",
      "single_word": false,
      "lstrip": false,
      "rstrip": false,
      "normalized": false,
      "special": false
    },
    {
      "id": 137,
      "content": "\\rangle",
      "single_word": false,
      "lstrip": false,
      "rstrip": false,
      "normalized": false,
      "special": false
    },
    {
      "id": 138,
      "content": "\\langle",
      "single_word": false,
      "lstrip": false,
      "rstrip": false,
      "normalized": false,
      "special": false
    },
    {
      "id": 139,
      "content": "\\overleftarrow",
      "single_word": false,
      "lstrip": false,
      "rstrip": false,
      "normalized": false,
      "special": false
    },
    {
      "id": 140,
      "content": "\\overleftrightarrow",
      "single_word": false,
      "lstrip": false,
      "rstrip": false,
      "normalized": false,
      "special": false
    },
    {
      "id": 141,
      "content": "\\overrightarrow",
      "single_word": false,
      "lstrip": false,
      "rstrip": false,
      "normalized": false,
      "special": false
    },
    {
      "id": 142,
      "content": "\\Longleftrightarrow",
      "single_word": false,
      "lstrip": false,
      "rstrip": false,
      "normalized": false,
      "special": false
    },
    {
      "id": 143,
      "content": "\\longleftrightarrow",
      "single_word": false,
      "lstrip": false,
      "rstrip": false,
      "normalized": false,
      "special": false
    },
    {
      "id": 144,
      "content": "\\longrightarrow",
      "single_word": false,
      "lstrip": false,
      "rstrip": false,
      "normalized": false,
      "special": false
    },
    {
      "id": 145,
      "content": "\\longleftarrow",
      "single_word": false,
      "lstrip": false,
      "rstrip": false,
      "normalized": false,
      "special": false
    },
    {
      "id": 146,
      "content": "\\Longrightarrow",
      "single_word": false,
      "lstrip": false,
      "rstrip": false,
      "normalized": false,
      "special": false
    },
    {
      "id": 147,
      "content": "\\Longleftarrow",
      "single_word": false,
      "lstrip": false,
      "rstrip": false,
      "normalized": false,
      "special": false
    },
    {
      "id": 148,
      "content": "\\gets",
      "single_word": false,
      "lstrip": false,
      "rstrip": false,
      "normalized": false,
      "special": false
    },
    {
      "id": 149,
      "content": "\\to",
      "single_word": false,
      "lstrip": false,
      "rstrip": false,
      "normalized": false,
      "special": false
    },
    {
      "id": 150,
      "content": "\\mapsto",
      "single_word": false,
      "lstrip": false,
      "rstrip": false,
      "normalized": false,
      "special": false
    },
    {
      "id": 151,
      "content": "\\Updownarrow",
      "single_word": false,
      "lstrip": false,
      "rstrip": false,
      "normalized": false,
      "special": false
    },
    {
      "id": 152,
      "content": "\\Downarrow",
      "single_word": false,
      "lstrip": false,
      "rstrip": false,
      "normalized": false,
      "special": false
    },
    {
      "id": 153,
      "content": "\\Uparrow",
      "single_word": false,
      "lstrip": false,
      "rstrip": false,
      "normalized": false,
      "special": false
    },
    {
      "id": 154,
      "content": "\\updownarrow",
      "single_word": false,
      "lstrip": false,
      "rstrip": false,
      "normalized": false,
      "special": false
    },
    {
      "id": 155,
      "content": "\\downarrow",
      "single_word": false,
      "lstrip": false,
      "rstrip": false,
      "normalized": false,
      "special": false
    },
    {
      "id": 156,
      "content": "\\uparrow",
      "single_word": false,
      "lstrip": false,
      "rstrip": false,
      "normalized": false,
      "special": false
    },
    {
      "id": 157,
      "content": "\\Leftrightarrow",
      "single_word": false,
      "lstrip": false,
      "rstrip": false,
      "normalized": false,
      "special": false
    },
    {
      "id": 158,
      "content": "\\Rightarrow",
      "single_word": false,
      "lstrip": false,
      "rstrip": false,
      "normalized": false,
      "special": false
    },
    {
      "id": 159,
      "content": "\\Leftarrow",
      "single_word": false,
      "lstrip": false,
      "rstrip": false,
      "normalized": false,
      "special": false
    },
    {
      "id": 160,
      "content": "\\leftrightarrow",
      "single_word": false,
      "lstrip": false,
      "rstrip": false,
      "normalized": false,
      "special": false
    },
    {
      "id": 161,
      "content": "\\rightarrow",
      "single_word": false,
      "lstrip": false,
      "rstrip": false,
      "normalized": false,
      "special": false
    },
    {
      "id": 162,
      "content": "\\leftarrow",
      "single_word": false,
      "lstrip": false,
      "rstrip": false,
      "normalized": false,
      "special": false
    },
    {
      "id": 163,
      "content": "\\perp",
      "single_word": false,
      "lstrip": false,
      "rstrip": false,
      "normalized": false,
      "special": false
    },
    {
      "id": 164,
      "content": "\\propto",
      "single_word": false,
      "lstrip": false,
      "rstrip": false,
      "normalized": false,
      "special": false
    },
    {
      "id": 165,
      "content": "\\ni",
      "single_word": false,
      "lstrip": false,
      "rstrip": false,
      "normalized": false,
      "special": false
    },
    {
      "id": 166,
      "content": "\\notin",
      "single_word": false,
      "lstrip": false,
      "rstrip": false,
      "normalized": false,
      "special": false
    },
    {
      "id": 167,
      "content": "\\in",
      "single_word": false,
      "lstrip": false,
      "rstrip": false,
      "normalized": false,
      "special": false
    },
    {
      "id": 168,
      "content": "\\supseteq",
      "single_word": false,
      "lstrip": false,
      "rstrip": false,
      "normalized": false,
      "special": false
    },
    {
      "id": 169,
      "content": "\\supset",
      "single_word": false,
      "lstrip": false,
      "rstrip": false,
      "normalized": false,
      "special": false
    },
    {
      "id": 170,
      "content": "\\sqsupseteq",
      "single_word": false,
      "lstrip": false,
      "rstrip": false,
      "normalized": false,
      "special": false
    },
    {
      "id": 171,
      "content": "\\sqsubseteq",
      "single_word": false,
      "lstrip": false,
      "rstrip": false,
      "normalized": false,
      "special": false
    },
    {
      "id": 172,
      "content": "\\subseteq",
      "single_word": false,
      "lstrip": false,
      "rstrip": false,
      "normalized": false,
      "special": false
    },
    {
      "id": 173,
      "content": "\\subset",
      "single_word": false,
      "lstrip": false,
      "rstrip": false,
      "normalized": false,
      "special": false
    },
    {
      "id": 174,
      "content": "\\cong",
      "single_word": false,
      "lstrip": false,
      "rstrip": false,
      "normalized": false,
      "special": false
    },
    {
      "id": 175,
      "content": "\\approx",
      "single_word": false,
      "lstrip": false,
      "rstrip": false,
      "normalized": false,
      "special": false
    },
    {
      "id": 176,
      "content": "\\simeq",
      "single_word": false,
      "lstrip": false,
      "rstrip": false,
      "normalized": false,
      "special": false
    },
    {
      "id": 177,
      "content": "\\sim",
      "single_word": false,
      "lstrip": false,
      "rstrip": false,
      "normalized": false,
      "special": false
    },
    {
      "id": 178,
      "content": "\\equiv",
      "single_word": false,
      "lstrip": false,
      "rstrip": false,
      "normalized": false,
      "special": false
    },
    {
      "id": 179,
      "content": "\\neq",
      "single_word": false,
      "lstrip": false,
      "rstrip": false,
      "normalized": false,
      "special": false
    },
    {
      "id": 180,
      "content": "\\geq",
      "single_word": false,
      "lstrip": false,
      "rstrip": false,
      "normalized": false,
      "special": false
    },
    {
      "id": 181,
      "content": "\\leq",
      "single_word": false,
      "lstrip": false,
      "rstrip": false,
      "normalized": false,
      "special": false
    },
    {
      "id": 182,
      "content": "\\oslash",
      "single_word": false,
      "lstrip": false,
      "rstrip": false,
      "normalized": false,
      "special": false
    },
    {
      "id": 183,
      "content": "\\otimes",
      "single_word": false,
      "lstrip": false,
      "rstrip": false,
      "normalized": false,
      "special": false
    },
    {
      "id": 184,
      "content": "\\ominus",
      "single_word": false,
      "lstrip": false,
      "rstrip": false,
      "normalized": false,
      "special": false
    },
    {
      "id": 185,
      "content": "\\oplus",
      "single_word": false,
      "lstrip": false,
      "rstrip": false,
      "normalized": false,
      "special": false
    },
    {
      "id": 186,
      "content": "\\wedge",
      "single_word": false,
      "lstrip": false,
      "rstrip": false,
      "normalized": false,
      "special": false
    },
    {
      "id": 187,
      "content": "\\vee",
      "single_word": false,
      "lstrip": false,
      "rstrip": false,
      "normalized": false,
      "special": false
    },
    {
      "id": 188,
      "content": "\\sqcup",
      "single_word": false,
      "lstrip": false,
      "rstrip": false,
      "normalized": false,
      "special": false
    },
    {
      "id": 189,
      "content": "\\sqcap",
      "single_word": false,
      "lstrip": false,
      "rstrip": false,
      "normalized": false,
      "special": false
    },
    {
      "id": 190,
      "content": "\\uplus",
      "single_word": false,
      "lstrip": false,
      "rstrip": false,
      "normalized": false,
      "special": false
    },
    {
      "id": 191,
      "content": "\\cup",
      "single_word": false,
      "lstrip": false,
      "rstrip": false,
      "normalized": false,
      "special": false
    },
    {
      "id": 192,
      "content": "\\cap",
      "single_word": false,
      "lstrip": false,
      "rstrip": false,
      "normalized": false,
      "special": false
    },
    {
      "id": 193,
      "content": "\\cdot",
      "single_word": false,
      "lstrip": false,
      "rstrip": false,
      "normalized": false,
      "special": false
    },
    {
      "id": 194,
      "content": "\\bullet",
      "single_word": false,
      "lstrip": false,
      "rstrip": false,
      "normalized": false,
      "special": false
    },
    {
      "id": 195,
      "content": "\\circ",
      "single_word": false,
      "lstrip": false,
      "rstrip": false,
      "normalized": false,
      "special": false
    },
    {
      "id": 196,
      "content": "\\star",
      "single_word": false,
      "lstrip": false,
      "rstrip": false,
      "normalized": false,
      "special": false
    },
    {
      "id": 197,
      "content": "\\ast",
      "single_word": false,
      "lstrip": false,
      "rstrip": false,
      "normalized": false,
      "special": false
    },
    {
      "id": 198,
      "content": "\\div",
      "single_word": false,
      "lstrip": false,
      "rstrip": false,
      "normalized": false,
      "special": false
    },
    {
      "id": 199,
      "content": "\\times",
      "single_word": false,
      "lstrip": false,
      "rstrip": false,
      "normalized": false,
      "special": false
    },
    {
      "id": 200,
      "content": "\\mp",
      "single_word": false,
      "lstrip": false,
      "rstrip": false,
      "normalized": false,
      "special": false
    },
    {
      "id": 201,
      "content": "\\pm",
      "single_word": false,
      "lstrip": false,
      "rstrip": false,
      "normalized": false,
      "special": false
    },
    {
      "id": 202,
      "content": "\\omega",
      "single_word": false,
      "lstrip": false,
      "rstrip": false,
      "normalized": false,
      "special": false
    },
    {
      "id": 203,
      "content": "\\psi",
      "single_word": false,
      "lstrip": false,
      "rstrip": false,
      "normalized": false,
      "special": false
    },
    {
      "id": 204,
      "content": "\\chi",
      "single_word": false,
      "lstrip": false,
      "rstrip": false,
      "normalized": false,
      "special": false
    },
    {
      "id": 205,
      "content": "\\varphi",
      "single_word": false,
      "lstrip": false,
      "rstrip": false,
      "normalized": false,
      "special": false
    },
    {
      "id": 206,
      "content": "\\varsigma",
      "single_word": false,
      "lstrip": false,
      "rstrip": false,
      "normalized": false,
      "special": false
    },
    {
      "id": 207,
      "content": "\\phi",
      "single_word": false,
      "lstrip": false,
      "rstrip": false,
      "normalized": false,
      "special": false
    },
    {
      "id": 208,
      "content": "\\upsilon",
      "single_word": false,
      "lstrip": false,
      "rstrip": false,
      "normalized": false,
      "special": false
    },
    {
      "id": 209,
      "content": "\\tau",
      "single_word": false,
      "lstrip": false,
      "rstrip": false,
      "normalized": false,
      "special": false
    },
    {
      "id": 210,
      "content": "\\sigma",
      "single_word": false,
      "lstrip": false,
      "rstrip": false,
      "normalized": false,
      "special": false
    },
    {
      "id": 211,
      "content": "\\rho",
      "single_word": false,
      "lstrip": false,
      "rstrip": false,
      "normalized": false,
      "special": false
    },
    {
      "id": 212,
      "content": "\\pi",
      "single_word": false,
      "lstrip": false,
      "rstrip": false,
      "normalized": false,
      "special": false
    },
    {
      "id": 213,
      "content": "\\xi",
      "single_word": false,
      "lstrip": false,
      "rstrip": false,
      "normalized": false,
      "special": false
    },
    {
      "id": 214,
      "content": "\\nu",
      "single_word": false,
      "lstrip": false,
      "rstrip": false,
      "normalized": false,
      "special": false
    },
    {
      "id": 215,
      "content": "\\mu",
      "single_word": false,
      "lstrip": false,
      "rstrip": false,
      "normalized": false,
      "special": false
    },
    {
      "id": 216,
      "content": "\\lambda",
      "single_word": false,
      "lstrip": false,
      "rstrip": false,
      "normalized": false,
      "special": false
    },
    {
      "id": 217,
      "content": "\\kappa",
      "single_word": false,
      "lstrip": false,
      "rstrip": false,
      "normalized": false,
      "special": false
    },
    {
      "id": 218,
      "content": "\\iota",
      "single_word": false,
      "lstrip": false,
      "rstrip": false,
      "normalized": false,
      "special": false
    },
    {
      "id": 219,
      "content": "\\theta",
      "single_word": false,
      "lstrip": false,
      "rstrip": false,
      "normalized": false,
      "special": false
    },
    {
      "id": 220,
      "content": "\\eta",
      "single_word": false,
      "lstrip": false,
      "rstrip": false,
      "normalized": false,
      "special": false
    },
    {
      "id": 221,
      "content": "\\zeta",
      "single_word": false,
      "lstrip": false,
      "rstrip": false,
      "normalized": false,
      "special": false
    },
    {
      "id": 222,
      "content": "\\epsilon",
      "single_word": false,
      "lstrip": false,
      "rstrip": false,
      "normalized": false,
      "special": false
    },
    {
      "id": 223,
      "content": "\\delta",
      "single_word": false,
      "lstrip": false,
      "rstrip": false,
      "normalized": false,
      "special": false
    },
    {
      "id": 224,
      "content": "\\gamma",
      "single_word": false,
      "lstrip": false,
      "rstrip": false,
      "normalized": false,
      "special": false
    },
    {
      "id": 225,
      "content": "\\beta",
      "single_word": false,
      "lstrip": false,
      "rstrip": false,
      "normalized": false,
      "special": false
    },
    {
      "id": 226,
      "content": "\\alpha",
      "single_word": false,
      "lstrip": false,
      "rstrip": false,
      "normalized": false,
      "special": false
    },
    {
      "id": 227,
      "content": "<|im_start|>",
      "single_word": false,
      "lstrip": false,
      "rstrip": false,
      "normalized": false,
      "special": true
    },
    {
      "id": 228,
      "content": "<|im_end|>",
      "single_word": false,
      "lstrip": false,
      "rstrip": false,
      "normalized": false,
      "special": true
    },
    {
      "id": 229,
      "content": "<|system|>",
      "single_word": false,
      "lstrip": false,
      "rstrip": false,
      "normalized": false,
      "special": true
    },
    {
      "id": 230,
      "content": ">>UNUSED_218<<",
      "single_word": false,
      "lstrip": false,
      "rstrip": false,
      "normalized": false,
      "special": true
    },
    {
      "id": 231,
      "content": ">>UNUSED_219<<",
      "single_word": false,
      "lstrip": false,
      "rstrip": false,
      "normalized": false,
      "special": true
    },
    {
      "id": 232,
      "content": ">>UNUSED_220<<",
      "single_word": false,
      "lstrip": false,
      "rstrip": false,
      "normalized": false,
      "special": true
    },
    {
      "id": 233,
      "content": ">>UNUSED_221<<",
      "single_word": false,
      "lstrip": false,
      "rstrip": false,
      "normalized": false,
      "special": true
    },
    {
      "id": 234,
      "content": ">>UNUSED_222<<",
      "single_word": false,
      "lstrip": false,
      "rstrip": false,
      "normalized": false,
      "special": true
    },
    {
      "id": 235,
      "content": ">>UNUSED_223<<",
      "single_word": false,
      "lstrip": false,
      "rstrip": false,
      "normalized": false,
      "special": true
    },
    {
      "id": 236,
      "content": ">>UNUSED_224<<",
      "single_word": false,
      "lstrip": false,
      "rstrip": false,
      "normalized": false,
      "special": true
    },
    {
      "id": 237,
      "content": ">>UNUSED_225<<",
      "single_word": false,
      "lstrip": false,
      "rstrip": false,
      "normalized": false,
      "special": true
    },
    {
      "id": 238,
      "content": ">>UNUSED_226<<",
      "single_word": false,
      "lstrip": false,
      "rstrip": false,
      "normalized": false,
      "special": true
    },
    {
      "id": 239,
      "content": ">>UNUSED_227<<",
      "single_word": false,
      "lstrip": false,
      "rstrip": false,
      "normalized": false,
      "special": true
    },
    {
      "id": 240,
      "content": ">>UNUSED_228<<",
      "single_word": false,
      "lstrip": false,
      "rstrip": false,
      "normalized": false,
      "special": true
    },
    {
      "id": 241,
      "content": ">>UNUSED_229<<",
      "single_word": false,
      "lstrip": false,
      "rstrip": false,
      "normalized": false,
      "special": true
    },
    {
      "id": 242,
      "content": ">>UNUSED_230<<",
      "single_word": false,
      "lstrip": false,
      "rstrip": false,
      "normalized": false,
      "special": true
    },
    {
      "id": 243,
      "content": ">>UNUSED_231<<",
      "single_word": false,
      "lstrip": false,
      "rstrip": false,
      "normalized": false,
      "special": true
    },
    {
      "id": 244,
      "content": ">>UNUSED_232<<",
      "single_word": false,
      "lstrip": false,
      "rstrip": false,
      "normalized": false,
      "special": true
    },
    {
      "id": 245,
      "content": ">>UNUSED_233<<",
      "single_word": false,
      "lstrip": false,
      "rstrip": false,
      "normalized": false,
      "special": true
    },
    {
      "id": 246,
      "content": ">>UNUSED_234<<",
      "single_word": false,
      "lstrip": false,
      "rstrip": false,
      "normalized": false,
      "special": true
    },
    {
      "id": 247,
      "content": ">>UNUSED_235<<",
      "single_word": false,
      "lstrip": false,
      "rstrip": false,
      "normalized": false,
      "special": true
    },
    {
      "id": 248,
      "content": ">>UNUSED_236<<",
      "single_word": false,
      "lstrip": false,
      "rstrip": false,
      "normalized": false,
      "special": true
    },
    {
      "id": 249,
      "content": ">>UNUSED_237<<",
      "single_word": false,
      "lstrip": false,
      "rstrip": false,
      "normalized": false,
      "special": true
    },
    {
      "id": 250,
      "content": ">>UNUSED_238<<",
      "single_word": false,
      "lstrip": false,
      "rstrip": false,
      "normalized": false,
      "special": true
    },
    {
      "id": 251,
      "content": ">>UNUSED_239<<",
      "single_word": false,
      "lstrip": false,
      "rstrip": false,
      "normalized": false,
      "special": true
    },
    {
      "id": 252,
      "content": ">>UNUSED_240<<",
      "single_word": false,
      "lstrip": false,
      "rstrip": false,
      "normalized": false,
      "special": true
    },
    {
      "id": 253,
      "content": ">>UNUSED_241<<",
      "single_word": false,
      "lstrip": false,
      "rstrip": false,
      "normalized": false,
      "special": true
    },
    {
      "id": 254,
      "content": ">>UNUSED_242<<",
      "single_word": false,
      "lstrip": false,
      "rstrip": false,
      "normalized": false,
      "special": true
    },
    {
      "id": 255,
      "content": ">>UNUSED_243<<",
      "single_word": false,
      "lstrip": false,
      "rstrip": false,
      "normalized": false,
      "special": true
    },
    {
      "id": 256,
      "content": ">>UNUSED_244<<",
      "single_word": false,
      "lstrip": false,
      "rstrip": false,
      "normalized": false,
      "special": true
    },
    {
      "id": 257,
      "content": ">>UNUSED_245<<",
      "single_word": false,
      "lstrip": false,
      "rstrip": false,
      "normalized": false,
      "special": true
    },
    {
      "id": 258,
      "content": ">>UNUSED_246<<",
      "single_word": false,
      "lstrip": false,
      "rstrip": false,
      "normalized": false,
      "special": true
    },
    {
      "id": 259,
      "content": ">>UNUSED_247<<",
      "single_word": false,
      "lstrip": false,
      "rstrip": false,
      "normalized": false,
      "special": true
    },
    {
      "id": 260,
      "content": ">>UNUSED_248<<",
      "single_word": false,
      "lstrip": false,
      "rstrip": false,
      "normalized": false,
      "special": true
    },
    {
      "id": 261,
      "content": ">>UNUSED_249<<",
      "single_word": false,
      "lstrip": false,
      "rstrip": false,
      "normalized": false,
      "special": true
    },
    {
      "id": 262,
      "content": ">>UNUSED_250<<",
      "single_word": false,
      "lstrip": false,
      "rstrip": false,
      "normalized": false,
      "special": true
    },
    {
      "id": 263,
      "content": ">>UNUSED_251<<",
      "single_word": false,
      "lstrip": false,
      "rstrip": false,
      "normalized": false,
      "special": true
    },
    {
      "id": 264,
      "content": ">>UNUSED_252<<",
      "single_word": false,
      "lstrip": false,
      "rstrip": false,
      "normalized": false,
      "special": true
    },
    {
      "id": 265,
      "content": ">>UNUSED_253<<",
      "single_word": false,
      "lstrip": false,
      "rstrip": false,
      "normalized": false,
      "special": true
    },
    {
      "id": 266,
      "content": ">>UNUSED_254<<",
      "single_word": false,
      "lstrip": false,
      "rstrip": false,
      "normalized": false,
      "special": true
    },
    {
      "id": 267,
      "content": ">>UNUSED_255<<",
      "single_word": false,
      "lstrip": false,
      "rstrip": false,
      "normalized": false,
      "special": true
    },
    {
      "id": 268,
      "content": ">>UNUSED_256<<",
      "single_word": false,
      "lstrip": false,
      "rstrip": false,
      "normalized": false,
      "special": true
    },
    {
      "id": 269,
      "content": ">>UNUSED_257<<",
      "single_word": false,
      "lstrip": false,
      "rstrip": false,
      "normalized": false,
      "special": true
    },
    {
      "id": 270,
      "content": ">>UNUSED_258<<",
      "single_word": false,
      "lstrip": false,
      "rstrip": false,
      "normalized": false,
      "special": true
    },
    {
      "id": 271,
      "content": ">>UNUSED_259<<",
      "single_word": false,
      "lstrip": false,
      "rstrip": false,
      "normalized": false,
      "special": true
    },
    {
      "id": 272,
      "content": ">>UNUSED_260<<",
      "single_word": false,
      "lstrip": false,
      "rstrip": false,
      "normalized": false,
      "special": true
    },
    {
      "id": 273,
      "content": ">>UNUSED_261<<",
      "single_word": false,
      "lstrip": false,
      "rstrip": false,
      "normalized": false,
      "special": true
    },
    {
      "id": 274,
      "content": ">>UNUSED_262<<",
      "single_word": false,
      "lstrip": false,
      "rstrip": false,
      "normalized": false,
      "special": true
    },
    {
      "id": 275,
      "content": ">>UNUSED_263<<",
      "single_word": false,
      "lstrip": false,
      "rstrip": false,
      "normalized": false,
      "special": true
    },
    {
      "id": 276,
      "content": ">>UNUSED_264<<",
      "single_word": false,
      "lstrip": false,
      "rstrip": false,
      "normalized": false,
      "special": true
    },
    {
      "id": 277,
      "content": ">>UNUSED_265<<",
      "single_word": false,
      "lstrip": false,
      "rstrip": false,
      "normalized": false,
      "special": true
    },
    {
      "id": 278,
      "content": ">>UNUSED_266<<",
      "single_word": false,
      "lstrip": false,
      "rstrip": false,
      "normalized": false,
      "special": true
    },
    {
      "id": 279,
      "content": ">>UNUSED_267<<",
      "single_word": false,
      "lstrip": false,
      "rstrip": false,
      "normalized": false,
      "special": true
    },
    {
      "id": 280,
      "content": ">>UNUSED_268<<",
      "single_word": false,
      "lstrip": false,
      "rstrip": false,
      "normalized": false,
      "special": true
    },
    {
      "id": 281,
      "content": ">>UNUSED_269<<",
      "single_word": false,
      "lstrip": false,
      "rstrip": false,
      "normalized": false,
      "special": true
    },
    {
      "id": 282,
      "content": ">>UNUSED_270<<",
      "single_word": false,
      "lstrip": false,
      "rstrip": false,
      "normalized": false,
      "special": true
    },
    {
      "id": 283,
      "content": ">>UNUSED_271<<",
      "single_word": false,
      "lstrip": false,
      "rstrip": false,
      "normalized": false,
      "special": true
    },
    {
      "id": 284,
      "content": ">>UNUSED_272<<",
      "single_word": false,
      "lstrip": false,
      "rstrip": false,
      "normalized": false,
      "special": true
    },
    {
      "id": 285,
      "content": ">>UNUSED_273<<",
      "single_word": false,
      "lstrip": false,
      "rstrip": false,
      "normalized": false,
      "special": true
    },
    {
      "id": 286,
      "content": ">>UNUSED_274<<",
      "single_word": false,
      "lstrip": false,
      "rstrip": false,
      "normalized": false,
      "special": true
    },
    {
      "id": 287,
      "content": ">>UNUSED_275<<",
      "single_word": false,
      "lstrip": false,
      "rstrip": false,
      "normalized": false,
      "special": true
    },
    {
      "id": 288,
      "content": ">>UNUSED_276<<",
      "single_word": false,
      "lstrip": false,
      "rstrip": false,
      "normalized": false,
      "special": true
    },
    {
      "id": 289,
      "content": ">>UNUSED_277<<",
      "single_word": false,
      "lstrip": false,
      "rstrip": false,
      "normalized": false,
      "special": true
    },
    {
      "id": 290,
      "content": ">>UNUSED_278<<",
      "single_word": false,
      "lstrip": false,
      "rstrip": false,
      "normalized": false,
      "special": true
    },
    {
      "id": 291,
      "content": ">>UNUSED_279<<",
      "single_word": false,
      "lstrip": false,
      "rstrip": false,
      "normalized": false,
      "special": true
    },
    {
      "id": 292,
      "content": ">>UNUSED_280<<",
      "single_word": false,
      "lstrip": false,
      "rstrip": false,
      "normalized": false,
      "special": true
    },
    {
      "id": 293,
      "content": ">>UNUSED_281<<",
      "single_word": false,
      "lstrip": false,
      "rstrip": false,
      "normalized": false,
      "special": true
    },
    {
      "id": 294,
      "content": ">>UNUSED_282<<",
      "single_word": false,
      "lstrip": false,
      "rstrip": false,
      "normalized": false,
      "special": true
    },
    {
      "id": 295,
      "content": ">>UNUSED_283<<",
      "single_word": false,
      "lstrip": false,
      "rstrip": false,
      "normalized": false,
      "special": true
    },
    {
      "id": 296,
      "content": ">>UNUSED_284<<",
      "single_word": false,
      "lstrip": false,
      "rstrip": false,
      "normalized": false,
      "special": true
    },
    {
      "id": 297,
      "content": ">>UNUSED_285<<",
      "single_word": false,
      "lstrip": false,
      "rstrip": false,
      "normalized": false,
      "special": true
    },
    {
      "id": 298,
      "content": ">>UNUSED_286<<",
      "single_word": false,
      "lstrip": false,
      "rstrip": false,
      "normalized": false,
      "special": true
    },
    {
      "id": 299,
      "content": ">>UNUSED_287<<",
      "single_word": false,
      "lstrip": false,
      "rstrip": false,
      "normalized": false,
      "special": true
    },
    {
      "id": 300,
      "content": ">>UNUSED_288<<",
      "single_word": false,
      "lstrip": false,
      "rstrip": false,
      "normalized": false,
      "special": true
    },
    {
      "id": 301,
      "content": ">>UNUSED_289<<",
      "single_word": false,
      "lstrip": false,
      "rstrip": false,
      "normalized": false,
      "special": true
    },
    {
      "id": 302,
      "content": ">>UNUSED_290<<",
      "single_word": false,
      "lstrip": false,
      "rstrip": false,
      "normalized": false,
      "special": true
    },
    {
      "id": 303,
      "content": ">>UNUSED_291<<",
      "single_word": false,
      "lstrip": false,
      "rstrip": false,
      "normalized": false,
      "special": true
    },
    {
      "id": 304,
      "content": ">>UNUSED_292<<",
      "single_word": false,
      "lstrip": false,
      "rstrip": false,
      "normalized": false,
      "special": true
    },
    {
      "id": 305,
      "content": ">>UNUSED_293<<",
      "single_word": false,
      "lstrip": false,
      "rstrip": false,
      "normalized": false,
      "special": true
    },
    {
      "id": 306,
      "content": ">>UNUSED_294<<",
      "single_word": false,
      "lstrip": false,
      "rstrip": false,
      "normalized": false,
      "special": true
    },
    {
      "id": 307,
      "content": ">>UNUSED_295<<",
      "single_word": false,
      "lstrip": false,
      "rstrip": false,
      "normalized": false,
      "special": true
    },
    {
      "id": 308,
      "content": ">>UNUSED_296<<",
      "single_word": false,
      "lstrip": false,
      "rstrip": false,
      "normalized": false,
      "special": true
    },
    {
      "id": 309,
      "content": ">>UNUSED_297<<",
      "single_word": false,
      "lstrip": false,
      "rstrip": false,
      "normalized": false,
      "special": true
    },
    {
      "id": 310,
      "content": ">>UNUSED_298<<",
      "single_word": false,
      "lstrip": false,
      "rstrip": false,
      "normalized": false,
      "special": true
    },
    {
      "id": 311,
      "content": ">>UNUSED_299<<",
      "single_word": false,
      "lstrip": false,
      "rstrip": false,
      "normalized": false,
      "special": true
    },
    {
      "id": 312,
      "content": ">>UNUSED_300<<",
      "single_word": false,
      "lstrip": false,
      "rstrip": false,
      "normalized": false,
      "special": true
    },
    {
      "id": 313,
      "content": ">>UNUSED_301<<",
      "single_word": false,
      "lstrip": false,
      "rstrip": false,
      "normalized": false,
      "special": true
    },
    {
      "id": 314,
      "content": ">>UNUSED_302<<",
      "single_word": false,
      "lstrip": false,
      "rstrip": false,
      "normalized": false,
      "special": true
    },
    {
      "id": 315,
      "content": ">>UNUSED_303<<",
      "single_word": false,
      "lstrip": false,
      "rstrip": false,
      "normalized": false,
      "special": true
    },
    {
      "id": 316,
      "content": ">>UNUSED_304<<",
      "single_word": false,
      "lstrip": false,
      "rstrip": false,
      "normalized": false,
      "special": true
    },
    {
      "id": 317,
      "content": ">>UNUSED_305<<",
      "single_word": false,
      "lstrip": false,
      "rstrip": false,
      "normalized": false,
      "special": true
    },
    {
      "id": 318,
      "content": ">>UNUSED_306<<",
      "single_word": false,
      "lstrip": false,
      "rstrip": false,
      "normalized": false,
      "special": true
    },
    {
      "id": 319,
      "content": ">>UNUSED_307<<",
      "single_word": false,
      "lstrip": false,
      "rstrip": false,
      "normalized": false,
      "special": true
    },
    {
      "id": 320,
      "content": ">>UNUSED_308<<",
      "single_word": false,
      "lstrip": false,
      "rstrip": false,
      "normalized": false,
      "special": true
    },
    {
      "id": 321,
      "content": ">>UNUSED_309<<",
      "single_word": false,
      "lstrip": false,
      "rstrip": false,
      "normalized": false,
      "special": true
    },
    {
      "id": 322,
      "content": ">>UNUSED_310<<",
      "single_word": false,
      "lstrip": false,
      "rstrip": false,
      "normalized": false,
      "special": true
    },
    {
      "id": 323,
      "content": ">>UNUSED_311<<",
      "single_word": false,
      "lstrip": false,
      "rstrip": false,
      "normalized": false,
      "special": true
    },
    {
      "id": 324,
      "content": ">>UNUSED_312<<",
      "single_word": false,
      "lstrip": false,
      "rstrip": false,
      "normalized": false,
      "special": true
    },
    {
      "id": 325,
      "content": ">>UNUSED_313<<",
      "single_word": false,
      "lstrip": false,
      "rstrip": false,
      "normalized": false,
      "special": true
    },
    {
      "id": 326,
      "content": ">>UNUSED_314<<",
      "single_word": false,
      "lstrip": false,
      "rstrip": false,
      "normalized": false,
      "special": true
    },
    {
      "id": 327,
      "content": ">>UNUSED_315<<",
      "single_word": false,
      "lstrip": false,
      "rstrip": false,
      "normalized": false,
      "special": true
    },
    {
      "id": 328,
      "content": ">>UNUSED_316<<",
      "single_word": false,
      "lstrip": false,
      "rstrip": false,
      "normalized": false,
      "special": true
    },
    {
      "id": 329,
      "content": ">>UNUSED_317<<",
      "single_word": false,
      "lstrip": false,
      "rstrip": false,
      "normalized": false,
      "special": true
    },
    {
      "id": 330,
      "content": ">>UNUSED_318<<",
      "single_word": false,
      "lstrip": false,
      "rstrip": false,
      "normalized": false,
      "special": true
    },
    {
      "id": 331,
      "content": ">>UNUSED_319<<",
      "single_word": false,
      "lstrip": false,
      "rstrip": false,
      "normalized": false,
      "special": true
    },
    {
      "id": 332,
      "content": ">>UNUSED_320<<",
      "single_word": false,
      "lstrip": false,
      "rstrip": false,
      "normalized": false,
      "special": true
    },
    {
      "id": 333,
      "content": ">>UNUSED_321<<",
      "single_word": false,
      "lstrip": false,
      "rstrip": false,
      "normalized": false,
      "special": true
    },
    {
      "id": 334,
      "content": ">>UNUSED_322<<",
      "single_word": false,
      "lstrip": false,
      "rstrip": false,
      "normalized": false,
      "special": true
    },
    {
      "id": 335,
      "content": ">>UNUSED_323<<",
      "single_word": false,
      "lstrip": false,
      "rstrip": false,
      "normalized": false,
      "special": true
    },
    {
      "id": 336,
      "content": ">>UNUSED_324<<",
      "single_word": false,
      "lstrip": false,
      "rstrip": false,
      "normalized": false,
      "special": true
    },
    {
      "id": 337,
      "content": ">>UNUSED_325<<",
      "single_word": false,
      "lstrip": false,
      "rstrip": false,
      "normalized": false,
      "special": true
    },
    {
      "id": 338,
      "content": ">>UNUSED_326<<",
      "single_word": false,
      "lstrip": false,
      "rstrip": false,
      "normalized": false,
      "special": true
    },
    {
      "id": 339,
      "content": ">>UNUSED_327<<",
      "single_word": false,
      "lstrip": false,
      "rstrip": false,
      "normalized": false,
      "special": true
    },
    {
      "id": 340,
      "content": ">>UNUSED_328<<",
      "single_word": false,
      "lstrip": false,
      "rstrip": false,
      "normalized": false,
      "special": true
    },
    {
      "id": 341,
      "content": ">>UNUSED_329<<",
      "single_word": false,
      "lstrip": false,
      "rstrip": false,
      "normalized": false,
      "special": true
    },
    {
      "id": 342,
      "content": ">>UNUSED_330<<",
      "single_word": false,
      "lstrip": false,
      "rstrip": false,
      "normalized": false,
      "special": true
    },
    {
      "id": 343,
      "content": ">>UNUSED_331<<",
      "single_word": false,
      "lstrip": false,
      "rstrip": false,
      "normalized": false,
      "special": true
    },
    {
      "id": 344,
      "content": ">>UNUSED_332<<",
      "single_word": false,
      "lstrip": false,
      "rstrip": false,
      "normalized": false,
      "special": true
    },
    {
      "id": 345,
      "content": ">>UNUSED_333<<",
      "single_word": false,
      "lstrip": false,
      "rstrip": false,
      "normalized": false,
      "special": true
    },
    {
      "id": 346,
      "content": ">>UNUSED_334<<",
      "single_word": false,
      "lstrip": false,
      "rstrip": false,
      "normalized": false,
      "special": true
    },
    {
      "id": 347,
      "content": ">>UNUSED_335<<",
      "single_word": false,
      "lstrip": false,
      "rstrip": false,
      "normalized": false,
      "special": true
    },
    {
      "id": 348,
      "content": ">>UNUSED_336<<",
      "single_word": false,
      "lstrip": false,
      "rstrip": false,
      "normalized": false,
      "special": true
    },
    {
      "id": 349,
      "content": ">>UNUSED_337<<",
      "single_word": false,
      "lstrip": false,
      "rstrip": false,
      "normalized": false,
      "special": true
    },
    {
      "id": 350,
      "content": ">>UNUSED_338<<",
      "single_word": false,
      "lstrip": false,
      "rstrip": false,
      "normalized": false,
      "special": true
    },
    {
      "id": 351,
      "content": ">>UNUSED_339<<",
      "single_word": false,
      "lstrip": false,
      "rstrip": false,
      "normalized": false,
      "special": true
    },
    {
      "id": 352,
      "content": ">>UNUSED_340<<",
      "single_word": false,
      "lstrip": false,
      "rstrip": false,
      "normalized": false,
      "special": true
    },
    {
      "id": 353,
      "content": ">>UNUSED_341<<",
      "single_word": false,
      "lstrip": false,
      "rstrip": false,
      "normalized": false,
      "special": true
    },
    {
      "id": 354,
      "content": ">>UNUSED_342<<",
      "single_word": false,
      "lstrip": false,
      "rstrip": false,
      "normalized": false,
      "special": true
    },
    {
      "id": 355,
      "content": ">>UNUSED_343<<",
      "single_word": false,
      "lstrip": false,
      "rstrip": false,
      "normalized": false,
      "special": true
    },
    {
      "id": 356,
      "content": ">>UNUSED_344<<",
      "single_word": false,
      "lstrip": false,
      "rstrip": false,
      "normalized": false,
      "special": true
    },
    {
      "id": 357,
      "content": ">>UNUSED_345<<",
      "single_word": false,
      "lstrip": false,
      "rstrip": false,
      "normalized": false,
      "special": true
    },
    {
      "id": 358,
      "content": ">>UNUSED_346<<",
      "single_word": false,
      "lstrip": false,
      "rstrip": false,
      "normalized": false,
      "special": true
    },
    {
      "id": 359,
      "content": ">>UNUSED_347<<",
      "single_word": false,
      "lstrip": false,
      "rstrip": false,
      "normalized": false,
      "special": true
    },
    {
      "id": 360,
      "content": ">>UNUSED_348<<",
      "single_word": false,
      "lstrip": false,
      "rstrip": false,
      "normalized": false,
      "special": true
    },
    {
      "id": 361,
      "content": ">>UNUSED_349<<",
      "single_word": false,
      "lstrip": false,
      "rstrip": false,
      "normalized": false,
      "special": true
    },
    {
      "id": 362,
      "content": ">>UNUSED_350<<",
      "single_word": false,
      "lstrip": false,
      "rstrip": false,
      "normalized": false,
      "special": true
    },
    {
      "id": 363,
      "content": ">>UNUSED_351<<",
      "single_word": false,
      "lstrip": false,
      "rstrip": false,
      "normalized": false,
      "special": true
    },
    {
      "id": 364,
      "content": ">>UNUSED_352<<",
      "single_word": false,
      "lstrip": false,
      "rstrip": false,
      "normalized": false,
      "special": true
    },
    {
      "id": 365,
      "content": ">>UNUSED_353<<",
      "single_word": false,
      "lstrip": false,
      "rstrip": false,
      "normalized": false,
      "special": true
    },
    {
      "id": 366,
      "content": ">>UNUSED_354<<",
      "single_word": false,
      "lstrip": false,
      "rstrip": false,
      "normalized": false,
      "special": true
    },
    {
      "id": 367,
      "content": ">>UNUSED_355<<",
      "single_word": false,
      "lstrip": false,
      "rstrip": false,
      "normalized": false,
      "special": true
    },
    {
      "id": 368,
      "content": ">>UNUSED_356<<",
      "single_word": false,
      "lstrip": false,
      "rstrip": false,
      "normalized": false,
      "special": true
    },
    {
      "id": 369,
      "content": ">>UNUSED_357<<",
      "single_word": false,
      "lstrip": false,
      "rstrip": false,
      "normalized": false,
      "special": true
    },
    {
      "id": 370,
      "content": ">>UNUSED_358<<",
      "single_word": false,
      "lstrip": false,
      "rstrip": false,
      "normalized": false,
      "special": true
    },
    {
      "id": 371,
      "content": ">>UNUSED_359<<",
      "single_word": false,
      "lstrip": false,
      "rstrip": false,
      "normalized": false,
      "special": true
    },
    {
      "id": 372,
      "content": ">>UNUSED_360<<",
      "single_word": false,
      "lstrip": false,
      "rstrip": false,
      "normalized": false,
      "special": true
    },
    {
      "id": 373,
      "content": ">>UNUSED_361<<",
      "single_word": false,
      "lstrip": false,
      "rstrip": false,
      "normalized": false,
      "special": true
    },
    {
      "id": 374,
      "content": ">>UNUSED_362<<",
      "single_word": false,
      "lstrip": false,
      "rstrip": false,
      "normalized": false,
      "special": true
    },
    {
      "id": 375,
      "content": ">>UNUSED_363<<",
      "single_word": false,
      "lstrip": false,
      "rstrip": false,
      "normalized": false,
      "special": true
    },
    {
      "id": 376,
      "content": ">>UNUSED_364<<",
      "single_word": false,
      "lstrip": false,
      "rstrip": false,
      "normalized": false,
      "special": true
    },
    {
      "id": 377,
      "content": ">>UNUSED_365<<",
      "single_word": false,
      "lstrip": false,
      "rstrip": false,
      "normalized": false,
      "special": true
    },
    {
      "id": 378,
      "content": ">>UNUSED_366<<",
      "single_word": false,
      "lstrip": false,
      "rstrip": false,
      "normalized": false,
      "special": true
    },
    {
      "id": 379,
      "content": ">>UNUSED_367<<",
      "single_word": false,
      "lstrip": false,
      "rstrip": false,
      "normalized": false,
      "special": true
    },
    {
      "id": 380,
      "content": ">>UNUSED_368<<",
      "single_word": false,
      "lstrip": false,
      "rstrip": false,
      "normalized": false,
      "special": true
    },
    {
      "id": 381,
      "content": ">>UNUSED_369<<",
      "single_word": false,
      "lstrip": false,
      "rstrip": false,
      "normalized": false,
      "special": true
    },
    {
      "id": 382,
      "content": ">>UNUSED_370<<",
      "single_word": false,
      "lstrip": false,
      "rstrip": false,
      "normalized": false,
      "special": true
    },
    {
      "id": 383,
      "content": ">>UNUSED_371<<",
      "single_word": false,
      "lstrip": false,
      "rstrip": false,
      "normalized": false,
      "special": true
    },
    {
      "id": 384,
      "content": ">>UNUSED_372<<",
      "single_word": false,
      "lstrip": false,
      "rstrip": false,
      "normalized": false,
      "special": true
    },
    {
      "id": 385,
      "content": ">>UNUSED_373<<",
      "single_word": false,
      "lstrip": false,
      "rstrip": false,
      "normalized": false,
      "special": true
    },
    {
      "id": 386,
      "content": ">>UNUSED_374<<",
      "single_word": false,
      "lstrip": false,
      "rstrip": false,
      "normalized": false,
      "special": true
    },
    {
      "id": 387,
      "content": ">>UNUSED_375<<",
      "single_word": false,
      "lstrip": false,
      "rstrip": false,
      "normalized": false,
      "special": true
    },
    {
      "id": 388,
      "content": ">>UNUSED_376<<",
      "single_word": false,
      "lstrip": false,
      "rstrip": false,
      "normalized": false,
      "special": true
    },
    {
      "id": 389,
      "content": ">>UNUSED_377<<",
      "single_word": false,
      "lstrip": false,
      "rstrip": false,
      "normalized": false,
      "special": true
    },
    {
      "id": 390,
      "content": ">>UNUSED_378<<",
      "single_word": false,
      "lstrip": false,
      "rstrip": false,
      "normalized": false,
      "special": true
    },
    {
      "id": 391,
      "content": ">>UNUSED_379<<",
      "single_word": false,
      "lstrip": false,
      "rstrip": false,
      "normalized": false,
      "special": true
    },
    {
      "id": 392,
      "content": ">>UNUSED_380<<",
      "single_word": false,
      "lstrip": false,
      "rstrip": false,
      "normalized": false,
      "special": true
    },
    {
      "id": 393,
      "content": ">>UNUSED_381<<",
      "single_word": false,
      "lstrip": false,
      "rstrip": false,
      "normalized": false,
      "special": true
    },
    {
      "id": 394,
      "content": ">>UNUSED_382<<",
      "single_word": false,
      "lstrip": false,
      "rstrip": false,
      "normalized": false,
      "special": true
    },
    {
      "id": 395,
      "content": ">>UNUSED_383<<",
      "single_word": false,
      "lstrip": false,
      "rstrip": false,
      "normalized": false,
      "special": true
    },
    {
      "id": 396,
      "content": ">>UNUSED_384<<",
      "single_word": false,
      "lstrip": false,
      "rstrip": false,
      "normalized": false,
      "special": true
    },
    {
      "id": 397,
      "content": ">>UNUSED_385<<",
      "single_word": false,
      "lstrip": false,
      "rstrip": false,
      "normalized": false,
      "special": true
    },
    {
      "id": 398,
      "content": ">>UNUSED_386<<",
      "single_word": false,
      "lstrip": false,
      "rstrip": false,
      "normalized": false,
      "special": true
    },
    {
      "id": 399,
      "content": ">>UNUSED_387<<",
      "single_word": false,
      "lstrip": false,
      "rstrip": false,
      "normalized": false,
      "special": true
    },
    {
      "id": 400,
      "content": ">>UNUSED_388<<",
      "single_word": false,
      "lstrip": false,
      "rstrip": false,
      "normalized": false,
      "special": true
    },
    {
      "id": 401,
      "content": ">>UNUSED_389<<",
      "single_word": false,
      "lstrip": false,
      "rstrip": false,
      "normalized": false,
      "special": true
    },
    {
      "id": 402,
      "content": ">>UNUSED_390<<",
      "single_word": false,
      "lstrip": false,
      "rstrip": false,
      "normalized": false,
      "special": true
    },
    {
      "id": 403,
      "content": ">>UNUSED_391<<",
      "single_word": false,
      "lstrip": false,
      "rstrip": false,
      "normalized": false,
      "special": true
    },
    {
      "id": 404,
      "content": ">>UNUSED_392<<",
      "single_word": false,
      "lstrip": false,
      "rstrip": false,
      "normalized": false,
      "special": true
    },
    {
      "id": 405,
      "content": ">>UNUSED_393<<",
      "single_word": false,
      "lstrip": false,
      "rstrip": false,
      "normalized": false,
      "special": true
    },
    {
      "id": 406,
      "content": ">>UNUSED_394<<",
      "single_word": false,
      "lstrip": false,
      "rstrip": false,
      "normalized": false,
      "special": true
    },
    {
      "id": 407,
      "content": ">>UNUSED_395<<",
      "single_word": false,
      "lstrip": false,
      "rstrip": false,
      "normalized": false,
      "special": true
    },
    {
      "id": 408,
      "content": ">>UNUSED_396<<",
      "single_word": false,
      "lstrip": false,
      "rstrip": false,
      "normalized": false,
      "special": true
    },
    {
      "id": 409,
      "content": ">>UNUSED_397<<",
      "single_word": false,
      "lstrip": false,
      "rstrip": false,
      "normalized": false,
      "special": true
    },
    {
      "id": 410,
      "content": ">>UNUSED_398<<",
      "single_word": false,
      "lstrip": false,
      "rstrip": false,
      "normalized": false,
      "special": true
    },
    {
      "id": 411,
      "content": ">>UNUSED_399<<",
      "single_word": false,
      "lstrip": false,
      "rstrip": false,
      "normalized": false,
      "special": true
    },
    {
      "id": 412,
      "content": ">>UNUSED_400<<",
      "single_word": false,
      "lstrip": false,
      "rstrip": false,
      "normalized": false,
      "special": true
    },
    {
      "id": 413,
      "content": ">>UNUSED_401<<",
      "single_word": false,
      "lstrip": false,
      "rstrip": false,
      "normalized": false,
      "special": true
    },
    {
      "id": 414,
      "content": ">>UNUSED_402<<",
      "single_word": false,
      "lstrip": false,
      "rstrip": false,
      "normalized": false,
      "special": true
    },
    {
      "id": 415,
      "content": ">>UNUSED_403<<",
      "single_word": false,
      "lstrip": false,
      "rstrip": false,
      "normalized": false,
      "special": true
    },
    {
      "id": 416,
      "content": ">>UNUSED_404<<",
      "single_word": false,
      "lstrip": false,
      "rstrip": false,
      "normalized": false,
      "special": true
    },
    {
      "id": 417,
      "content": ">>UNUSED_405<<",
      "single_word": false,
      "lstrip": false,
      "rstrip": false,
      "normalized": false,
      "special": true
    },
    {
      "id": 418,
      "content": ">>UNUSED_406<<",
      "single_word": false,
      "lstrip": false,
      "rstrip": false,
      "normalized": false,
      "special": true
    },
    {
      "id": 419,
      "content": ">>UNUSED_407<<",
      "single_word": false,
      "lstrip": false,
      "rstrip": false,
      "normalized": false,
      "special": true
    },
    {
      "id": 420,
      "content": ">>UNUSED_408<<",
      "single_word": false,
      "lstrip": false,
      "rstrip": false,
      "normalized": false,
      "special": true
    },
    {
      "id": 421,
      "content": ">>UNUSED_409<<",
      "single_word": false,
      "lstrip": false,
      "rstrip": false,
      "normalized": false,
      "special": true
    },
    {
      "id": 422,
      "content": ">>UNUSED_410<<",
      "single_word": false,
      "lstrip": false,
      "rstrip": false,
      "normalized": false,
      "special": true
    },
    {
      "id": 423,
      "content": ">>UNUSED_411<<",
      "single_word": false,
      "lstrip": false,
      "rstrip": false,
      "normalized": false,
      "special": true
    },
    {
      "id": 424,
      "content": ">>UNUSED_412<<",
      "single_word": false,
      "lstrip": false,
      "rstrip": false,
      "normalized": false,
      "special": true
    },
    {
      "id": 425,
      "content": ">>UNUSED_413<<",
      "single_word": false,
      "lstrip": false,
      "rstrip": false,
      "normalized": false,
      "special": true
    },
    {
      "id": 426,
      "content": ">>UNUSED_414<<",
      "single_word": false,
      "lstrip": false,
      "rstrip": false,
      "normalized": false,
      "special": true
    },
    {
      "id": 427,
      "content": ">>UNUSED_415<<",
      "single_word": false,
      "lstrip": false,
      "rstrip": false,
      "normalized": false,
      "special": true
    },
    {
      "id": 428,
      "content": ">>UNUSED_416<<",
      "single_word": false,
      "lstrip": false,
      "rstrip": false,
      "normalized": false,
      "special": true
    },
    {
      "id": 429,
      "content": ">>UNUSED_417<<",
      "single_word": false,
      "lstrip": false,
      "rstrip": false,
      "normalized": false,
      "special": true
    },
    {
      "id": 430,
      "content": ">>UNUSED_418<<",
      "single_word": false,
      "lstrip": false,
      "rstrip": false,
      "normalized": false,
      "special": true
    },
    {
      "id": 431,
      "content": ">>UNUSED_419<<",
      "single_word": false,
      "lstrip": false,
      "rstrip": false,
      "normalized": false,
      "special": true
    },
    {
      "id": 432,
      "content": ">>UNUSED_420<<",
      "single_word": false,
      "lstrip": false,
      "rstrip": false,
      "normalized": false,
      "special": true
    },
    {
      "id": 433,
      "content": ">>UNUSED_421<<",
      "single_word": false,
      "lstrip": false,
      "rstrip": false,
      "normalized": false,
      "special": true
    },
    {
      "id": 434,
      "content": ">>UNUSED_422<<",
      "single_word": false,
      "lstrip": false,
      "rstrip": false,
      "normalized": false,
      "special": true
    },
    {
      "id": 435,
      "content": ">>UNUSED_423<<",
      "single_word": false,
      "lstrip": false,
      "rstrip": false,
      "normalized": false,
      "special": true
    },
    {
      "id": 436,
      "content": ">>UNUSED_424<<",
      "single_word": false,
      "lstrip": false,
      "rstrip": false,
      "normalized": false,
      "special": true
    },
    {
      "id": 437,
      "content": ">>UNUSED_425<<",
      "single_word": false,
      "lstrip": false,
      "rstrip": false,
      "normalized": false,
      "special": true
    },
    {
      "id": 438,
      "content": ">>UNUSED_426<<",
      "single_word": false,
      "lstrip": false,
      "rstrip": false,
      "normalized": false,
      "special": true
    },
    {
      "id": 439,
      "content": ">>UNUSED_427<<",
      "single_word": false,
      "lstrip": false,
      "rstrip": false,
      "normalized": false,
      "special": true
    },
    {
      "id": 440,
      "content": ">>UNUSED_428<<",
      "single_word": false,
      "lstrip": false,
      "rstrip": false,
      "normalized": false,
      "special": true
    },
    {
      "id": 441,
      "content": ">>UNUSED_429<<",
      "single_word": false,
      "lstrip": false,
      "rstrip": false,
      "normalized": false,
      "special": true
    },
    {
      "id": 442,
      "content": ">>UNUSED_430<<",
      "single_word": false,
      "lstrip": false,
      "rstrip": false,
      "normalized": false,
      "special": true
    },
    {
      "id": 443,
      "content": ">>UNUSED_431<<",
      "single_word": false,
      "lstrip": false,
      "rstrip": false,
      "normalized": false,
      "special": true
    },
    {
      "id": 444,
      "content": ">>UNUSED_432<<",
      "single_word": false,
      "lstrip": false,
      "rstrip": false,
      "normalized": false,
      "special": true
    },
    {
      "id": 445,
      "content": ">>UNUSED_433<<",
      "single_word": false,
      "lstrip": false,
      "rstrip": false,
      "normalized": false,
      "special": true
    },
    {
      "id": 446,
      "content": ">>UNUSED_434<<",
      "single_word": false,
      "lstrip": false,
      "rstrip": false,
      "normalized": false,
      "special": true
    },
    {
      "id": 447,
      "content": ">>UNUSED_435<<",
      "single_word": false,
      "lstrip": false,
      "rstrip": false,
      "normalized": false,
      "special": true
    },
    {
      "id": 448,
      "content": ">>UNUSED_436<<",
      "single_word": false,
      "lstrip": false,
      "rstrip": false,
      "normalized": false,
      "special": true
    },
    {
      "id": 449,
      "content": ">>UNUSED_437<<",
      "single_word": false,
      "lstrip": false,
      "rstrip": false,
      "normalized": false,
      "special": true
    },
    {
      "id": 450,
      "content": ">>UNUSED_438<<",
      "single_word": false,
      "lstrip": false,
      "rstrip": false,
      "normalized": false,
      "special": true
    },
    {
      "id": 451,
      "content": ">>UNUSED_439<<",
      "single_word": false,
      "lstrip": false,
      "rstrip": false,
      "normalized": false,
      "special": true
    },
    {
      "id": 452,
      "content": ">>UNUSED_440<<",
      "single_word": false,
      "lstrip": false,
      "rstrip": false,
      "normalized": false,
      "special": true
    },
    {
      "id": 453,
      "content": ">>UNUSED_441<<",
      "single_word": false,
      "lstrip": false,
      "rstrip": false,
      "normalized": false,
      "special": true
    },
    {
      "id": 454,
      "content": ">>UNUSED_442<<",
      "single_word": false,
      "lstrip": false,
      "rstrip": false,
      "normalized": false,
      "special": true
    },
    {
      "id": 455,
      "content": ">>UNUSED_443<<",
      "single_word": false,
      "lstrip": false,
      "rstrip": false,
      "normalized": false,
      "special": true
    },
    {
      "id": 456,
      "content": ">>UNUSED_444<<",
      "single_word": false,
      "lstrip": false,
      "rstrip": false,
      "normalized": false,
      "special": true
    },
    {
      "id": 457,
      "content": ">>UNUSED_445<<",
      "single_word": false,
      "lstrip": false,
      "rstrip": false,
      "normalized": false,
      "special": true
    },
    {
      "id": 458,
      "content": ">>UNUSED_446<<",
      "single_word": false,
      "lstrip": false,
      "rstrip": false,
      "normalized": false,
      "special": true
    },
    {
      "id": 459,
      "content": ">>UNUSED_447<<",
      "single_word": false,
      "lstrip": false,
      "rstrip": false,
      "normalized": false,
      "special": true
    },
    {
      "id": 460,
      "content": ">>UNUSED_448<<",
      "single_word": false,
      "lstrip": false,
      "rstrip": false,
      "normalized": false,
      "special": true
    },
    {
      "id": 461,
      "content": ">>UNUSED_449<<",
      "single_word": false,
      "lstrip": false,
      "rstrip": false,
      "normalized": false,
      "special": true
    },
    {
      "id": 462,
      "content": ">>UNUSED_450<<",
      "single_word": false,
      "lstrip": false,
      "rstrip": false,
      "normalized": false,
      "special": true
    },
    {
      "id": 463,
      "content": ">>UNUSED_451<<",
      "single_word": false,
      "lstrip": false,
      "rstrip": false,
      "normalized": false,
      "special": true
    },
    {
      "id": 464,
      "content": ">>UNUSED_452<<",
      "single_word": false,
      "lstrip": false,
      "rstrip": false,
      "normalized": false,
      "special": true
    },
    {
      "id": 465,
      "content": ">>UNUSED_453<<",
      "single_word": false,
      "lstrip": false,
      "rstrip": false,
      "normalized": false,
      "special": true
    },
    {
      "id": 466,
      "content": ">>UNUSED_454<<",
      "single_word": false,
      "lstrip": false,
      "rstrip": false,
      "normalized": false,
      "special": true
    },
    {
      "id": 467,
      "content": ">>UNUSED_455<<",
      "single_word": false,
      "lstrip": false,
      "rstrip": false,
      "normalized": false,
      "special": true
    },
    {
      "id": 468,
      "content": ">>UNUSED_456<<",
      "single_word": false,
      "lstrip": false,
      "rstrip": false,
      "normalized": false,
      "special": true
    },
    {
      "id": 469,
      "content": ">>UNUSED_457<<",
      "single_word": false,
      "lstrip": false,
      "rstrip": false,
      "normalized": false,
      "special": true
    },
    {
      "id": 470,
      "content": ">>UNUSED_458<<",
      "single_word": false,
      "lstrip": false,
      "rstrip": false,
      "normalized": false,
      "special": true
    },
    {
      "id": 471,
      "content": ">>UNUSED_459<<",
      "single_word": false,
      "lstrip": false,
      "rstrip": false,
      "normalized": false,
      "special": true
    },
    {
      "id": 472,
      "content": ">>UNUSED_460<<",
      "single_word": false,
      "lstrip": false,
      "rstrip": false,
      "normalized": false,
      "special": true
    },
    {
      "id": 473,
      "content": ">>UNUSED_461<<",
      "single_word": false,
      "lstrip": false,
      "rstrip": false,
      "normalized": false,
      "special": true
    },
    {
      "id": 474,
      "content": ">>UNUSED_462<<",
      "single_word": false,
      "lstrip": false,
      "rstrip": false,
      "normalized": false,
      "special": true
    },
    {
      "id": 475,
      "content": ">>UNUSED_463<<",
      "single_word": false,
      "lstrip": false,
      "rstrip": false,
      "normalized": false,
      "special": true
    },
    {
      "id": 476,
      "content": ">>UNUSED_464<<",
      "single_word": false,
      "lstrip": false,
      "rstrip": false,
      "normalized": false,
      "special": true
    },
    {
      "id": 477,
      "content": ">>UNUSED_465<<",
      "single_word": false,
      "lstrip": false,
      "rstrip": false,
      "normalized": false,
      "special": true
    },
    {
      "id": 478,
      "content": ">>UNUSED_466<<",
      "single_word": false,
      "lstrip": false,
      "rstrip": false,
      "normalized": false,
      "special": true
    },
    {
      "id": 479,
      "content": ">>UNUSED_467<<",
      "single_word": false,
      "lstrip": false,
      "rstrip": false,
      "normalized": false,
      "special": true
    },
    {
      "id": 480,
      "content": ">>UNUSED_468<<",
      "single_word": false,
      "lstrip": false,
      "rstrip": false,
      "normalized": false,
      "special": true
    },
    {
      "id": 481,
      "content": ">>UNUSED_469<<",
      "single_word": false,
      "lstrip": false,
      "rstrip": false,
      "normalized": false,
      "special": true
    },
    {
      "id": 482,
      "content": ">>UNUSED_470<<",
      "single_word": false,
      "lstrip": false,
      "rstrip": false,
      "normalized": false,
      "special": true
    },
    {
      "id": 483,
      "content": ">>UNUSED_471<<",
      "single_word": false,
      "lstrip": false,
      "rstrip": false,
      "normalized": false,
      "special": true
    },
    {
      "id": 484,
      "content": ">>UNUSED_472<<",
      "single_word": false,
      "lstrip": false,
      "rstrip": false,
      "normalized": false,
      "special": true
    },
    {
      "id": 485,
      "content": ">>UNUSED_473<<",
      "single_word": false,
      "lstrip": false,
      "rstrip": false,
      "normalized": false,
      "special": true
    },
    {
      "id": 486,
      "content": ">>UNUSED_474<<",
      "single_word": false,
      "lstrip": false,
      "rstrip": false,
      "normalized": false,
      "special": true
    },
    {
      "id": 487,
      "content": ">>UNUSED_475<<",
      "single_word": false,
      "lstrip": false,
      "rstrip": false,
      "normalized": false,
      "special": true
    },
    {
      "id": 488,
      "content": ">>UNUSED_476<<",
      "single_word": false,
      "lstrip": false,
      "rstrip": false,
      "normalized": false,
      "special": true
    },
    {
      "id": 489,
      "content": ">>UNUSED_477<<",
      "single_word": false,
      "lstrip": false,
      "rstrip": false,
      "normalized": false,
      "special": true
    },
    {
      "id": 490,
      "content": ">>UNUSED_478<<",
      "single_word": false,
      "lstrip": false,
      "rstrip": false,
      "normalized": false,
      "special": true
    },
    {
      "id": 491,
      "content": ">>UNUSED_479<<",
      "single_word": false,
      "lstrip": false,
      "rstrip": false,
      "normalized": false,
      "special": true
    },
    {
      "id": 492,
      "content": ">>UNUSED_480<<",
      "single_word": false,
      "lstrip": false,
      "rstrip": false,
      "normalized": false,
      "special": true
    },
    {
      "id": 493,
      "content": ">>UNUSED_481<<",
      "single_word": false,
      "lstrip": false,
      "rstrip": false,
      "normalized": false,
      "special": true
    },
    {
      "id": 494,
      "content": ">>UNUSED_482<<",
      "single_word": false,
      "lstrip": false,
      "rstrip": false,
      "normalized": false,
      "special": true
    },
    {
      "id": 495,
      "content": ">>UNUSED_483<<",
      "single_word": false,
      "lstrip": false,
      "rstrip": false,
      "normalized": false,
      "special": true
    },
    {
      "id": 496,
      "content": ">>UNUSED_484<<",
      "single_word": false,
      "lstrip": false,
      "rstrip": false,
      "normalized": false,
      "special": true
    },
    {
      "id": 497,
      "content": ">>UNUSED_485<<",
      "single_word": false,
      "lstrip": false,
      "rstrip": false,
      "normalized": false,
      "special": true
    },
    {
      "id": 498,
      "content": ">>UNUSED_486<<",
      "single_word": false,
      "lstrip": false,
      "rstrip": false,
      "normalized": false,
      "special": true
    },
    {
      "id": 499,
      "content": ">>UNUSED_487<<",
      "single_word": false,
      "lstrip": false,
      "rstrip": false,
      "normalized": false,
      "special": true
    },
    {
      "id": 500,
      "content": ">>UNUSED_488<<",
      "single_word": false,
      "lstrip": false,
      "rstrip": false,
      "normalized": false,
      "special": true
    },
    {
      "id": 501,
      "content": ">>UNUSED_489<<",
      "single_word": false,
      "lstrip": false,
      "rstrip": false,
      "normalized": false,
      "special": true
    },
    {
      "id": 502,
      "content": ">>UNUSED_490<<",
      "single_word": false,
      "lstrip": false,
      "rstrip": false,
      "normalized": false,
      "special": true
    },
    {
      "id": 503,
      "content": ">>UNUSED_491<<",
      "single_word": false,
      "lstrip": false,
      "rstrip": false,
      "normalized": false,
      "special": true
    },
    {
      "id": 504,
      "content": ">>UNUSED_492<<",
      "single_word": false,
      "lstrip": false,
      "rstrip": false,
      "normalized": false,
      "special": true
    },
    {
      "id": 505,
      "content": ">>UNUSED_493<<",
      "single_word": false,
      "lstrip": false,
      "rstrip": false,
      "normalized": false,
      "special": true
    },
    {
      "id": 506,
      "content": ">>UNUSED_494<<",
      "single_word": false,
      "lstrip": false,
      "rstrip": false,
      "normalized": false,
      "special": true
    },
    {
      "id": 507,
      "content": ">>UNUSED_495<<",
      "single_word": false,
      "lstrip": false,
      "rstrip": false,
      "normalized": false,
      "special": true
    },
    {
      "id": 508,
      "content": ">>UNUSED_496<<",
      "single_word": false,
      "lstrip": false,
      "rstrip": false,
      "normalized": false,
      "special": true
    },
    {
      "id": 509,
      "content": ">>UNUSED_497<<",
      "single_word": false,
      "lstrip": false,
      "rstrip": false,
      "normalized": false,
      "special": true
    },
    {
      "id": 510,
      "content": ">>UNUSED_498<<",
      "single_word": false,
      "lstrip": false,
      "rstrip": false,
      "normalized": false,
      "special": true
    },
    {
      "id": 511,
      "content": ">>UNUSED_499<<",
      "single_word": false,
      "lstrip": false,
      "rstrip": false,
      "normalized": false,
      "special": true
    },
    {
      "id": 512,
      "content": ">>UNUSED_500<<",
      "single_word": false,
      "lstrip": false,
      "rstrip": false,
      "normalized": false,
      "special": true
    },
    {
      "id": 513,
      "content": ">>UNUSED_501<<",
      "single_word": false,
      "lstrip": false,
      "rstrip": false,
      "normalized": false,
      "special": true
    },
    {
      "id": 514,
      "content": ">>UNUSED_502<<",
      "single_word": false,
      "lstrip": false,
      "rstrip": false,
      "normalized": false,
      "special": true
    },
    {
      "id": 515,
      "content": ">>UNUSED_503<<",
      "single_word": false,
      "lstrip": false,
      "rstrip": false,
      "normalized": false,
      "special": true
    },
    {
      "id": 516,
      "content": ">>UNUSED_504<<",
      "single_word": false,
      "lstrip": false,
      "rstrip": false,
      "normalized": false,
      "special": true
    },
    {
      "id": 517,
      "content": ">>UNUSED_505<<",
      "single_word": false,
      "lstrip": false,
      "rstrip": false,
      "normalized": false,
      "special": true
    },
    {
      "id": 518,
      "content": ">>UNUSED_506<<",
      "single_word": false,
      "lstrip": false,
      "rstrip": false,
      "normalized": false,
      "special": true
    },
    {
      "id": 519,
      "content": ">>UNUSED_507<<",
      "single_word": false,
      "lstrip": false,
      "rstrip": false,
      "normalized": false,
      "special": true
    },
    {
      "id": 520,
      "content": ">>UNUSED_508<<",
      "single_word": false,
      "lstrip": false,
      "rstrip": false,
      "normalized": false,
      "special": true
    },
    {
      "id": 521,
      "content": ">>UNUSED_509<<",
      "single_word": false,
      "lstrip": false,
      "rstrip": false,
      "normalized": false,
      "special": true
    },
    {
      "id": 522,
      "content": ">>UNUSED_510<<",
      "single_word": false,
      "lstrip": false,
      "rstrip": false,
      "normalized": false,
      "special": true
    },
    {
      "id": 523,
      "content": ">>UNUSED_511<<",
      "single_word": false,
      "lstrip": false,
      "rstrip": false,
      "normalized": false,
      "special": true
    },
    {
      "id": 65536,
      "content": "<pad>",
      "single_word": false,
      "lstrip": false,
      "rstrip": false,
      "normalized": false,
      "special": true
    }
  ],
  "normalizer": null,
  "pre_tokenizer": {
    "type": "Sequence",
    "pretokenizers": [
      {
        "type": "Punctuation",
        "behavior": "Contiguous"
      },
      {
        "type": "Split",
        "pattern": {
          "Regex": "[^\\r\\n\\p{L}\\p{N}]?[\\p{Lu}\\p{Lt}\\p{Lm}\\p{Lo}\\p{M}]*[\\p{Ll}\\p{Lm}\\p{Lo}\\p{M}]+|[^\\r\\n\\p{L}\\p{N}]?[\\p{Lu}\\p{Lt}\\p{Lm}\\p{Lo}\\p{M}]+[\\p{Ll}\\p{Lm}\\p{Lo}\\p{M}]*|\\p{N}| ?[^\\s\\p{L}\\p{N}]+[\\r\\n/]*|\\s*[\\r\\n]+|\\s+(?!\\S)|\\s+"
        },
        "behavior": "Isolated",
        "invert": false
      },
      {
        "type": "ByteLevel",
        "add_prefix_space": false,
        "trim_offsets": true,
        "use_regex": false
      },
      {
        "type": "Split",
        "pattern": {
          "Regex": "[0-9]"
        },
        "behavior": "Isolated",
        "invert": false
      }
    ]
  },
  "post_processor": null,
  "decoder": {
    "type": "ByteLevel",
    "add_prefix_space": true,
    "trim_offsets": true,
    "use_regex": true
  },
  "model": {
    "type": "BPE",
    "dropout": null,
    "unk_token": null,
    "continuing_subword_prefix": null,
    "end_of_word_suffix": null,
    "fuse_unk": false,
    "byte_fallback": false,
    "ignore_merges": false,
    "vocab": {
      "<|pad|>": 0,
      ">>ABSTRACT<<": 1,
      ">>INTRODUCTION<<": 2,
      ">>SUMMARY<<": 3,
      ">>COMMENT<<": 4,
      ">>ANSWER<<": 5,
      ">>QUESTION<<": 6,
      ">>DOMAIN<<": 7,
      ">>PREFIX<<": 8,
      ">>SUFFIX<<": 9,
      ">>MIDDLE<<": 10,
      "<|end_of_text|>": 11,
      "<|finetune_right_pad_id|>": 12,
      "<|start_header_id|>": 13,
      "<|end_header_id|>": 14,
      "<|eom_id|>": 15,
      "<|eot_id|>": 16,
      "<|begin_of_text|>": 17,
      ">>TITLE<<": 18,
      "<tool_response>": 19,
      "</tool_response>": 20,
      "<tool_call>": 21,
      "</tool_call>": 22,
      "<schema>": 23,
      "</schema>": 24,
      "<scratch_pad>": 25,
      "</scratch_pad>": 26,
      "<thinking>": 27,
      "</thinking>": 28,
      "<explanation>": 29,
      "</explanation>": 30,
      "<file_sep>": 31,
      "<repo_name>": 32,
      "\\blindtext": 33,
      "\\newpage": 34,
      "\\boxed": 35,
      "\\framebox": 36,
      "\\fbox": 37,
      "\\tag": 38,
      "\\nonumber": 39,
      "\\item": 40,
      "\\centering": 41,
      "\\caption": 42,
      "\\includegraphics": 43,
      "\\label": 44,
      "\\multicolumn": 45,
      "\\cline": 46,
      "\\hline": 47,
      "\\end": 48,
      "\\begin": 49,
      "\\tableofcontents": 50,
      "\\maketitle": 51,
      "\\date": 52,
      "\\author": 53,
      "\\title": 54,
      "\\chapter": 55,
      "\\subsubsection": 56,
      "\\subsection": 57,
      "\\section": 58,
      "\\noindent": 59,
      "\\newline": 60,
      "\\par": 61,
      "\\ddot": 62,
      "\\dot": 63,
      "\\bar": 64,
      "\\iff": 65,
      "\\implies": 66,
      "\\neg": 67,
      "\\lor": 68,
      "\\land": 69,
      "\\qquad": 70,
      "\\quad": 71,
      "\\arctan": 72,
      "\\arccos": 73,
      "\\arcsin": 74,
      "\\cot": 75,
      "\\sec": 76,
      "\\csc": 77,
      "\\tan": 78,
      "\\cos": 79,
      "\\sin": 80,
      "\\widetilde": 81,
      "\\widehat": 82,
      "\\complement": 83,
      "\\varnothing": 84,
      "\\tilde": 85,
      "\\hat": 86,
      "\\vec": 87,
      "\\mathfrak": 88,
      "\\mathcal": 89,
      "\\mathbb": 90,
      "\\emptyset": 91,
      "\\bot": 92,
      "\\aleph": 93,
      "\\Re": 94,
      "\\Im": 95,
      "\\ell": 96,
      "\\hbar": 97,
      "\\exists": 98,
      "\\forall": 99,
      "\\partial": 100,
      "\\nabla": 101,
      "\\infty": 102,
      "\\binom": 103,
      "\\overline": 104,
      "\\sqrt": 105,
      "\\tfrac": 106,
      "\\dfrac": 107,
      "\\frac": 108,
      "\\textsc": 109,
      "\\textsf": 110,
      "\\texttt": 111,
      "\\emph": 112,
      "\\underline": 113,
      "\\textit": 114,
      "\\textbf": 115,
      "\\bigoplus": 116,
      "\\bigcap": 117,
      "\\bigcup": 118,
      "\\prod": 119,
      "\\sum": 120,
      "\\oint": 121,
      "\\iiint": 122,
      "\\iint": 123,
      "\\int": 124,
      "\\right": 125,
      "\\left": 126,
      "\\Bigr": 127,
      "\\Bigl": 128,
      "\\bigr": 129,
      "\\bigl": 130,
      ">>UNUSED_119<<": 131,
      ">>UNUSED_120<<": 132,
      "\\rceil": 133,
      "\\lceil": 134,
      "\\rfloor": 135,
      "\\lfloor": 136,
      "\\rangle": 137,
      "\\langle": 138,
      "\\overleftarrow": 139,
      "\\overleftrightarrow": 140,
      "\\overrightarrow": 141,
      "\\Longleftrightarrow": 142,
      "\\longleftrightarrow": 143,
      "\\longrightarrow": 144,
      "\\longleftarrow": 145,
      "\\Longrightarrow": 146,
      "\\Longleftarrow": 147,
      "\\gets": 148,
      "\\to": 149,
      "\\mapsto": 150,
      "\\Updownarrow": 151,
      "\\Downarrow": 152,
      "\\Uparrow": 153,
      "\\updownarrow": 154,
      "\\downarrow": 155,
      "\\uparrow": 156,
      "\\Leftrightarrow": 157,
      "\\Rightarrow": 158,
      "\\Leftarrow": 159,
      "\\leftrightarrow": 160,
      "\\rightarrow": 161,
      "\\leftarrow": 162,
      "\\perp": 163,
      "\\propto": 164,
      "\\ni": 165,
      "\\notin": 166,
      "\\in": 167,
      "\\supseteq": 168,
      "\\supset": 169,
      "\\sqsupseteq": 170,
      "\\sqsubseteq": 171,
      "\\subseteq": 172,
      "\\subset": 173,
      "\\cong": 174,
      "\\approx": 175,
      "\\simeq": 176,
      "\\sim": 177,
      "\\equiv": 178,
      "\\neq": 179,
      "\\geq": 180,
      "\\leq": 181,
      "\\oslash": 182,
      "\\otimes": 183,
      "\\ominus": 184,
      "\\oplus": 185,
      "\\wedge": 186,
      "\\vee": 187,
      "\\sqcup": 188,
      "\\sqcap": 189,
      "\\uplus": 190,
      "\\cup": 191,
      "\\cap": 192,
      "\\cdot": 193,
      "\\bullet": 194,
      "\\circ": 195,
      "\\star": 196,
      "\\ast": 197,
      "\\div": 198,
      "\\times": 199,
      "\\mp": 200,
      "\\pm": 201,
      "\\omega": 202,
      "\\psi": 203,
      "\\chi": 204,
      "\\varphi": 205,
      "\\varsigma": 206,
      "\\phi": 207,
      "\\upsilon": 208,
      "\\tau": 209,
      "\\sigma": 210,
      "\\rho": 211,
      "\\pi": 212,
      "\\xi": 213,
      "\\nu": 214,
      "\\mu": 215,
      "\\lambda": 216,
      "\\kappa": 217,
      "\\iota": 218,
      "\\theta": 219,
      "\\eta": 220,
      "\\zeta": 221,
      "\\epsilon": 222,
      "\\delta": 223,
      "\\gamma": 224,
      "\\beta": 225,
      "\\alpha": 226,
      "<|im_start|>": 227,
      "<|im_end|>": 228,
      "<|system|>": 229,
      ">>UNUSED_218<<": 230,
      ">>UNUSED_219<<": 231,
      ">>UNUSED_220<<": 232,
      ">>UNUSED_221<<": 233,
      ">>UNUSED_222<<": 234,
      ">>UNUSED_223<<": 235,
      ">>UNUSED_224<<": 236,
      ">>UNUSED_225<<": 237,
      ">>UNUSED_226<<": 238,
      ">>UNUSED_227<<": 239,
      ">>UNUSED_228<<": 240,
      ">>UNUSED_229<<": 241,
      ">>UNUSED_230<<": 242,
      ">>UNUSED_231<<": 243,
      ">>UNUSED_232<<": 244,
      ">>UNUSED_233<<": 245,
      ">>UNUSED_234<<": 246,
      ">>UNUSED_235<<": 247,
      ">>UNUSED_236<<": 248,
      ">>UNUSED_237<<": 249,
      ">>UNUSED_238<<": 250,
      ">>UNUSED_239<<": 251,
      ">>UNUSED_240<<": 252,
      ">>UNUSED_241<<": 253,
      ">>UNUSED_242<<": 254,
      ">>UNUSED_243<<": 255,
      ">>UNUSED_244<<": 256,
      ">>UNUSED_245<<": 257,
      ">>UNUSED_246<<": 258,
      ">>UNUSED_247<<": 259,
      ">>UNUSED_248<<": 260,
      ">>UNUSED_249<<": 261,
      ">>UNUSED_250<<": 262,
      ">>UNUSED_251<<": 263,
      ">>UNUSED_252<<": 264,
      ">>UNUSED_253<<": 265,
      ">>UNUSED_254<<": 266,
      ">>UNUSED_255<<": 267,
      ">>UNUSED_256<<": 268,
      ">>UNUSED_257<<": 269,
      ">>UNUSED_258<<": 270,
      ">>UNUSED_259<<": 271,
      ">>UNUSED_260<<": 272,
      ">>UNUSED_261<<": 273,
      ">>UNUSED_262<<": 274,
      ">>UNUSED_263<<": 275,
      ">>UNUSED_264<<": 276,
      ">>UNUSED_265<<": 277,
      ">>UNUSED_266<<": 278,
      ">>UNUSED_267<<": 279,
      ">>UNUSED_268<<": 280,
      ">>UNUSED_269<<": 281,
      ">>UNUSED_270<<": 282,
      ">>UNUSED_271<<": 283,
      ">>UNUSED_272<<": 284,
      ">>UNUSED_273<<": 285,
      ">>UNUSED_274<<": 286,
      ">>UNUSED_275<<": 287,
      ">>UNUSED_276<<": 288,
      ">>UNUSED_277<<": 289,
      ">>UNUSED_278<<": 290,
      ">>UNUSED_279<<": 291,
      ">>UNUSED_280<<": 292,
      ">>UNUSED_281<<": 293,
      ">>UNUSED_282<<": 294,
      ">>UNUSED_283<<": 295,
      ">>UNUSED_284<<": 296,
      ">>UNUSED_285<<": 297,
      ">>UNUSED_286<<": 298,
      ">>UNUSED_287<<": 299,
      ">>UNUSED_288<<": 300,
      ">>UNUSED_289<<": 301,
      ">>UNUSED_290<<": 302,
      ">>UNUSED_291<<": 303,
      ">>UNUSED_292<<": 304,
      ">>UNUSED_293<<": 305,
      ">>UNUSED_294<<": 306,
      ">>UNUSED_295<<": 307,
      ">>UNUSED_296<<": 308,
      ">>UNUSED_297<<": 309,
      ">>UNUSED_298<<": 310,
      ">>UNUSED_299<<": 311,
      ">>UNUSED_300<<": 312,
      ">>UNUSED_301<<": 313,
      ">>UNUSED_302<<": 314,
      ">>UNUSED_303<<": 315,
      ">>UNUSED_304<<": 316,
      ">>UNUSED_305<<": 317,
      ">>UNUSED_306<<": 318,
      ">>UNUSED_307<<": 319,
      ">>UNUSED_308<<": 320,
      ">>UNUSED_309<<": 321,
      ">>UNUSED_310<<": 322,
      ">>UNUSED_311<<": 323,
      ">>UNUSED_312<<": 324,
      ">>UNUSED_313<<": 325,
      ">>UNUSED_314<<": 326,
      ">>UNUSED_315<<": 327,
      ">>UNUSED_316<<": 328,
      ">>UNUSED_317<<": 329,
      ">>UNUSED_318<<": 330,
      ">>UNUSED_319<<": 331,
      ">>UNUSED_320<<": 332,
      ">>UNUSED_321<<": 333,
      ">>UNUSED_322<<": 334,
      ">>UNUSED_323<<": 335,
      ">>UNUSED_324<<": 336,
      ">>UNUSED_325<<": 337,
      ">>UNUSED_326<<": 338,
      ">>UNUSED_327<<": 339,
      ">>UNUSED_328<<": 340,
      ">>UNUSED_329<<": 341,
      ">>UNUSED_330<<": 342,
      ">>UNUSED_331<<": 343,
      ">>UNUSED_332<<": 344,
      ">>UNUSED_333<<": 345,
      ">>UNUSED_334<<": 346,
      ">>UNUSED_335<<": 347,
      ">>UNUSED_336<<": 348,
      ">>UNUSED_337<<": 349,
      ">>UNUSED_338<<": 350,
      ">>UNUSED_339<<": 351,
      ">>UNUSED_340<<": 352,
      ">>UNUSED_341<<": 353,
      ">>UNUSED_342<<": 354,
      ">>UNUSED_343<<": 355,
      ">>UNUSED_344<<": 356,
      ">>UNUSED_345<<": 357,
      ">>UNUSED_346<<": 358,
      ">>UNUSED_347<<": 359,
      ">>UNUSED_348<<": 360,
      ">>UNUSED_349<<": 361,
      ">>UNUSED_350<<": 362,
      ">>UNUSED_351<<": 363,
      ">>UNUSED_352<<": 364,
      ">>UNUSED_353<<": 365,
      ">>UNUSED_354<<": 366,
      ">>UNUSED_355<<": 367,
      ">>UNUSED_356<<": 368,
      ">>UNUSED_357<<": 369,
      ">>UNUSED_358<<": 370,
      ">>UNUSED_359<<": 371,
      ">>UNUSED_360<<": 372,
      ">>UNUSED_361<<": 373,
      ">>UNUSED_362<<": 374,
      ">>UNUSED_363<<": 375,
      ">>UNUSED_364<<": 376,
      ">>UNUSED_365<<": 377,
      ">>UNUSED_366<<": 378,
      ">>UNUSED_367<<": 379,
      ">>UNUSED_368<<": 380,
      ">>UNUSED_369<<": 381,
      ">>UNUSED_370<<": 382,
      ">>UNUSED_371<<": 383,
      ">>UNUSED_372<<": 384,
      ">>UNUSED_373<<": 385,
      ">>UNUSED_374<<": 386,
      ">>UNUSED_375<<": 387,
      ">>UNUSED_376<<": 388,
      ">>UNUSED_377<<": 389,
      ">>UNUSED_378<<": 390,
      ">>UNUSED_379<<": 391,
      ">>UNUSED_380<<": 392,
      ">>UNUSED_381<<": 393,
      ">>UNUSED_382<<": 394,
      ">>UNUSED_383<<": 395,
      ">>UNUSED_384<<": 396,
      ">>UNUSED_385<<": 397,
      ">>UNUSED_386<<": 398,
      ">>UNUSED_387<<": 399,
      ">>UNUSED_388<<": 400,
      ">>UNUSED_389<<": 401,
      ">>UNUSED_390<<": 402,
      ">>UNUSED_391<<": 403,
      ">>UNUSED_392<<": 404,
      ">>UNUSED_393<<": 405,
      ">>UNUSED_394<<": 406,
      ">>UNUSED_395<<": 407,
      ">>UNUSED_396<<": 408,
      ">>UNUSED_397<<": 409,
      ">>UNUSED_398<<": 410,
      ">>UNUSED_399<<": 411,
      ">>UNUSED_400<<": 412,
      ">>UNUSED_401<<": 413,
      ">>UNUSED_402<<": 414,
      ">>UNUSED_403<<": 415,
      ">>UNUSED_404<<": 416,
      ">>UNUSED_405<<": 417,
      ">>UNUSED_406<<": 418,
      ">>UNUSED_407<<": 419,
      ">>UNUSED_408<<": 420,
      ">>UNUSED_409<<": 421,
      ">>UNUSED_410<<": 422,
      ">>UNUSED_411<<": 423,
      ">>UNUSED_412<<": 424,
      ">>UNUSED_413<<": 425,
      ">>UNUSED_414<<": 426,
      ">>UNUSED_415<<": 427,
      ">>UNUSED_416<<": 428,
      ">>UNUSED_417<<": 429,
      ">>UNUSED_418<<": 430,
      ">>UNUSED_419<<": 431,
      ">>UNUSED_420<<": 432,
      ">>UNUSED_421<<": 433,
      ">>UNUSED_422<<": 434,
      ">>UNUSED_423<<": 435,
      ">>UNUSED_424<<": 436,
      ">>UNUSED_425<<": 437,
      ">>UNUSED_426<<": 438,
      ">>UNUSED_427<<": 439,
      ">>UNUSED_428<<": 440,
      ">>UNUSED_429<<": 441,
      ">>UNUSED_430<<": 442,
      ">>UNUSED_431<<": 443,
      ">>UNUSED_432<<": 444,
      ">>UNUSED_433<<": 445,
      ">>UNUSED_434<<": 446,
      ">>UNUSED_435<<": 447,
      ">>UNUSED_436<<": 448,
      ">>UNUSED_437<<": 449,
      ">>UNUSED_438<<": 450,
      ">>UNUSED_439<<": 451,
      ">>UNUSED_440<<": 452,
      ">>UNUSED_441<<": 453,
      ">>UNUSED_442<<": 454,
      ">>UNUSED_443<<": 455,
      ">>UNUSED_444<<": 456,
      ">>UNUSED_445<<": 457,
      ">>UNUSED_446<<": 458,
      ">>UNUSED_447<<": 459,
      ">>UNUSED_448<<": 460,
      ">>UNUSED_449<<": 461,
      ">>UNUSED_450<<": 462,
      ">>UNUSED_451<<": 463,
      ">>UNUSED_452<<": 464,
      ">>UNUSED_453<<": 465,
      ">>UNUSED_454<<": 466,
      ">>UNUSED_455<<": 467,
      ">>UNUSED_456<<": 468,
      ">>UNUSED_457<<": 469,
      ">>UNUSED_458<<": 470,
      ">>UNUSED_459<<": 471,
      ">>UNUSED_460<<": 472,
      ">>UNUSED_461<<": 473,
      ">>UNUSED_462<<": 474,
      ">>UNUSED_463<<": 475,
      ">>UNUSED_464<<": 476,
      ">>UNUSED_465<<": 477,
      ">>UNUSED_466<<": 478,
      ">>UNUSED_467<<": 479,
      ">>UNUSED_468<<": 480,
      ">>UNUSED_469<<": 481,
      ">>UNUSED_470<<": 482,
      ">>UNUSED_471<<": 483,
      ">>UNUSED_472<<": 484,
      ">>UNUSED_473<<": 485,
      ">>UNUSED_474<<": 486,
      ">>UNUSED_475<<": 487,
      ">>UNUSED_476<<": 488,
      ">>UNUSED_477<<": 489,
      ">>UNUSED_478<<": 490,
      ">>UNUSED_479<<": 491,
      ">>UNUSED_480<<": 492,
      ">>UNUSED_481<<": 493,
      ">>UNUSED_482<<": 494,
      ">>UNUSED_483<<": 495,
      ">>UNUSED_484<<": 496,
      ">>UNUSED_485<<": 497,
      ">>UNUSED_486<<": 498,
      ">>UNUSED_487<<": 499,
      ">>UNUSED_488<<": 500,
      ">>UNUSED_489<<": 501,
      ">>UNUSED_490<<": 502,
      ">>UNUSED_491<<": 503,
      ">>UNUSED_492<<": 504,
      ">>UNUSED_493<<": 505,
      ">>UNUSED_494<<": 506,
      ">>UNUSED_495<<": 507,
      ">>UNUSED_496<<": 508,
      ">>UNUSED_497<<": 509,
      ">>UNUSED_498<<": 510,
      ">>UNUSED_499<<": 511,
      ">>UNUSED_500<<": 512,
      ">>UNUSED_501<<": 513,
      ">>UNUSED_502<<": 514,
      ">>UNUSED_503<<": 515,
      ">>UNUSED_504<<": 516,
      ">>UNUSED_505<<": 517,
      ">>UNUSED_506<<": 518,
      ">>UNUSED_507<<": 519,
      ">>UNUSED_508<<": 520,
      ">>UNUSED_509<<": 521,
      ">>UNUSED_510<<": 522,
      ">>UNUSED_511<<": 523,
      "!": 524,
      "\"": 525,
      "#": 526,
      "$": 527,
      "%": 528,
      "&": 529,
      "'": 530,
      "(": 531,
      ")": 532,
      "*": 533,
      "+": 534,
      ",": 535,
      "-": 536,
      ".": 537,
      "/": 538,
      "0": 539,
      "1": 540,
      "2": 541,
      "3": 542,
      "4": 543,
      "5": 544,
      "6": 545,
      "7": 546,
      "8": 547,
      "9": 548,
      ":": 549,
      ";": 550,
      "<": 551,
      "=": 552,
      ">": 553,
      "?": 554,
      "@": 555,
      "A": 556,
      "B": 557,
      "C": 558,
      "D": 559,
      "E": 560,
      "F": 561,
      "G": 562,
      "H": 563,
      "I": 564,
      "J": 565,
      "K": 566,
      "L": 567,
      "M": 568,
      "N": 569,
      "O": 570,
      "P": 571,
      "Q": 572,
      "R": 573,
      "S": 574,
      "T": 575,
      "U": 576,
      "V": 577,
      "W": 578,
      "X": 579,
      "Y": 580,
      "Z": 581,
      "[": 582,
      "\\": 583,
      "]": 584,
      "^": 585,
      "_": 586,
      "`": 587,
      "a": 588,
      "b": 589,
      "c": 590,
      "d": 591,
      "e": 592,
      "f": 593,
      "g": 594,
      "h": 595,
      "i": 596,
      "j": 597,
      "k": 598,
      "l": 599,
      "m": 600,
      "n": 601,
      "o": 602,
      "p": 603,
      "q": 604,
      "r": 605,
      "s": 606,
      "t": 607,
      "u": 608,
      "v": 609,
      "w": 610,
      "x": 611,
      "y": 612,
      "z": 613,
      "{": 614,
      "|": 615,
      "}": 616,
      "~": 617,
      "¡": 618,
      "¢": 619,
      "£": 620,
      "¤": 621,
      "¥": 622,
      "¦": 623,
      "§": 624,
      "¨": 625,
      "©": 626,
      "ª": 627,
      "«": 628,
      "¬": 629,
      "®": 630,
      "¯": 631,
      "°": 632,
      "±": 633,
      "²": 634,
      "³": 635,
      "´": 636,
      "µ": 637,
      "¶": 638,
      "·": 639,
      "¸": 640,
      "¹": 641,
      "º": 642,
      "»": 643,
      "¼": 644,
      "½": 645,
      "¾": 646,
      "¿": 647,
      "Â": 648,
      "Ã": 649,
      "Ä": 650,
      "Å": 651,
      "Æ": 652,
      "Ç": 653,
      "È": 654,
      "É": 655,
      "Ê": 656,
      "Ë": 657,
      "Ì": 658,
      "Í": 659,
      "Î": 660,
      "Ï": 661,
      "Ð": 662,
      "Ñ": 663,
      "Ò": 664,
      "Ó": 665,
      "Ô": 666,
      "Õ": 667,
      "Ö": 668,
      "×": 669,
      "Ø": 670,
      "Ù": 671,
      "Ú": 672,
      "Û": 673,
      "Ü": 674,
      "Ý": 675,
      "Þ": 676,
      "ß": 677,
      "à": 678,
      "á": 679,
      "â": 680,
      "ã": 681,
      "ä": 682,
      "å": 683,
      "æ": 684,
      "ç": 685,
      "è": 686,
      "é": 687,
      "ê": 688,
      "ë": 689,
      "ì": 690,
      "í": 691,
      "î": 692,
      "ï": 693,
      "ð": 694,
      "ñ": 695,
      "ò": 696,
      "ó": 697,
      "ô": 698,
      "Ā": 699,
      "ā": 700,
      "Ă": 701,
      "ă": 702,
      "Ą": 703,
      "ą": 704,
      "Ć": 705,
      "ć": 706,
      "Ĉ": 707,
      "ĉ": 708,
      "Ċ": 709,
      "ċ": 710,
      "Č": 711,
      "č": 712,
      "Ď": 713,
      "ď": 714,
      "Đ": 715,
      "đ": 716,
      "Ē": 717,
      "ē": 718,
      "Ĕ": 719,
      "ĕ": 720,
      "Ė": 721,
      "ė": 722,
      "Ę": 723,
      "ę": 724,
      "Ě": 725,
      "ě": 726,
      "Ĝ": 727,
      "ĝ": 728,
      "Ğ": 729,
      "ğ": 730,
      "Ġ": 731,
      "ġ": 732,
      "Ģ": 733,
      "ģ": 734,
      "Ĥ": 735,
      "ĥ": 736,
      "Ħ": 737,
      "ħ": 738,
      "Ĩ": 739,
      "ĩ": 740,
      "Ī": 741,
      "ī": 742,
      "Ĭ": 743,
      "ĭ": 744,
      "Į": 745,
      "į": 746,
      "İ": 747,
      "ı": 748,
      "Ĳ": 749,
      "ĳ": 750,
      "Ĵ": 751,
      "ĵ": 752,
      "Ķ": 753,
      "ķ": 754,
      "ĸ": 755,
      "Ĺ": 756,
      "ĺ": 757,
      "Ļ": 758,
      "ļ": 759,
      "Ľ": 760,
      "ľ": 761,
      "Ŀ": 762,
      "ŀ": 763,
      "Ł": 764,
      "ł": 765,
      "Ń": 766,
      "ĠĠ": 767,
      "ĠĠĠĠ": 768,
      "Ġt": 769,
      "in": 770,
      "er": 771,
      "Ġa": 772,
      "Ø§": 773,
      "en": 774,
      "on": 775,
      "re": 776,
      "Ġs": 777,
      "he": 778,
      "at": 779,
      "ÙĦ": 780,
      "an": 781,
      "or": 782,
      "es": 783,
      "Ġc": 784,
      "ĠÐ": 785,
      "ĠØ": 786,
      "Ġp": 787,
      "it": 788,
      "Ġd": 789,
      "Ġthe": 790,
      "al": 791,
      "is": 792,
      "ar": 793,
      "le": 794,
      "ĠĠĠĠĠĠĠĠ": 795,
      "Ġo": 796,
      "Ġf": 797,
      "Ð¾": 798,
      "Ùħ": 799,
      "Ġm": 800,
      "Ġw": 801,
      "ing": 802,
      "Ġb": 803,
      "Ð°": 804,
      "ÙĪ": 805,
      "ãģ": 806,
      "ÙĬ": 807,
      "Ø±": 808,
      "ou": 809,
      "ÙĨ": 810,
      "Ðµ": 811,
      "ed": 812,
      "as": 813,
      "ï¼": 814,
      "Ø§ÙĦ": 815,
      "ion": 816,
      "ä¸": 817,
      "à¤": 818,
      "nd": 819,
      "Ð¸": 820,
      "Ġin": 821,
      "ic": 822,
      "ent": 823,
      "et": 824,
      "ãĢ": 825,
      "ro": 826,
      "ÑĤ": 827,
      "Ġn": 828,
      "Ø§Ø": 829,
      "ĠĠĠ": 830,
      "Ġto": 831,
      "el": 832,
      "ï¼Į": 833,
      "ĠØ§ÙĦ": 834,
      "st": 835,
      "Ð½": 836,
      "Ġh": 837,
      "ÑĢ": 838,
      "ct": 839,
      "Ġof": 840,
      "Ñģ": 841,
      "Ġand": 842,
      "Ġl": 843,
      "il": 844,
      "Ġth": 845,
      "am": 846,
      "om": 847,
      "--": 848,
      "Ð¾Ð": 849,
      "Øª": 850,
      "Ġe": 851,
      "Ġre": 852,
      "Ùĩ": 853,
      "id": 854,
      "ut": 855,
      "Ø¯": 856,
      "âĢ": 857,
      "im": 858,
      "Ġv": 859,
      "à¸": 860,
      "ol": 861,
      "çļ": 862,
      "çļĦ": 863,
      "ĊĊ": 864,
      "un": 865,
      "us": 866,
      "ÛĮ": 867,
      "Ġg": 868,
      "ur": 869,
      "ad": 870,
      "äº": 871,
      "ãĤ": 872,
      "ac": 873,
      "Ø©": 874,
      "ĠT": 875,
      "Ġì": 876,
      "ot": 877,
      "ig": 878,
      "em": 879,
      "Ð»": 880,
      "Ùģ": 881,
      "ĠS": 882,
      "ĠI": 883,
      "ul": 884,
      "Ġk": 885,
      "if": 886,
      "ãĥ": 887,
      "ãĢĤ": 888,
      "æľ": 889,
      "ow": 890,
      "ĠÙħ": 891,
      "iv": 892,
      "Ġy": 893,
      "ĠA": 894,
      "Ġst": 895,
      "se": 896,
      "od": 897,
      "åı": 898,
      "ÙĤ": 899,
      "Ġis": 900,
      "ĠC": 901,
      "ir": 902,
      "Ġde": 903,
      "ch": 904,
      "åħ": 905,
      "ĉĉ": 906,
      "ag": 907,
      "Ø¨": 908,
      "um": 909,
      "ation": 910,
      "ãĢģ": 911,
      "Ø¹": 912,
      "Ø³": 913,
      "Ġfor": 914,
      "ä»": 915,
      "ra": 916,
      "Ñĥ": 917,
      "Ðº": 918,
      "ĠØ¨": 919,
      "ĠÙĪ": 920,
      "ate": 921,
      "à¦": 922,
      "os": 923,
      "qu": 924,
      "ak": 925,
      "ĠP": 926,
      "th": 927,
      "å¤": 928,
      "ab": 929,
      "est": 930,
      "Ġon": 931,
      "ly": 932,
      "Ġcon": 933,
      "ers": 934,
      "Ġbe": 935,
      "ĠĠĠĠĠĠĠĠĠĠĠĠĠĠĠĠ": 936,
      "ce": 937,
      "ay": 938,
      "end": 939,
      "à¥": 940,
      "å®": 941,
      "Ġà¤": 942,
      "ĠM": 943,
      "ist": 944,
      "Ùĥ": 945,
      "----": 946,
      "ri": 947,
      "pe": 948,
      "åĪ": 949,
      "ĠD": 950,
      "Ġë": 951,
      "ĠĠĠĠĠĠĠ": 952,
      "ìĿ": 953,
      "Ð²": 954,
      "Ġpro": 955,
      "and": 956,
      "ter": 957,
      "Ġyou": 958,
      "Ð´": 959,
      "te": 960,
      "çĶ": 961,
      "Ñĭ": 962,
      "av": 963,
      "čĊ": 964,
      "ä½": 965,
      "ĠØ§ÙĦØ": 966,
      "à´": 967,
      "Ġthat": 968,
      "ĠB": 969,
      "Ð¼": 970,
      "åĲ": 971,
      "Ñı": 972,
      "ver": 973,
      "åľ": 974,
      "ith": 975,
      "è¿": 976,
      "Ġwh": 977,
      "Ø§ÙĨ": 978,
      "Ġit": 979,
      "**": 980,
      "res": 981,
      "Ġan": 982,
      "ĠÐ¿": 983,
      "pt": 984,
      "Ġr": 985,
      "áĥ": 986,
      "Ġal": 987,
      "ess": 988,
      "Ġj": 989,
      "åĬ": 990,
      "ĠE": 991,
      "ction": 992,
      "ie": 993,
      "ere": 994,
      "ht": 995,
      "pp": 996,
      "ĠR": 997,
      "oc": 998,
      "ik": 999,
      "ĠF": 1000,
      "Ġex": 1001,
      "Ġas": 1002,
      "æĺ": 1003,
      "åĽ": 1004,
      "Ġse": 1005,
      "ØĮ": 1006,
      "==": 1007,
      ");": 1008,
      "Ø§Ø±": 1009,
      "ĠH": 1010,
      "op": 1011,
      "ç»": 1012,
      "ÑģÑĤ": 1013,
      "Ġu": 1014,
      "å¹": 1015,
      "æĸ": 1016,
      "FF": 1017,
      "Ġwith": 1018,
      "æĪ": 1019,
      "int": 1020,
      "Ġor": 1021,
      "ĠN": 1022,
      "//": 1023,
      "ine": 1024,
      "ĠL": 1025,
      "ØŃ": 1026,
      "ÑĮ": 1027,
      "pl": 1028,
      "ment": 1029,
      "ĠØª": 1030,
      "æĹ": 1031,
      "iz": 1032,
      "ore": 1033,
      "ue": 1034,
      "Ú©": 1035,
      "ĠÐ²": 1036,
      "ang": 1037,
      "ud": 1038,
      "à²": 1039,
      "ame": 1040,
      "Ġne": 1041,
      "ort": 1042,
      "og": 1043,
      "ä¼": 1044,
      "ant": 1045,
      "Ġcom": 1046,
      "ĠĠĠĠĠ": 1047,
      "ĠÑģ": 1048,
      "Ġus": 1049,
      "Ø´": 1050,
      "ap": 1051,
      "Ñĩ": 1052,
      "ain": 1053,
      "ĠĊ": 1054,
      "Ġhe": 1055,
      "à¹": 1056,
      "Ġle": 1057,
      "ÑĢÐ°": 1058,
      "ub": 1059,
      "ĠW": 1060,
      "ä¸Ģ": 1061,
      "Ã©": 1062,
      "ĠÙģ": 1063,
      "Ø§Øª": 1064,
      "Ø¬": 1065,
      "ä¹": 1066,
      "ĠÐ½": 1067,
      "ity": 1068,
      "art": 1069,
      "è®": 1070,
      "åŃ": 1071,
      "ĠÙĦ": 1072,
      "xt": 1073,
      "age": 1074,
      "ÐµÐ½": 1075,
      "íķ": 1076,
      "åį": 1077,
      "ĠØ¹": 1078,
      "ight": 1079,
      "Ġê": 1080,
      "ok": 1081,
      "å°": 1082,
      "ĠG": 1083,
      "Ġen": 1084,
      "Ġif": 1085,
      "ÙĬØ©": 1086,
      "ld": 1087,
      "``": 1088,
      "ust": 1089,
      "ill": 1090,
      "è¯": 1091,
      "Ġwe": 1092,
      "Ġat": 1093,
      "ia": 1094,
      "ĠØ£": 1095,
      "Ã¡": 1096,
      "ies": 1097,
      "ure": 1098,
      "ëĭ": 1099,
      "âĢľ": 1100,
      "rom": 1101,
      "âĢĿ": 1102,
      "Ùī": 1103,
      "Ð¾Ð²": 1104,
      "ĠThe": 1105,
      "Ġ×": 1106,
      "nt": 1107,
      "æĿ": 1108,
      "ĠØ§ÙĦÙħ": 1109,
      "Ġi": 1110,
      "Ð·": 1111,
      "Ġthis": 1112,
      "å·": 1113,
      "ile": 1114,
      "Ġtr": 1115,
      "å¸": 1116,
      "Ġare": 1117,
      "ans": 1118,
      "æĺ¯": 1119,
      "ĠØ¯": 1120,
      "orm": 1121,
      "Ø²": 1122,
      "ult": 1123,
      "ect": 1124,
      "åľ¨": 1125,
      "à¤¾": 1126,
      "Ñħ": 1127,
      "éĩ": 1128,
      "Ð³": 1129,
      "urn": 1130,
      "Ġun": 1131,
      "ov": 1132,
      "Äģ": 1133,
      "ind": 1134,
      "ĠO": 1135,
      "åº": 1136,
      "per": 1137,
      "åĮ": 1138,
      "ive": 1139,
      "all": 1140,
      "),": 1141,
      "Ġby": 1142,
      "--------": 1143,
      "Ð¹": 1144,
      "äºº": 1145,
      "æľī": 1146,
      "Ø§Ùħ": 1147,
      "ass": 1148,
      "rou": 1149,
      "tr": 1150,
      "imp": 1151,
      "ase": 1152,
      "Ġch": 1153,
      "ib": 1154,
      "éĢ": 1155,
      "ack": 1156,
      "ä¸Ń": 1157,
      "å¼": 1158,
      "Ø·": 1159,
      "æī": 1160,
      "è¡": 1161,
      "cl": 1162,
      "ĠÐ¾": 1163,
      "ff": 1164,
      "Ġqu": 1165,
      "ĠØ§Ø": 1166,
      "Øµ": 1167,
      "out": 1168,
      "con": 1169,
      "Ġsh": 1170,
      "our": 1171,
      "ĠÐ¸": 1172,
      "ial": 1173,
      "ord": 1174,
      "Ġdo": 1175,
      "ata": 1176,
      "Ð¿": 1177,
      "ĠJ": 1178,
      "de": 1179,
      "##": 1180,
      "ost": 1181,
      "åĨ": 1182,
      "able": 1183,
      "Ġz": 1184,
      "ĠK": 1185,
      "ãģ®": 1186,
      "çĽ": 1187,
      "Ð±": 1188,
      "Ø§ÛĮ": 1189,
      "Ã¤": 1190,
      "..": 1191,
      "ĠU": 1192,
      "Ġnot": 1193,
      "ÑĢÐµ": 1194,
      "ave": 1195,
      "èĢ": 1196,
      "Ġcan": 1197,
      "ÉĻ": 1198,
      "ĠĠĠĠĠĠĠĠĠĠĠ": 1199,
      "ell": 1200,
      "åĩ": 1201,
      "æķ": 1202,
      "are": 1203,
      "å¾": 1204,
      "åĴ": 1205,
      "ip": 1206,
      "å¹´": 1207,
      "ĠÚ©": 1208,
      "Ġsu": 1209,
      "turn": 1210,
      "Ġfrom": 1211,
      "æĬ": 1212,
      "ìĹ": 1213,
      "\",": 1214,
      "to": 1215,
      "å¤§": 1216,
      "àµ": 1217,
      "å¯": 1218,
      "put": 1219,
      "ĠÙģÙĬ": 1220,
      "å±": 1221,
      "unction": 1222,
      "ä¸º": 1223,
      "ä¸į": 1224,
      "ne": 1225,
      "ire": 1226,
      "ide": 1227,
      "ition": 1228,
      "åĴĮ": 1229,
      "åĽ½": 1230,
      "æł": 1231,
      "Ġwas": 1232,
      "ĠÙħÙĨ": 1233,
      "ĠÃ": 1234,
      ").": 1235,
      "ru": 1236,
      "äºĨ": 1237,
      "ast": 1238,
      "Ġpr": 1239,
      "Ð°Ð½": 1240,
      "à§": 1241,
      "::": 1242,
      "ëĭ¤": 1243,
      "ode": 1244,
      "ç§": 1245,
      "ber": 1246,
      "ĠV": 1247,
      "ould": 1248,
      "è´": 1249,
      "form": 1250,
      "ard": 1251,
      "ĥ½": 1252,
      "ä¸ļ": 1253,
      "Ġad": 1254,
      "ome": 1255,
      "ĠØ³": 1256,
      "Ġar": 1257,
      "ach": 1258,
      "ij": 1259,
      "Ġcont": 1260,
      "ĠÙĨ": 1261,
      "=\"": 1262,
      "Ġcl": 1263,
      "ype": 1264,
      "->": 1265,
      "Ø®": 1266,
      "ite": 1267,
      "ĠÐ´": 1268,
      "æ°": 1269,
      "ĠÐº": 1270,
      "à¤¾à¤": 1271,
      "èµ": 1272,
      "æĢ": 1273,
      "ÑĨ": 1274,
      "è§": 1275,
      "Ġab": 1276,
      "Ġte": 1277,
      "éĻ": 1278,
      "ÙĪØ±": 1279,
      "ents": 1280,
      "Ġres": 1281,
      "ÙĬÙĨ": 1282,
      "ich": 1283,
      "cc": 1284,
      "ath": 1285,
      "ime": 1286,
      "Ġme": 1287,
      "ge": 1288,
      "çī": 1289,
      "Ø§Ø¯": 1290,
      "()": 1291,
      "In": 1292,
      "æĶ": 1293,
      "ice": 1294,
      "Å¡": 1295,
      "****": 1296,
      "Ð°Ð»": 1297,
      "çİ": 1298,
      "AA": 1299,
      "ĠIn": 1300,
      "ĉĉĉĉ": 1301,
      "ens": 1302,
      "Ġhave": 1303,
      "ÃŃ": 1304,
      "low": 1305,
      "ry": 1306,
      "Ġpl": 1307,
      "Ġso": 1308,
      "ÐµÑĤ": 1309,
      "Ġyour": 1310,
      "Ã³": 1311,
      "çĶŁ": 1312,
      "åŃ¦": 1313,
      "ê³": 1314,
      "ÑĪ": 1315,
      "Ġí": 1316,
      "Ġval": 1317,
      "Ø¶": 1318,
      "ace": 1319,
      "ĠÐ½Ð°": 1320,
      "Ð¾Ð»": 1321,
      "ve": 1322,
      "(\"": 1323,
      "ÙĦÙī": 1324,
      "áĢ": 1325,
      "ah": 1326,
      "act": 1327,
      "Ġper": 1328,
      "Ð¾ÑĢ": 1329,
      "ks": 1330,
      "ä»¥": 1331,
      "Äĥ": 1332,
      "ated": 1333,
      "fer": 1334,
      "ob": 1335,
      "å½": 1336,
      "Ð¾Ð´": 1337,
      "Ð¾Ð¼": 1338,
      "du": 1339,
      "Ġel": 1340,
      "Ð¸ÑĤ": 1341,
      "ien": 1342,
      "ep": 1343,
      "ìĿ´": 1344,
      "ĠØ±": 1345,
      "Ġreturn": 1346,
      "ally": 1347,
      "âĢĻ": 1348,
      "ther": 1349,
      "å¿": 1350,
      "ä¸Ĭ": 1351,
      "one": 1352,
      "Ð¶": 1353,
      "eng": 1354,
      "Ġgo": 1355,
      "å¥": 1356,
      "ount": 1357,
      "è¦": 1358,
      "ari": 1359,
      "èĩ": 1360,
      "Ġsc": 1361,
      "ä¿": 1362,
      "ple": 1363,
      "æŃ": 1364,
      "ake": 1365,
      "vel": 1366,
      "ĠĠĠĠĠĠĠĠĠĠĠĠ": 1367,
      "ãģĦ": 1368,
      "ĠÑĤ": 1369,
      "ÙĪÙĨ": 1370,
      "ä¼ļ": 1371,
      "çº": 1372,
      "à¥ĩ": 1373,
      "ÐµÑĢ": 1374,
      "ign": 1375,
      "à¨": 1376,
      "Ñİ": 1377,
      "Ġfunction": 1378,
      "ĠÐ¼": 1379,
      "Ġer": 1380,
      "ring": 1381,
      "Ð°ÑĤ": 1382,
      "))": 1383,
      "Ä±": 1384,
      "ĠTh": 1385,
      "ft": 1386,
      "åİ": 1387,
      "Ú¯": 1388,
      "Ġla": 1389,
      "px": 1390,
      "åıĳ": 1391,
      "ress": 1392,
      "çĶ¨": 1393,
      "====": 1394,
      "ary": 1395,
      "ĠØ¥": 1396,
      "ÐµÐ»": 1397,
      "æ³": 1398,
      "çŃ": 1399,
      "ont": 1400,
      "çĲ": 1401,
      "com": 1402,
      "Ø£": 1403,
      "ÙĪÙĦ": 1404,
      "Ġout": 1405,
      "ong": 1406,
      "åĳ": 1407,
      "ÙĩØ§": 1408,
      "×Ļ": 1409,
      "ëĬ": 1410,
      "eg": 1411,
      "Ñį": 1412,
      "ÙĬØ±": 1413,
      "æµ": 1414,
      "ĠØŃ": 1415,
      "ĠØ´": 1416,
      "ck": 1417,
      "Ġall": 1418,
      "ÑģÐº": 1419,
      "Ġimp": 1420,
      "ãģ«": 1421,
      "text": 1422,
      "éĿ": 1423,
      "Ġdis": 1424,
      "è¡Į": 1425,
      "ìŀ": 1426,
      "ations": 1427,
      "æİ": 1428,
      "ous": 1429,
      "ĠÙĩ": 1430,
      "arg": 1431,
      "Ø§Ø¨": 1432,
      "Ġend": 1433,
      "Ġsp": 1434,
      "éĹ": 1435,
      "ä½ľ": 1436,
      "Ð½Ñĭ": 1437,
      "ll": 1438,
      "ĠÐ±": 1439,
      "ail": 1440,
      "ìĦ": 1441,
      "å·¥": 1442,
      "èĥ½": 1443,
      "ert": 1444,
      "ex": 1445,
      "Ð¾Ð³": 1446,
      "ëĬĶ": 1447,
      "ize": 1448,
      "à¥į": 1449,
      "ance": 1450,
      "×ķ": 1451,
      "ä¸ª": 1452,
      "ìł": 1453,
      "ec": 1454,
      "Ġup": 1455,
      "ject": 1456,
      "àª": 1457,
      "è¦ģ": 1458,
      "gh": 1459,
      "so": 1460,
      "åĵ": 1461,
      "ption": 1462,
      "æĪĲ": 1463,
      "ĠÙĬ": 1464,
      "Ġpre": 1465,
      "```": 1466,
      "Ä«": 1467,
      "ĠØ¬": 1468,
      "lic": 1469,
      "lo": 1470,
      "we": 1471,
      "æĹ¶": 1472,
      "ê°": 1473,
      "ory": 1474,
      "FFFF": 1475,
      "ìĹĲ": 1476,
      "ER": 1477,
      "Ġpar": 1478,
      "ef": 1479,
      "Ġà¦": 1480,
      "ãģ¨": 1481,
      "ãĥ¼": 1482,
      "val": 1483,
      "SS": 1484,
      "gr": 1485,
      "æĹ¥": 1486,
      "æŀ": 1487,
      "ãģ§": 1488,
      "ical": 1489,
      "ys": 1490,
      "ĠØ®": 1491,
      "Ġthen": 1492,
      "Ġtheir": 1493,
      "ĠØ§ÙĦØª": 1494,
      "ild": 1495,
      "ĠÐ¿ÑĢ": 1496,
      "Ð½Ð¸": 1497,
      "ĠÙĤ": 1498,
      "ai": 1499,
      "ĠÐ·": 1500,
      "ãģŁ": 1501,
      "',": 1502,
      "ãĤĭ": 1503,
      "åŁ": 1504,
      "Ġwill": 1505,
      "ĠØ§ÙĦØ£": 1506,
      "ãģĹ": 1507,
      "ook": 1508,
      "li": 1509,
      "Ø°": 1510,
      "Ġwhich": 1511,
      "</": 1512,
      "åĩº": 1513,
      "à¤°": 1514,
      "åħ¬": 1515,
      "ose": 1516,
      "eth": 1517,
      "Ġwor": 1518,
      "erm": 1519,
      "enc": 1520,
      "Ð¾ÑĤ": 1521,
      "Ã¼": 1522,
      "ì§": 1523,
      "ĠÙĪØ§ÙĦ": 1524,
      "Ġbut": 1525,
      "Äĵ": 1526,
      "pr": 1527,
      "ph": 1528,
      "æ¯": 1529,
      "ìĿĦ": 1530,
      "äºİ": 1531,
      "åī": 1532,
      "æ²": 1533,
      "é¢": 1534,
      "ë¡": 1535,
      "è¾": 1536,
      "pec": 1537,
      "âĢĮ": 1538,
      "IN": 1539,
      "Ġapp": 1540,
      "Ġhas": 1541,
      "ke": 1542,
      "DD": 1543,
      "æĮ": 1544,
      "àµį": 1545,
      "Ġone": 1546,
      "Ġthey": 1547,
      "åľ°": 1548,
      "ãĤĴ": 1549,
      "ma": 1550,
      "å®¶": 1551,
      "ãģ¯": 1552,
      "æĭ": 1553,
      "ãģ¦": 1554,
      "lement": 1555,
      "par": 1556,
      "æĿ¥": 1557,
      "Ġro": 1558,
      "è¿Ļ": 1559,
      "Ġsa": 1560,
      "Ġnum": 1561,
      "æ±": 1562,
      "The": 1563,
      "Ġmy": 1564,
      "ike": 1565,
      "Ð¾Ð½": 1566,
      "clud": 1567,
      "à³": 1568,
      "åĪ°": 1569,
      "ĠĠĠĠĠĠ": 1570,
      "=>": 1571,
      "æĪĳ": 1572,
      "Ø«": 1573,
      "ãģĮ": 1574,
      "âĢĵ": 1575,
      "Ð½Ð¾": 1576,
      "Ø§Ø³": 1577,
      "ĠØ¯Ø±": 1578,
      "é«": 1579,
      "è½": 1580,
      "Ġman": 1581,
      ":=": 1582,
      "ug": 1583,
      "Ġno": 1584,
      "Ġdet": 1585,
      "Ã¥": 1586,
      "----------------": 1587,
      "çĲĨ": 1588,
      "å¯¹": 1589,
      "led": 1590,
      "é«ĺ": 1591,
      "åı¯": 1592,
      "oth": 1593,
      "up": 1594,
      "Ø³Øª": 1595,
      "ence": 1596,
      "Ð¾Ð¹": 1597,
      "×ķ×": 1598,
      "ÙĪØ¯": 1599,
      "æĸ°": 1600,
      "rib": 1601,
      "åĪĨ": 1602,
      "ÅŁ": 1603,
      "ĠÐ³": 1604,
      "io": 1605,
      "à¥Ģ": 1606,
      "ors": 1607,
      "çľ": 1608,
      "ater": 1609,
      "pro": 1610,
      "ÐµÐ½Ð¸": 1611,
      "æ¸": 1612,
      "pon": 1613,
      "ĠSt": 1614,
      "ãģª": 1615,
      "ars": 1616,
      "Ġdes": 1617,
      "à¸Ļ": 1618,
      "äº§": 1619,
      "Ø§Ùģ": 1620,
      "Ġx": 1621,
      "à¸²": 1622,
      "ç«": 1623,
      "æľĪ": 1624,
      "Å¾": 1625,
      "old": 1626,
      "æĦ": 1627,
      "ek": 1628,
      "Ð¸Ð»": 1629,
      "ä¾": 1630,
      "éĺ": 1631,
      "ĠÑĥ": 1632,
      "Ø§Ø¡": 1633,
      "ĠY": 1634,
      "å¤ļ": 1635,
      "×Ļ×": 1636,
      "St": 1637,
      "ock": 1638,
      "igh": 1639,
      "Ð°ÑĢ": 1640,
      "æĥ": 1641,
      "æĸ¹": 1642,
      "ni": 1643,
      "erv": 1644,
      "ï¼ī": 1645,
      "ï¼Ī": 1646,
      "Ġover": 1647,
      "####": 1648,
      "ĠÙĥ": 1649,
      "Ġstat": 1650,
      "__": 1651,
      "ĠìĿ": 1652,
      "Ã¶": 1653,
      "å¸Ĥ": 1654,
      "own": 1655,
      "tt": 1656,
      "Ġhand": 1657,
      "éģ": 1658,
      "Ð¸Ð½": 1659,
      "yst": 1660,
      "çŃī": 1661,
      "Ġint": 1662,
      "uk": 1663,
      "ë¡ľ": 1664,
      "ew": 1665,
      "round": 1666,
      "ĠØ¹ÙĦÙī": 1667,
      "ê³ł": 1668,
      "ç®": 1669,
      "åħ¨": 1670,
      "ĠØ§ÙĦØ¹": 1671,
      "Ø±ÙĬ": 1672,
      "Ġget": 1673,
      "aus": 1674,
      "\")": 1675,
      "ng": 1676,
      "èĩª": 1677,
      "Ġinter": 1678,
      "Īëĭ¤": 1679,
      "ound": 1680,
      "åĮĸ": 1681,
      "aj": 1682,
      "Ø§Ø¹": 1683,
      "æ´": 1684,
      "åĲĪ": 1685,
      "à¥įà¤": 1686,
      "èĤ": 1687,
      "éĥ": 1688,
      "Ġcol": 1689,
      "Ġam": 1690,
      "à¤¿": 1691,
      "ĠÑĩ": 1692,
      "ions": 1693,
      "ç½": 1694,
      "Ġsome": 1695,
      "Ġdif": 1696,
      "éķ": 1697,
      "Ġìŀ": 1698,
      "¸°": 1699,
      "Ġund": 1700,
      "dition": 1701,
      "ss": 1702,
      "ool": 1703,
      "ĠØ§Ø³": 1704,
      "heck": 1705,
      "Ñī": 1706,
      "row": 1707,
      "Ð°Ðº": 1708,
      "íķľ": 1709,
      "Ø§Ø¦": 1710,
      "ating": 1711,
      "åĬ¨": 1712,
      "ç»ı": 1713,
      "ient": 1714,
      "ìĿĺ": 1715,
      "sc": 1716,
      "ink": 1717,
      "Ġpos": 1718,
      "les": 1719,
      "Ġmore": 1720,
      "WW": 1721,
      "ç¨": 1722,
      "ÙĦÙĬ": 1723,
      "ä¸İ": 1724,
      "itt": 1725,
      "ree": 1726,
      "æľ¬": 1727,
      "ON": 1728,
      "me": 1729,
      "Ġà¤ķ": 1730,
      "ror": 1731,
      "Ġpart": 1732,
      "é¡": 1733,
      "Ù¾": 1734,
      "Ġabout": 1735,
      "ĠĠĠĠĠĠĠĠĠĠĠĠĠĠĠĠĠĠĠĠĠĠĠĠĠĠĠĠĠĠĠĠ": 1736,
      "ä½ĵ": 1737,
      "Ð¾Ñģ": 1738,
      "ual": 1739,
      "Ġset": 1740,
      "è¿Ľ": 1741,
      "Ġhow": 1742,
      "ific": 1743,
      "ps": 1744,
      "Ġuse": 1745,
      "ä»¬": 1746,
      "æ¬": 1747,
      "Ġcre": 1748,
      "irst": 1749,
      "Ġdi": 1750,
      "ï¼ļ": 1751,
      "Ġnew": 1752,
      "åĲĮ": 1753,
      "ë¥": 1754,
      "ely": 1755,
      "ÙĨØ¯": 1756,
      "ä¸ĭ": 1757,
      "ÙĪÙħ": 1758,
      "åĬĽ": 1759,
      "AT": 1760,
      "ãĥ³": 1761,
      "íķĺ": 1762,
      "Ġque": 1763,
      "Ġthere": 1764,
      "Ġpe": 1765,
      "iel": 1766,
      "ased": 1767,
      "Ġob": 1768,
      "åĵģ": 1769,
      "Ġem": 1770,
      "ax": 1771,
      "æı": 1772,
      "Ġlike": 1773,
      "cess": 1774,
      "Ġhis": 1775,
      "å»": 1776,
      "elf": 1777,
      "Ġjust": 1778,
      "ëı": 1779,
      "à¦¾": 1780,
      "ìĭ": 1781,
      "Ġev": 1782,
      "Äį": 1783,
      "ĠĠĠĠĠĠĠĠĠĠĠĠĠĠĠ": 1784,
      "Ĥ¬": 1785,
      "EN": 1786,
      "of": 1787,
      "Ġpo": 1788,
      "çİ°": 1789,
      "ract": 1790,
      "anc": 1791,
      "ery": 1792,
      "ĠØ¨Ùĩ": 1793,
      "éĽ": 1794,
      "Ġke": 1795,
      "lect": 1796,
      "ates": 1797,
      "Ġdef": 1798,
      "col": 1799,
      "Ġinto": 1800,
      "Ġwhen": 1801,
      "ìľ": 1802,
      "è¿ĩ": 1803,
      "Ġìł": 1804,
      "Ġtime": 1805,
      "àµįà´": 1806,
      "Øº": 1807,
      "éĥ¨": 1808,
      "æľº": 1809,
      "ĠÐ½Ðµ": 1810,
      "Ġcal": 1811,
      "name": 1812,
      "ier": 1813,
      "ny": 1814,
      "ings": 1815,
      "ener": 1816,
      "å®ļ": 1817,
      "Ġtrans": 1818,
      "ÑĦ": 1819,
      "wo": 1820,
      "Ûģ": 1821,
      "Ø§ÙĤ": 1822,
      "ns": 1823,
      "ĠÙĦÙĦ": 1824,
      "ystem": 1825,
      "Ġclass": 1826,
      "********": 1827,
      "rite": 1828,
      "ç¤": 1829,
      "Ġthem": 1830,
      "æĻ": 1831,
      "ĠÐ°": 1832,
      "æĽ": 1833,
      "à¹Ī": 1834,
      "\">": 1835,
      "ĠØ£ÙĨ": 1836,
      "æĢ§": 1837,
      "Ġrel": 1838,
      "Ġneed": 1839,
      "Ø§Ùĩ": 1840,
      "ä»ĸ": 1841,
      "ays": 1842,
      "å®ŀ": 1843,
      "Ġvalue": 1844,
      "ement": 1845,
      "Â»": 1846,
      "ÑĨÐ¸": 1847,
      "Â«": 1848,
      "ble": 1849,
      "Ġany": 1850,
      "àº": 1851,
      "ÑģÑı": 1852,
      "ark": 1853,
      "à¤¿à¤": 1854,
      "Ġother": 1855,
      "ĮĢ": 1856,
      "AR": 1857,
      "å±ķ": 1858,
      "Ġmod": 1859,
      "Ġet": 1860,
      "åĲİ": 1861,
      "Name": 1862,
      "èģ": 1863,
      "ange": 1864,
      "ÐµÐ¼": 1865,
      "iss": 1866,
      "å¼Ģ": 1867,
      "Ġspec": 1868,
      "Ð°Ð¼": 1869,
      "ian": 1870,
      "add": 1871,
      "ÛĴ": 1872,
      "çĻ": 1873,
      "ä¹Ł": 1874,
      "fr": 1875,
      "Ġbet": 1876,
      "ç¬": 1877,
      "ÑĤÐ¾": 1878,
      "ick": 1879,
      "Ġkn": 1880,
      "over": 1881,
      "ish": 1882,
      "Ġdiffer": 1883,
      "Ġshould": 1884,
      "ä¸»": 1885,
      "èĢħ": 1886,
      "Ġim": 1887,
      "ĠCh": 1888,
      "ray": 1889,
      "ÙĬØ¯": 1890,
      ".\"": 1891,
      "ê°Ģ": 1892,
      "Ġag": 1893,
      "ãģĻ": 1894,
      "ise": 1895,
      "éĿ¢": 1896,
      "å¢": 1897,
      "ĠIt": 1898,
      "ì§Ģ": 1899,
      "Ġelse": 1900,
      "ÄĹ": 1901,
      "ript": 1902,
      "æ³ķ": 1903,
      "è®¾": 1904,
      "Id": 1905,
      "der": 1906,
      "ÑģÑĤÐ²": 1907,
      "sp": 1908,
      "ility": 1909,
      "ove": 1910,
      "à¸Ń": 1911,
      "ìķ": 1912,
      "Ġacc": 1913,
      "rit": 1914,
      "Ġadd": 1915,
      "ìĬ": 1916,
      "pert": 1917,
      "å»º": 1918,
      "ĠPro": 1919,
      "ull": 1920,
      "åıĬ": 1921,
      "port": 1922,
      "Ø¸": 1923,
      "Ġbl": 1924,
      "Ð»Ð°": 1925,
      "ons": 1926,
      "å¦": 1927,
      "åīį": 1928,
      "çĤ": 1929,
      "à¸²à¸": 1930,
      "Ð¾Ð±": 1931,
      "ĉĉĉ": 1932,
      "åģ": 1933,
      "åĬł": 1934,
      "je": 1935,
      "Ġà´": 1936,
      "ĠĠĠĠĠĠĠĠĠ": 1937,
      "Ġmin": 1938,
      "ĠØ¢": 1939,
      "é£": 1940,
      "âĢĶ": 1941,
      "az": 1942,
      "ute": 1943,
      "ger": 1944,
      "AL": 1945,
      "ìĿĢ": 1946,
      "ms": 1947,
      "Ð¾Ð³Ð¾": 1948,
      "Ġdata": 1949,
      "çĶµ": 1950,
      "get": 1951,
      "Ġeach": 1952,
      "Ġcomm": 1953,
      "åĬ¡": 1954,
      "éĢļ": 1955,
      "åħ¶": 1956,
      "Ġprov": 1957,
      "ade": 1958,
      "èī": 1959,
      "au": 1960,
      "åº¦": 1961,
      "RE": 1962,
      "ym": 1963,
      "cre": 1964,
      "Ġsub": 1965,
      "Ð»Ð¸": 1966,
      "cul": 1967,
      "ä¹ĭ": 1968,
      "Ġop": 1969,
      "ĠĠĠĠĊ": 1970,
      "ix": 1971,
      "Ã¸": 1972,
      "à¤Ĥ": 1973,
      "Ġalso": 1974,
      "ĠØ§ÙĦØ³": 1975,
      "ĠØ§ÛĮ": 1976,
      "app": 1977,
      "Ġthese": 1978,
      "Ø¨Ø±": 1979,
      "ĠØ§Ø³Øª": 1980,
      "set": 1981,
      "ST": 1982,
      "ict": 1983,
      "Ġits": 1984,
      "çŁ": 1985,
      "essage": 1986,
      "éĩį": 1987,
      "è¶": 1988,
      "},": 1989,
      "Ġwere": 1990,
      "å¿ĥ": 1991,
      "Re": 1992,
      "rol": 1993,
      "Ġrequ": 1994,
      "urr": 1995,
      "Ġsk": 1996,
      "Ġinclud": 1997,
      "è·": 1998,
      "å°±": 1999,
      "Äħ": 2000,
      "($": 2001,
      "ĠThis": 2002,
      "line": 2003,
      "Ùĭ": 2004,
      "tring": 2005,
      "ĠÎ": 2006,
      "æį": 2007,
      "Ġstring": 2008,
      "Ġav": 2009,
      "éķ¿": 2010,
      "Ø¦": 2011,
      "========": 2012,
      "Ġà¸": 2013,
      "Ġthan": 2014,
      "åĨħ": 2015,
      "ê²": 2016,
      "als": 2017,
      "ible": 2018,
      "äºĭ": 2019,
      "Ġwhat": 2020,
      "iew": 2021,
      "na": 2022,
      "Th": 2023,
      "ĠÑĢÐ°": 2024,
      "à¬": 2025,
      "div": 2026,
      "èµĦ": 2027,
      "æıĲ": 2028,
      "ç¾": 2029,
      "çĽ®": 2030,
      "eb": 2031,
      "Ġmed": 2032,
      "ning": 2033,
      "ublic": 2034,
      "´ë": 2035,
      "Ġna": 2036,
      "Ġcomp": 2037,
      "åŃĲ": 2038,
      "ãģĭ": 2039,
      "å¾Ĺ": 2040,
      "ta": 2041,
      "Con": 2042,
      "ĠÐ·Ð°": 2043,
      "ash": 2044,
      "Ġcons": 2045,
      "Ġwho": 2046,
      "åħ³": 2047,
      "arch": 2048,
      "ë¥¼": 2049,
      "Ġback": 2050,
      "Ġhad": 2051,
      "pect": 2052,
      "ample": 2053,
      "æľĢ": 2054,
      "ÑĢÑĥ": 2055,
      "åĪ¶": 2056,
      "åĮº": 2057,
      "Ġrec": 2058,
      "Ġstud": 2059,
      "Ġsol": 2060,
      "ĠĊĠĊ": 2061,
      "ied": 2062,
      "Ġë°": 2063,
      "èĢĮ": 2064,
      "Ġresult": 2065,
      "ìļ": 2066,
      "à¦¾à¦": 2067,
      "Ġcode": 2068,
      "æīĢ": 2069,
      "êµ": 2070,
      "dd": 2071,
      "áĥĲ": 2072,
      "Ġest": 2073,
      "Ġlet": 2074,
      "Ġdifferent": 2075,
      "Ġnumber": 2076,
      "ÐµÐ¹": 2077,
      "Ġexpl": 2078,
      "åı¸": 2079,
      "ìĦľ": 2080,
      "ÐºÐ°": 2081,
      "Ġfirst": 2082,
      "ung": 2083,
      "ues": 2084,
      "fter": 2085,
      "Ġpol": 2086,
      "LE": 2087,
      "à§ĩ": 2088,
      "iet": 2089,
      "ĠÙ¾": 2090,
      "æ°´": 2091,
      "gram": 2092,
      "Ġconst": 2093,
      "Ġbu": 2094,
      "çł": 2095,
      "à¹Ģ": 2096,
      "ner": 2097,
      "Ġfe": 2098,
      "Pro": 2099,
      "Õ¡": 2100,
      "Ġact": 2101,
      "Ġext": 2102,
      "ØªØ±": 2103,
      "Ġunder": 2104,
      "sh": 2105,
      "ãģ¾": 2106,
      "ative": 2107,
      "its": 2108,
      "åľº": 2109,
      "éĩı": 2110,
      "çī©": 2111,
      "Ó©": 2112,
      "Ġmem": 2113,
      "à¹Ģà¸": 2114,
      "åĿ": 2115,
      "Ġinput": 2116,
      "Ġtwo": 2117,
      "hed": 2118,
      "ID": 2119,
      "ield": 2120,
      "rough": 2121,
      "atch": 2122,
      "Ġwork": 2123,
      "åĢ": 2124,
      "å°Ĩ": 2125,
      "ãģ£": 2126,
      "æĸĩ": 2127,
      "cont": 2128,
      "ask": 2129,
      "á»": 2130,
      "ç©": 2131,
      "import": 2132,
      "ìĽ": 2133,
      "Ġreg": 2134,
      "åħ¥": 2135,
      "Ø±Ø¯": 2136,
      "ruct": 2137,
      "Ġmay": 2138,
      "Ġinst": 2139,
      "ox": 2140,
      "è°": 2141,
      "æľŁ": 2142,
      "ments": 2143,
      "Ġname": 2144,
      "à¥ĭ": 2145,
      "\".": 2146,
      "Type": 2147,
      "Ġê°": 2148,
      "æķĻ": 2149,
      "ause": 2150,
      "Ġvari": 2151,
      "ç®¡": 2152,
      "ÐµÐ´": 2153,
      "æ¶": 2154,
      "Ġass": 2155,
      "å¥½": 2156,
      "Ġpers": 2157,
      "],": 2158,
      "mer": 2159,
      "ê¸°": 2160,
      "ä½į": 2161,
      "Ġye": 2162,
      "ÙħØ§": 2163,
      "Ġda": 2164,
      "ÙĬÙĦ": 2165,
      "ç³": 2166,
      "Ex": 2167,
      "Ķ×": 2168,
      "und": 2169,
      "Ġour": 2170,
      "pos": 2171,
      "vent": 2172,
      "ĠØ¨Ø±": 2173,
      "ãĤĤ": 2174,
      "Ø§ØŃ": 2175,
      "):": 2176,
      "íķ´": 2177,
      "çķ": 2178,
      "ada": 2179,
      "Ġrem": 2180,
      "oid": 2181,
      "lean": 2182,
      "ä¿Ŀ": 2183,
      "å§": 2184,
      "Ø§Ø²": 2185,
      "olog": 2186,
      "Ġmen": 2187,
      "Ġà²": 2188,
      "å°ı": 2189,
      "æĬĢ": 2190,
      "Ð¸Ð¹": 2191,
      "éļ": 2192,
      "ci": 2193,
      "Ġent": 2194,
      "('": 2195,
      "Ġbec": 2196,
      "ĠÐ¿Ð¾": 2197,
      "ãĤĮ": 2198,
      "íĸ": 2199,
      "åºĶ": 2200,
      "Ġusing": 2201,
      "ãĤ¹": 2202,
      "rt": 2203,
      "ale": 2204,
      "Ġmake": 2205,
      "ĠØ¨Ø§ÙĦ": 2206,
      "Ġfol": 2207,
      "Ġaut": 2208,
      "Å³": 2209,
      "yp": 2210,
      "read": 2211,
      "fo": 2212,
      "ëĤ": 2213,
      "Ġid": 2214,
      "def": 2215,
      "ç¬¬": 2216,
      "idth": 2217,
      "Ġgr": 2218,
      "æķ°": 2219,
      "\":": 2220,
      "éħ": 2221,
      "Īĺ": 2222,
      "åħ¬åı¸": 2223,
      "ç¨ĭ": 2224,
      "ja": 2225,
      "ĠØ§ÙĦØ¥": 2226,
      "alse": 2227,
      "çĿ": 2228,
      "æŁ": 2229,
      "ëıĦ": 2230,
      "ĠIf": 2231,
      "ule": 2232,
      "éĩĳ": 2233,
      "à¹ī": 2234,
      "ĠÙħØ¹": 2235,
      "ĠÑį": 2236,
      "OR": 2237,
      "\";": 2238,
      "Ø±ÙĪ": 2239,
      "Val": 2240,
      "Ġê²": 2241,
      "play": 2242,
      "nal": 2243,
      "Ġog": 2244,
      "å¤ĸ": 2245,
      "è¡¨": 2246,
      "Ġher": 2247,
      "aking": 2248,
      "Ñĸ": 2249,
      "ength": 2250,
      "amp": 2251,
      "ics": 2252,
      "èĬ": 2253,
      "çĽ¸": 2254,
      "ç±": 2255,
      "ĠØ§Ø²": 2256,
      "wit": 2257,
      "ott": 2258,
      "duct": 2259,
      "Ð½Ð°": 2260,
      "èĲ": 2261,
      "ĊĠĠĠĠĊ": 2262,
      "ë¦": 2263,
      "Ġbased": 2264,
      "que": 2265,
      "Ġbeen": 2266,
      "Ġwould": 2267,
      "Ġdec": 2268,
      "à¤¨": 2269,
      "Ġonly": 2270,
      "éĥ½": 2271,
      "min": 2272,
      "ities": 2273,
      "Ø±Ø¨": 2274,
      "Ġra": 2275,
      "ĠØµ": 2276,
      "Ġthrough": 2277,
      "ØªÙĩ": 2278,
      "è®¡": 2279,
      "ced": 2280,
      "à§į": 2281,
      "éĹ´": 2282,
      "air": 2283,
      "ka": 2284,
      "Ġsuch": 2285,
      "ood": 2286,
      "å¦Ĥ": 2287,
      "Ġac": 2288,
      "Ġuser": 2289,
      "|>": 2290,
      "ç´": 2291,
      "hes": 2292,
      "ople": 2293,
      "yg": 2294,
      "Ġimplement": 2295,
      "ä¿¡": 2296,
      "data": 2297,
      "red": 2298,
      "æ¯Ķ": 2299,
      "...": 2300,
      "ÅĤ": 2301,
      "à§įà¦": 2302,
      "Ġfl": 2303,
      "%%": 2304,
      "ĠØ§ÙĦØŃ": 2305,
      "ces": 2306,
      "ĠÙħÛĮ": 2307,
      "æľ¯": 2308,
      "åĲį": 2309,
      "Ð¸Ð¼": 2310,
      "ĠÚ¯": 2311,
      "Ġform": 2312,
      "Ġje": 2313,
      "ins": 2314,
      "ï¼Ľ": 2315,
      "ĠÐ¾ÑĤ": 2316,
      "fore": 2317,
      "Ġsm": 2318,
      "IT": 2319,
      "att": 2320,
      "ãĥ¼ãĥ": 2321,
      "SE": 2322,
      "urrent": 2323,
      "çĤ¹": 2324,
      "Ġwhere": 2325,
      "aw": 2326,
      "ÙħÙĨ": 2327,
      "Ġlist": 2328,
      "å½ĵ": 2329,
      "Ġsom": 2330,
      "ĠUn": 2331,
      "ĠTr": 2332,
      "Ġtype": 2333,
      "åĳĺ": 2334,
      "Ġes": 2335,
      "ÙħÙĦ": 2336,
      "ÙĪÙĤ": 2337,
      "ator": 2338,
      "à´¿": 2339,
      "Data": 2340,
      "Ġoff": 2341,
      "date": 2342,
      "ution": 2343,
      "Ġknow": 2344,
      "Ġir": 2345,
      "ctions": 2346,
      "ui": 2347,
      "Ġì§": 2348,
      "ethod": 2349,
      "Ġph": 2350,
      "ç³»": 2351,
      "Ġhel": 2352,
      "yn": 2353,
      "ĠÐ¾Ð±": 2354,
      "Ġstr": 2355,
      "ĠCon": 2356,
      "ç§ĳ": 2357,
      "ĠHe": 2358,
      "Õ¡Õ": 2359,
      "let": 2360,
      "ser": 2361,
      "ãĤī": 2362,
      "ãĢĭ": 2363,
      "å¤©": 2364,
      "ãģĨ": 2365,
      "áĥĺ": 2366,
      "ĠÐ¡": 2367,
      "reat": 2368,
      "çĸ": 2369,
      "ĠØ¥ÙĦÙī": 2370,
      "ev": 2371,
      "å¹¶": 2372,
      "ãĢĬ": 2373,
      "ÐĲ": 2374,
      "ider": 2375,
      "çĦ": 2376,
      "ĠØ§ÙĦØ¬": 2377,
      "order": 2378,
      "any": 2379,
      "ĠÄ": 2380,
      "Ð°Ð²": 2381,
      "čĊčĊ": 2382,
      "DE": 2383,
      "ŀ×": 2384,
      "ough": 2385,
      "fig": 2386,
      "æĥħ": 2387,
      "Ġmet": 2388,
      "Ġìķ": 2389,
      "Ġwant": 2390,
      "Ġright": 2391,
      "ork": 2392,
      "AAAA": 2393,
      "ãĤĬ": 2394,
      "Ġfollow": 2395,
      "åĪ©": 2396,
      "Ġprint": 2397,
      "Ø¹Ø¯": 2398,
      "å®ī": 2399,
      "æģ": 2400,
      "Ġinform": 2401,
      "Ø§Ø¬": 2402,
      "ures": 2403,
      "right": 2404,
      "Ġter": 2405,
      "ular": 2406,
      "ìŀĲ": 2407,
      "ti": 2408,
      "Ġever": 2409,
      "iven": 2410,
      "Ġcondition": 2411,
      "ĠÃ®": 2412,
      "Ġprogram": 2413,
      "return": 2414,
      "ë§": 2415,
      "áĥĲáĥ": 2416,
      "bu": 2417,
      "unc": 2418,
      "Ġhigh": 2419,
      "ë¶": 2420,
      "Ð°Ð½Ð¸": 2421,
      "ĠWh": 2422,
      "Ð¾Ðº": 2423,
      "ä¼ģ": 2424,
      "roup": 2425,
      "ource": 2426,
      "ision": 2427,
      "åħĥ": 2428,
      "ground": 2429,
      "å¹³": 2430,
      "type": 2431,
      "ĠØ§ÙĦØ¯": 2432,
      "ĠØ§ÙĨ": 2433,
      "ç§į": 2434,
      "Ġnow": 2435,
      "ody": 2436,
      "Ġtra": 2437,
      "à¸Ńà¸": 2438,
      "ØªÙħ": 2439,
      "*/": 2440,
      "els": 2441,
      "ĠÑģÑĤ": 2442,
      "ines": 2443,
      "rop": 2444,
      "Ġhere": 2445,
      "Ġed": 2446,
      "ÑĢÐµÐ´": 2447,
      "æĽ´": 2448,
      "éľ": 2449,
      "ÛĮÙĨ": 2450,
      "ä¸ī": 2451,
      "Ð¸Ð²": 2452,
      "AN": 2453,
      "uc": 2454,
      "ext": 2455,
      "ä»£": 2456,
      "åĽł": 2457,
      "ĠØ§ÙĦÙĤ": 2458,
      "oy": 2459,
      "Ġfin": 2460,
      "resent": 2461,
      "çĹ": 2462,
      "iÃ³": 2463,
      "ç¾İ": 2464,
      "à¤ķ": 2465,
      "æ´»": 2466,
      "ìĸ": 2467,
      "tem": 2468,
      "ĠĠĠĠĠĠĠĠĠĠĠĠĠĠĠĠĠĠĠ": 2469,
      "ä¸ŃåĽ½": 2470,
      "æĶ¿": 2471,
      "Ġcor": 2472,
      "ĥģ": 2473,
      "å£": 2474,
      "Ġdan": 2475,
      "åķ": 2476,
      "ĠZ": 2477,
      "bl": 2478,
      "æ°ĳ": 2479,
      "Ġáĥ": 2480,
      "Ġgoing": 2481,
      "ages": 2482,
      "Res": 2483,
      "}.": 2484,
      "Ġco": 2485,
      "test": 2486,
      "ģà¸": 2487,
      "gy": 2488,
      "ases": 2489,
      "ze": 2490,
      "éĶ": 2491,
      "Ġstart": 2492,
      "æĺİ": 2493,
      "Ġpeople": 2494,
      "ond": 2495,
      "ä½¿": 2496,
      "æĦı": 2497,
      "Ġused": 2498,
      "ices": 2499,
      "be": 2500,
      "alth": 2501,
      "imes": 2502,
      "à¦¿": 2503,
      "Ġap": 2504,
      "ãģĵ": 2505,
      "ëĵ": 2506,
      "ľ×": 2507,
      "èĭ": 2508,
      "å¼ı": 2509,
      "Ġind": 2510,
      "Ġwell": 2511,
      "IC": 2512,
      "${": 2513,
      "Ø¥": 2514,
      "oj": 2515,
      "ower": 2516,
      "ature": 2517,
      "gan": 2518,
      "Ġìĭ": 2519,
      "ãĤ¤": 2520,
      "Ġtest": 2521,
      "çī¹": 2522,
      "irect": 2523,
      "string": 2524,
      "ä»İ": 2525,
      "ements": 2526,
      "æ¬¡": 2527,
      "ween": 2528,
      "kan": 2529,
      "ĠEx": 2530,
      "ih": 2531,
      "éģĵ": 2532,
      "ç½ĳ": 2533,
      "Ġver": 2534,
      "velop": 2535,
      "Å«": 2536,
      "åŁº": 2537,
      "Ġvan": 2538,
      "ĳ×": 2539,
      "ĠÐµ": 2540,
      "ÙĩÙħ": 2541,
      "à³į": 2542,
      "ts": 2543,
      "ote": 2544,
      "çĥ": 2545,
      "amet": 2546,
      "''": 2547,
      "Ġpat": 2548,
      "é¦": 2549,
      "ÐµÐº": 2550,
      "ë³": 2551,
      "Ġà¤¸": 2552,
      "AC": 2553,
      "Ġlevel": 2554,
      "ĠØ¹ÙĨ": 2555,
      "ä¸ĵ": 2556,
      "ç¡": 2557,
      "uch": 2558,
      "Ġpublic": 2559,
      "à¸Ļà¸": 2560,
      "ren": 2561,
      "ãĢĮ": 2562,
      "ãĢį": 2563,
      "ument": 2564,
      "ìĤ¬": 2565,
      "ìĿ¸": 2566,
      "Ð¾Ð¶": 2567,
      "ÄĻ": 2568,
      "Ð»Ñı": 2569,
      "ency": 2570,
      "ĠÐ»": 2571,
      "Ġloc": 2572,
      "Ġread": 2573,
      "ĠÐŁ": 2574,
      "ĠÃ©": 2575,
      "kt": 2576,
      "Ġcould": 2577,
      "log": 2578,
      "ìľ¼": 2579,
      "©×": 2580,
      "åıĳå±ķ": 2581,
      "ĠØ§ÛĮÙĨ": 2582,
      "Ġë§": 2583,
      "String": 2584,
      "ern": 2585,
      "Ø¨ÙĬ": 2586,
      "Ġrequire": 2587,
      "ëł": 2588,
      "ÐµÐ»ÑĮ": 2589,
      "########": 2590,
      "Ġtem": 2591,
      "Ġcontrol": 2592,
      "ë°": 2593,
      "uring": 2594,
      "è¯´": 2595,
      "witch": 2596,
      "ç¥": 2597,
      "å·¥ä½ľ": 2598,
      "FFFFFFFF": 2599,
      "à¤¤": 2600,
      "ÄĽ": 2601,
      "ĠìĹ": 2602,
      "Ġinv": 2603,
      "ä¼ģä¸ļ": 2604,
      "ĠRe": 2605,
      "èĪ": 2606,
      "Ġvar": 2607,
      "è½¦": 2608,
      "Ð¾ÑģÑĤ": 2609,
      "}{": 2610,
      "Ġtak": 2611,
      "éĵ": 2612,
      "é¡¹": 2613,
      "éĻ¢": 2614,
      "af": 2615,
      "Ġà¨": 2616,
      "Ġdat": 2617,
      "else": 2618,
      "è´¨": 2619,
      "str": 2620,
      "Ġder": 2621,
      "Ġcase": 2622,
      "Ġbetween": 2623,
      "ault": 2624,
      "Ġtrue": 2625,
      "case": 2626,
      "Ħà¸": 2627,
      "ily": 2628,
      "Ġsur": 2629,
      "ful": 2630,
      "Ø§Ø´": 2631,
      "Ġfind": 2632,
      "ĠÐĴ": 2633,
      "To": 2634,
      "Ġcheck": 2635,
      "Com": 2636,
      "Ġser": 2637,
      "ĠØ·": 2638,
      "è¿ĺ": 2639,
      "æĪĳä»¬": 2640,
      "Ġrep": 2641,
      "fl": 2642,
      "Ġsee": 2643,
      "Ġ×Ķ×": 2644,
      "Ġtot": 2645,
      "ĠÐļ": 2646,
      "Ġdep": 2647,
      "æľį": 2648,
      "Ġdist": 2649,
      "æīĭ": 2650,
      "åŀ": 2651,
      "ç²": 2652,
      "isk": 2653,
      "ÙĪØ²": 2654,
      "Ġdel": 2655,
      "Ø§Øµ": 2656,
      "mod": 2657,
      "yth": 2658,
      "çĿĢ": 2659,
      "ĠØ§ÙĦØ´": 2660,
      "æŃ¤": 2661,
      "Ġfile": 2662,
      "æº": 2663,
      "æĪĸ": 2664,
      "Ch": 2665,
      "ÙĬØ³": 2666,
      "cent": 2667,
      "ĠCom": 2668,
      "ĉif": 2669,
      "à´¿à´": 2670,
      "ä¸ĩ": 2671,
      "ë¦¬": 2672,
      "åĲĦ": 2673,
      "à©": 2674,
      "æį®": 2675,
      "var": 2676,
      "color": 2677,
      "Ġyang": 2678,
      "æ·": 2679,
      "ĠAl": 2680,
      "ìĽĲ": 2681,
      "ify": 2682,
      "ames": 2683,
      "ë©": 2684,
      "Ġcare": 2685,
      "ank": 2686,
      "æĮģ": 2687,
      "èµ·": 2688,
      "Sc": 2689,
      "<<": 2690,
      "ann": 2691,
      "æ¡": 2692,
      "ìĭľ": 2693,
      "ffect": 2694,
      "aut": 2695,
      "ĉreturn": 2696,
      "RO": 2697,
      "oh": 2698,
      "ä¸Ģä¸ª": 2699,
      "è§Ħ": 2700,
      "for": 2701,
      "çłĶ": 2702,
      "cept": 2703,
      "å¸¸": 2704,
      "ĠWe": 2705,
      "ational": 2706,
      "Ġcent": 2707,
      "la": 2708,
      "ĠQ": 2709,
      "à¤²": 2710,
      "ense": 2711,
      "ìĺ": 2712,
      "AM": 2713,
      "Ġgener": 2714,
      "ara": 2715,
      "Ġlook": 2716,
      "ĠØ§": 2717,
      "æŃ£": 2718,
      "ĠØ§ÙĦÙĨ": 2719,
      "Ġê³": 2720,
      "ãģ¦ãģĦ": 2721,
      "ãĥĪ": 2722,
      "Ġafter": 2723,
      "argin": 2724,
      "ĠØ§ÙĦÙģ": 2725,
      "Ġsaid": 2726,
      "ender": 2727,
      "æŀľ": 2728,
      "sk": 2729,
      "ife": 2730,
      "çĦ¶": 2731,
      "ious": 2732,
      "Ġtil": 2733,
      "\"\"": 2734,
      "size": 2735,
      "Ġma": 2736,
      "frac": 2737,
      "Ġshe": 2738,
      "Ø§Ùĭ": 2739,
      "iene": 2740,
      "Ò¯": 2741,
      "Ġhandle": 2742,
      "ĠìĦ": 2743,
      "oss": 2744,
      "no": 2745,
      "Ġperson": 2746,
      "æĹł": 2747,
      "ton": 2748,
      "Value": 2749,
      "ÙĪØ³": 2750,
      "ÈĽ": 2751,
      "£¼": 2752,
      "ÑĥÐ´": 2753,
      "æłĩ": 2754,
      "Ð¾Ð·": 2755,
      "cond": 2756,
      "Ġtext": 2757,
      "Ð°ÑĤÑĮ": 2758,
      "Ġfr": 2759,
      "[]": 2760,
      "Ġmost": 2761,
      "Ġimport": 2762,
      "ET": 2763,
      "çĶ±": 2764,
      "Ġfil": 2765,
      "Ġprocess": 2766,
      "Ġatt": 2767,
      "other": 2768,
      "Ø±Ø©": 2769,
      "Ġcount": 2770,
      "wer": 2771,
      "Î±": 2772,
      "è¢": 2773,
      "Ġsch": 2774,
      "ä½Ĩ": 2775,
      "ability": 2776,
      "Ġerr": 2777,
      "ä»¶": 2778,
      "();": 2779,
      "ml": 2780,
      "åķĨ": 2781,
      "ader": 2782,
      "ìĬ¤": 2783,
      "file": 2784,
      "ersion": 2785,
      "ĠÑħ": 2786,
      "por": 2787,
      "Er": 2788,
      "trans": 2789,
      "ward": 2790,
      "Ø±ÛĮ": 2791,
      "à²¿": 2792,
      "Ġreal": 2793,
      "Ġchar": 2794,
      "à¦°": 2795,
      "Ġà¤®": 2796,
      "ene": 2797,
      "éĤ": 2798,
      "function": 2799,
      "aining": 2800,
      "Ð¾Ð¿": 2801,
      "<|": 2802,
      "comm": 2803,
      "Ø¨ÙĦ": 2804,
      "Ġbel": 2805,
      "ÙħØ©": 2806,
      "Ġwhe": 2807,
      "ina": 2808,
      "å¢ŀ": 2809,
      "ĠØ¨Ø§": 2810,
      "ÑĩÐµ": 2811,
      "Ð²Ð°": 2812,
      "ĠëĮĢ": 2813,
      "ç¤¾": 2814,
      "br": 2815,
      ",\"": 2816,
      "ams": 2817,
      "èį": 2818,
      "self": 2819,
      "ĩà¸": 2820,
      "((": 2821,
      "éĩĮ": 2822,
      "\");": 2823,
      "ÙĨØ§": 2824,
      "--------------------------------": 2825,
      "ÐĿ": 2826,
      "ĠÙħØŃ": 2827,
      "Ġhar": 2828,
      "æµ·": 2829,
      "ç«ĭ": 2830,
      "ined": 2831,
      "ìľ¼ë¡ľ": 2832,
      "ìŀ¥": 2833,
      "ĠÃ®n": 2834,
      "ĠSe": 2835,
      "Äĩ": 2836,
      "Ð¸Ñħ": 2837,
      "ĠÑĩÑĤÐ¾": 2838,
      "ĠX": 2839,
      "ëĿ": 2840,
      "Ġequ": 2841,
      "Ġwhile": 2842,
      "land": 2843,
      "print": 2844,
      "back": 2845,
      "Ġbecause": 2846,
      "teger": 2847,
      "Ġtop": 2848,
      "ì²": 2849,
      "Ð¡": 2850,
      "åĪĽ": 2851,
      "adi": 2852,
      "æł¡": 2853,
      "Ġìĺ": 2854,
      "Ġmany": 2855,
      "è§£": 2856,
      "ĠAr": 2857,
      "éĽĨ": 2858,
      "è£": 2859,
      "ĠĠĠĠĠĠĠĠĠĠ": 2860,
      "Ġcall": 2861,
      "Ġflow": 2862,
      "æĦŁ": 2863,
      "Ġvis": 2864,
      "ets": 2865,
      "Ġlog": 2866,
      "num": 2867,
      "ession": 2868,
      "endof": 2869,
      "Ġhelp": 2870,
      "Ġposs": 2871,
      "UT": 2872,
      "ç¼": 2873,
      "ìłķ": 2874,
      "by": 2875,
      "rem": 2876,
      "å¾Ī": 2877,
      "Úº": 2878,
      "ists": 2879,
      "endoftext": 2880,
      "æĬ¥": 2881,
      "à«": 2882,
      "Ð¾Ð»ÑĮ": 2883,
      "ĠìĿ´": 2884,
      "ÐµÐ½ÑĤ": 2885,
      "idd": 2886,
      "Ġve": 2887,
      "Ġbeg": 2888,
      "ĠÚ©Ùĩ": 2889,
      "Ġmat": 2890,
      "Ġgiven": 2891,
      "po": 2892,
      "ÙĩØ§ÛĮ": 2893,
      "éĢł": 2894,
      "lease": 2895,
      "Åĳ": 2896,
      "Ġcomple": 2897,
      "ĠÕ": 2898,
      "ygiene": 2899,
      "ĠØ²": 2900,
      "áĥĶ": 2901,
      "Ø¹Ø©": 2902,
      "Ĳ×": 2903,
      "ĠÐ²Ñĭ": 2904,
      "arn": 2905,
      "tern": 2906,
      "ç»Ł": 2907,
      "Ġbefore": 2908,
      "ĠÐľ": 2909,
      "æĤ": 2910,
      "ĠRes": 2911,
      "éĴ": 2912,
      "ĠØ§ÙĦØ®": 2913,
      "à³įà²": 2914,
      "Ġà¤ª": 2915,
      "wn": 2916,
      "Ġput": 2917,
      "Ġsystem": 2918,
      "')": 2919,
      "Ġdie": 2920,
      "ĠÑĢÐµ": 2921,
      "Ġlong": 2922,
      "ÚĨ": 2923,
      "å¼º": 2924,
      "äº¤": 2925,
      "ED": 2926,
      "Ar": 2927,
      "ÐºÐ¸": 2928,
      "Ã§": 2929,
      "ava": 2930,
      "pport": 2931,
      "ÙĦÙĥ": 2932,
      "Ġdoes": 2933,
      "Ġway": 2934,
      "Ġlo": 2935,
      "itle": 2936,
      "Ġdown": 2937,
      "ãĥ«": 2938,
      "è¨": 2939,
      "Ġexp": 2940,
      "ba": 2941,
      "ÐµÐ½Ð¸Ñı": 2942,
      "Ġut": 2943,
      "Ġmethod": 2944,
      "íĺ": 2945,
      "left": 2946,
      "son": 2947,
      "Ġwater": 2948,
      "ama": 2949,
      "íĻ": 2950,
      "åĲĳ": 2951,
      "åı¯ä»¥": 2952,
      "Ġbr": 2953,
      "æĬĢæľ¯": 2954,
      "èĥ": 2955,
      "é£İ": 2956,
      "åŀĭ": 2957,
      "ĠDe": 2958,
      "ÑĢÐ¸": 2959,
      "/*": 2960,
      "Ġsl": 2961,
      "Ġfam": 2962,
      "Ġgl": 2963,
      "ey": 2964,
      "Ġtake": 2965,
      "å¤Ħ": 2966,
      "è·¯": 2967,
      "ĠHere": 2968,
      "ãģķ": 2969,
      "List": 2970,
      "ited": 2971,
      "ln": 2972,
      "ãĥĥ": 2973,
      "Ð½ÑĭÑħ": 2974,
      "ting": 2975,
      "Ð°Ñģ": 2976,
      "å·²": 2977,
      "à¸µ": 2978,
      "äºĮ": 2979,
      "ÐĴ": 2980,
      "Ġrun": 2981,
      "ä»»": 2982,
      "yle": 2983,
      "go": 2984,
      "ÙħØ§ÙĨ": 2985,
      "Par": 2986,
      "egin": 2987,
      "åıĹ": 2988,
      "sub": 2989,
      "Ø±Ùĥ": 2990,
      "ØŃØ¯": 2991,
      "åħ·": 2992,
      "};": 2993,
      "ãģı": 2994,
      "iem": 2995,
      "urs": 2996,
      "ica": 2997,
      "AB": 2998,
      "æµģ": 2999,
      "Ġinformation": 3000,
      "ëĿ¼": 3001,
      "Ð´Ð°": 3002,
      "ìĿ¼": 3003,
      "æ±Ĥ": 3004,
      "++": 3005,
      "iver": 3006,
      "ÙĤØ¯": 3007,
      "esc": 3008,
      "Ġeven": 3009,
      "Ġdid": 3010,
      "ism": 3011,
      "ane": 3012,
      "ÛĮØ¯": 3013,
      "****************": 3014,
      "çģ": 3015,
      "æł¼": 3016,
      "list": 3017,
      "Ġcurrent": 3018,
      "å½±": 3019,
      "ç¤º": 3020,
      "ÙħØ¯": 3021,
      "âĢĺ": 3022,
      "è¥": 3023,
      "ĠÏ": 3024,
      "inter": 3025,
      "Ġom": 3026,
      "Ġdr": 3027,
      "raph": 3028,
      "èĩ³": 3029,
      "ĠÐł": 3030,
      "ÑĥÑĤ": 3031,
      "Ø¹ÙĦ": 3032,
      "çº§": 3033,
      "ç¦": 3034,
      "Ġwhether": 3035,
      "ëĭĪëĭ¤": 3036,
      "ush": 3037,
      "ness": 3038,
      "à¥ģ": 3039,
      "Ġswitch": 3040,
      "ĠÐ¸Ð·": 3041,
      "ember": 3042,
      "Ġgu": 3043,
      "gg": 3044,
      "èĤ²": 3045,
      "loat": 3046,
      "ÑģÑĤÐ¸": 3047,
      "ION": 3048,
      "ÑıÑĤ": 3049,
      "ç»ĵ": 3050,
      "CT": 3051,
      "ç»Ħ": 3052,
      "ii": 3053,
      "Ġunt": 3054,
      "äºĽ": 3055,
      "æİ¥": 3056,
      "ĠëĤ": 3057,
      "Ġdon": 3058,
      "åĭ": 3059,
      "Ġcalcul": 3060,
      "è¢«": 3061,
      "è¥¿": 3062,
      "åįķ": 3063,
      "åİŁ": 3064,
      "Ġà¤¹": 3065,
      "ìĹĲìĦľ": 3066,
      "requ": 3067,
      "://": 3068,
      "ÄŁ": 3069,
      "çŁ¥": 3070,
      "Se": 3071,
      "Î¿": 3072,
      "iÃ³n": 3073,
      "oo": 3074,
      "æĶ¶": 3075,
      "à¤¹": 3076,
      "Ġrespon": 3077,
      "ÈĻ": 3078,
      "stand": 3079,
      "Ġtotal": 3080,
      "åĸ": 3081,
      "the": 3082,
      "||": 3083,
      "Ġtech": 3084,
      "è¿Ĳ": 3085,
      "ä¾Ľ": 3086,
      "ĠFor": 3087,
      "Ġpoint": 3088,
      "ãģį": 3089,
      "çĪ": 3090,
      "ÉĻr": 3091,
      "Ð¸Ñģ": 3092,
      "ĠYou": 3093,
      "ana": 3094,
      "¨×": 3095,
      "ather": 3096,
      "Ã¢": 3097,
      "Ġagain": 3098,
      "Ġja": 3099,
      "èº": 3100,
      "Ø§Ø·": 3101,
      "not": 3102,
      "ëĮĢ": 3103,
      "ential": 3104,
      "ê³¼": 3105,
      "éľĢ": 3106,
      "ÙĬØ§": 3107,
      "AS": 3108,
      "ven": 3109,
      "Ġsign": 3110,
      "ten": 3111,
      "áĥĺáĥ": 3112,
      "Ġins": 3113,
      "Ġboth": 3114,
      "Ġinclude": 3115,
      "ually": 3116,
      "Ø¤": 3117,
      "Ð³Ð¾": 3118,
      "à¤¸": 3119,
      "æľįåĬ¡": 3120,
      "ppet": 3121,
      "pre": 3122,
      "ĠNew": 3123,
      "âĢ¦": 3124,
      "Ġbre": 3125,
      "ptions": 3126,
      "my": 3127,
      "Ġdeterm": 3128,
      "Ġart": 3129,
      "item": 3130,
      "Ġfound": 3131,
      "Ġstruct": 3132,
      "Ġhet": 3133,
      "ä¸ĸ": 3134,
      "ĠÐĿ": 3135,
      "Ġsni": 3136,
      "ES": 3137,
      "Ob": 3138,
      "ç®¡çĲĨ": 3139,
      "æĸĻ": 3140,
      "áĥĶáĥ": 3141,
      "Ġpriv": 3142,
      "ÙĪØ¨": 3143,
      "ÅĻ": 3144,
      "Cont": 3145,
      "ĠpÃ¥": 3146,
      "éª": 3147,
      "éĹ¨": 3148,
      "fe": 3149,
      "ized": 3150,
      "$$": 3151,
      "Ġstatements": 3152,
      "Ġdevelop": 3153,
      "ä»Ĭ": 3154,
      "æĢ»": 3155,
      "Ġvi": 3156,
      "clude": 3157,
      "å¯¼": 3158,
      "da": 3159,
      "Ġshow": 3160,
      "ë¬": 3161,
      "æ°Ķ": 3162,
      "ĠIN": 3163,
      "Ġproble": 3164,
      "åĮ»": 3165,
      "Ġword": 3166,
      "face": 3167,
      "ãĥ©": 3168,
      "åı°": 3169,
      "Ð½Ð¾Ð¹": 3170,
      "áº": 3171,
      "])": 3172,
      "Ġvo": 3173,
      "\\[": 3174,
      "é¢ĺ": 3175,
      "âĢŀ": 3176,
      "çľĭ": 3177,
      "ives": 3178,
      "ãģĹãģŁ": 3179,
      "Ġpass": 3180,
      "å±±": 3181,
      "ĠÛģ": 3182,
      "Ð°Ð»ÑĮ": 3183,
      "med": 3184,
      "çľģ": 3185,
      "Å£": 3186,
      "ÐµÐ²": 3187,
      "æĬķ": 3188,
      "Tr": 3189,
      "èİ": 3190,
      "Write": 3191,
      "åįĹ": 3192,
      "ever": 3193,
      "çĲĥ": 3194,
      "ä¼ł": 3195,
      "Ġden": 3196,
      "Ġâ": 3197,
      "åħĪ": 3198,
      "àµģ": 3199,
      "ãĥª": 3200,
      "ado": 3201,
      "èģĶ": 3202,
      "Ø³Ø¨": 3203,
      "ÑĢÐ¾Ð²": 3204,
      "Ġmessage": 3205,
      "ants": 3206,
      "Ġmon": 3207,
      "Î¹": 3208,
      "à¥įà¤¯": 3209,
      "åħ±": 3210,
      "!=": 3211,
      "åįģ": 3212,
      "Ġsnippet": 3213,
      "æ»": 3214,
      "use": 3215,
      "Ġì§Ģ": 3216,
      "ÙģÙĬ": 3217,
      "ìĨ": 3218,
      "ittle": 3219,
      "Ġëĭ": 3220,
      "Ġprovid": 3221,
      "è¾¾": 3222,
      "&&": 3223,
      "Ø§Ø¶": 3224,
      "UR": 3225,
      "ÙĩØ±": 3226,
      "æ¸¸": 3227,
      "ĠÐ¶": 3228,
      "ĊĊĊ": 3229,
      "åŁİ": 3230,
      "åıĸ": 3231,
      "atus": 3232,
      "AD": 3233,
      "ĠìĪĺ": 3234,
      "åĮĹ": 3235,
      "Ðŀ": 3236,
      "ë¶Ģ": 3237,
      "Ġsoc": 3238,
      "ĠØ§ÙĦØµ": 3239,
      "day": 3240,
      "ãĥ»": 3241,
      "ä½ł": 3242,
      "ãĤ¢": 3243,
      "Ġfollowing": 3244,
      "reate": 3245,
      "å¸Ī": 3246,
      "ãģł": 3247,
      "ãĤ¯": 3248,
      "nya": 3249,
      "Ġchild": 3250,
      "ìĥģ": 3251,
      "èº«": 3252,
      "èī²": 3253,
      "å¤ĩ": 3254,
      "ccess": 3255,
      "Ġyears": 3256,
      "çº¿": 3257,
      "Ġevery": 3258,
      "ä¸ľ": 3259,
      "Ġeen": 3260,
      "ãĤĵ": 3261,
      "vert": 3262,
      "Ġobject": 3263,
      "Ġvol": 3264,
      "reme": 3265,
      "à¹Ħà¸": 3266,
      "ified": 3267,
      "UL": 3268,
      "})": 3269,
      "DDDD": 3270,
      "Ð½Ð¾Ð³Ð¾": 3271,
      "uss": 3272,
      "abel": 3273,
      "èĮ": 3274,
      "Ġnil": 3275,
      "new": 3276,
      "CO": 3277,
      "Ġê¸°": 3278,
      "åĽŀ": 3279,
      "æºĲ": 3280,
      "inal": 3281,
      "ience": 3282,
      "ëª": 3283,
      "];": 3284,
      "æ¼": 3285,
      "Ġsame": 3286,
      "çİ¯": 3287,
      "Ãº": 3288,
      "ural": 3289,
      "vir": 3290,
      "Ġfalse": 3291,
      "Ġdem": 3292,
      "ĠÐ±Ñĭ": 3293,
      "ivers": 3294,
      "ribute": 3295,
      "mp": 3296,
      "ĠØ±Ø§": 3297,
      "ww": 3298,
      "ats": 3299,
      "Ġcreate": 3300,
      "åİ»": 3301,
      "ains": 3302,
      "sl": 3303,
      "mt": 3304,
      "unt": 3305,
      "ĠÐĲ": 3306,
      "à¦¿à¦": 3307,
      "ÛĮÙħ": 3308,
      "ÙĬÙħ": 3309,
      "ince": 3310,
      "Ø±Ùģ": 3311,
      "lear": 3312,
      "ervice": 3313,
      "èĢĥ": 3314,
      "Ġdirect": 3315,
      "Ġbegin": 3316,
      "å¹¿": 3317,
      "ĠÑĦ": 3318,
      "é©": 3319,
      "Ġthose": 3320,
      "ÙĤØ©": 3321,
      "ĠÙĩØ°": 3322,
      "Ã©s": 3323,
      "En": 3324,
      "çĹħ": 3325,
      "Ġcar": 3326,
      "èĦ": 3327,
      "Ġche": 3328,
      "ĠĠĠĠĠĠĠĠĠĠĠĠĠĠĠĠĠĠĠĠ": 3329,
      "bers": 3330,
      "ĠÛĮ": 3331,
      "Ġhim": 3332,
      "Ġmo": 3333,
      "ables": 3334,
      "Ġsi": 3335,
      "const": 3336,
      "iled": 3337,
      "Å¼": 3338,
      "ye": 3339,
      "Ð¸Ð´": 3340,
      "ÑģÐ¿": 3341,
      "Ġgood": 3342,
      "uro": 3343,
      "Ġàª": 3344,
      "Ġhealth": 3345,
      "Ð¸Ð·": 3346,
      ")*": 3347,
      "ÙĪØ§ÙĨ": 3348,
      "æ¨": 3349,
      "Int": 3350,
      "wh": 3351,
      "èĲ¥": 3352,
      "Ġarg": 3353,
      "ĠSh": 3354,
      "func": 3355,
      "å²": 3356,
      "Set": 3357,
      "Ġworld": 3358,
      "Ġcalled": 3359,
      "Ġerror": 3360,
      "Ġuint": 3361,
      "Ġline": 3362,
      "êµŃ": 3363,
      "OT": 3364,
      "adding": 3365,
      "ND": 3366,
      "Ġspecific": 3367,
      "è¿Ľè¡Į": 3368,
      "input": 3369,
      "Ġappro": 3370,
      "Ġhum": 3371,
      "Ġë¶": 3372,
      "ĠìłĦ": 3373,
      "cor": 3374,
      "à´¾": 3375,
      "Path": 3376,
      "åł": 3377,
      "Ø¨Ø§Ø±": 3378,
      "Ġlittle": 3379,
      "ÙħØ±": 3380,
      "Ġber": 3381,
      "\\]": 3382,
      "ĠAnd": 3383,
      "Ġmil": 3384,
      "ython": 3385,
      "Ġêµ": 3386,
      "æĥ³": 3387,
      "ĠìĤ¬": 3388,
      "ÙĦØ§ÙĦ": 3389,
      "æ®": 3390,
      "æ²»": 3391,
      "Ð°Ð¹": 3392,
      "ÑĢÐ°Ð²": 3393,
      "ared": 3394,
      "Ã¡s": 3395,
      "oot": 3396,
      "================": 3397,
      "ĠÑģÐ¾": 3398,
      "Ġdisc": 3399,
      "Ġday": 3400,
      "ĠÅ¡": 3401,
      "bb": 3402,
      "Ġdu": 3403,
      "value": 3404,
      "Get": 3405,
      "Ġmax": 3406,
      "This": 3407,
      "Wh": 3408,
      "Ġperform": 3409,
      "ä¸¤": 3410,
      "work": 3411,
      "Error": 3412,
      "Ġvery": 3413,
      "ken": 3414,
      "width": 3415,
      "ustom": 3416,
      "Ġìľ": 3417,
      "Ġfact": 3418,
      "ĠLe": 3419,
      "ä»·": 3420,
      "ç±»": 3421,
      "ĠØº": 3422,
      "åĻ": 3423,
      "çķĮ": 3424,
      "Ġstudents": 3425,
      "co": 3426,
      "sole": 3427,
      "Ġë³": 3428,
      "Ġeng": 3429,
      "ĠØ§ÙĦØ±": 3430,
      "ĠTo": 3431,
      "ream": 3432,
      "ĠØ§ÙĦØªÙĬ": 3433,
      "ãģĤ": 3434,
      "Ġiz": 3435,
      "Ð¸Ð¸": 3436,
      "ĠÃ¥": 3437,
      "ki": 3438,
      "asi": 3439,
      "Ġpot": 3440,
      "à¤¾à¤°": 3441,
      "hip": 3442,
      "ĠAn": 3443,
      "Ġmuch": 3444,
      "åĽ¢": 3445,
      "Ġoper": 3446,
      "æĮĩ": 3447,
      "dis": 3448,
      "Ġëĵ": 3449,
      "Ø§Ø±Ø©": 3450,
      "Ġpri": 3451,
      "ĠÐ¿Ð¾Ð´": 3452,
      "but": 3453,
      "ëĲ": 3454,
      "à²¿à²": 3455,
      "Ġdesc": 3456,
      "äº§åĵģ": 3457,
      "æ£": 3458,
      "å°ĳ": 3459,
      "De": 3460,
      "ization": 3461,
      "man": 3462,
      "Ġcontent": 3463,
      "ĠĠĠĠĠĠĠĠĠĠĠĠĠ": 3464,
      "ident": 3465,
      "ĠInd": 3466,
      "ÐŁ": 3467,
      "Ðł": 3468,
      "Ġans": 3469,
      "æł·": 3470,
      "run": 3471,
      "ottom": 3472,
      "Ġincre": 3473,
      "Ġpossible": 3474,
      "è¯ģ": 3475,
      "æķĪ": 3476,
      "åģļ": 3477,
      "ĠAs": 3478,
      "íĸĪëĭ¤": 3479,
      "ini": 3480,
      "åıĺ": 3481,
      "Ùĳ": 3482,
      "Ġmain": 3483,
      "IM": 3484,
      "Â·": 3485,
      "Ã¦": 3486,
      "ÖĢ": 3487,
      "ason": 3488,
      "Ġreturns": 3489,
      "Ġcolor": 3490,
      "Ġsit": 3491,
      "£à¸": 3492,
      "ä¼ĺ": 3493,
      "éĹ®": 3494,
      "top": 3495,
      "å½¢": 3496,
      "Ð½Ðµ": 3497,
      "Ø¯Ø±": 3498,
      "ÙĪÙĬ": 3499,
      "Bu": 3500,
      "////": 3501,
      "ending": 3502,
      "ĠIm": 3503,
      "Ġmust": 3504,
      "æĶ¹": 3505,
      "Ġquest": 3506,
      "æİ¨": 3507,
      "Ð¸Ðº": 3508,
      "Ð¸Ðµ": 3509,
      "ister": 3510,
      "opy": 3511,
      "search": 3512,
      "ç©¶": 3513,
      "lar": 3514,
      "ouble": 3515,
      "atic": 3516,
      ".,": 3517,
      "Ġsum": 3518,
      "Ġka": 3519,
      "Ġelement": 3520,
      "ref": 3521,
      "åı£": 3522,
      "æĸ½": 3523,
      "æ²¡": 3524,
      "Ġtry": 3525,
      "reg": 3526,
      "Ġear": 3527,
      "box": 3528,
      "aan": 3529,
      "é¢Ĩ": 3530,
      "ĉĉĉĉĉĉĉĉ": 3531,
      "éĸ": 3532,
      "acy": 3533,
      "ÅĨ": 3534,
      "ÑĥÑİ": 3535,
      "ling": 3536,
      "Î½": 3537,
      "å¸ĥ": 3538,
      "æģ¯": 3539,
      "Add": 3540,
      "].": 3541,
      "åĶ": 3542,
      "men": 3543,
      "SSSS": 3544,
      "åĽ½å®¶": 3545,
      "ìĻ": 3546,
      "arget": 3547,
      "WWWW": 3548,
      "Pr": 3549,
      "Ġcontin": 3550,
      "ĠAd": 3551,
      "Le": 3552,
      "Ġstep": 3553,
      "ÙĦÛĮ": 3554,
      "Ġleft": 3555,
      "ght": 3556,
      "Ġdisplay": 3557,
      "çĽ´": 3558,
      "ysis": 3559,
      "è®¤": 3560,
      "ÑĥÑĢ": 3561,
      "Ð¸ÑĤÑĮ": 3562,
      "ÙĪØ¬": 3563,
      "å®Į": 3564,
      "Ġthree": 3565,
      "Ġpop": 3566,
      "åıĤ": 3567,
      "à´¾à´": 3568,
      "æĿ¡": 3569,
      "ĠHow": 3570,
      "ĠGet": 3571,
      "Ðĺ": 3572,
      "Ġduring": 3573,
      "Ġallow": 3574,
      "IS": 3575,
      "ateg": 3576,
      "Ġbeh": 3577,
      "Ġbeing": 3578,
      "ĠÐ¢": 3579,
      "CH": 3580,
      "ital": 3581,
      "èµĽ": 3582,
      "è°ĥ": 3583,
      "ĠØ´Ø¯": 3584,
      "åĩĨ": 3585,
      "åĻ¨": 3586,
      "word": 3587,
      "æĶ¯": 3588,
      "ves": 3589,
      "Col": 3590,
      "æĶ¾": 3591,
      "ĠPr": 3592,
      "oken": 3593,
      "è¿ĳ": 3594,
      "bar": 3595,
      "ĠÙĪØª": 3596,
      "ology": 3597,
      "èĬĤ": 3598,
      "ĠØ§ÙĦØ¨": 3599,
      "ëŀ": 3600,
      "æĪ·": 3601,
      "Ġprodu": 3602,
      "Ġmult": 3603,
      "Ġau": 3604,
      "Ġkom": 3605,
      "ĠSc": 3606,
      "Ġq": 3607,
      "itial": 3608,
      "raw": 3609,
      "rc": 3610,
      "à¹Īà¸": 3611,
      "Ġok": 3612,
      "ÙĦØ©": 3613,
      "oun": 3614,
      "ÛĮØ±": 3615,
      "àµģà´": 3616,
      "ĠĠĠĠĠĠĠĠĠĠĠĠĠĠĠĠĠĠ": 3617,
      "åĬŀ": 3618,
      "Ġpartic": 3619,
      "Ġschool": 3620,
      "td": 3621,
      "éĻĲ": 3622,
      "ä¹¦": 3623,
      "Ġmade": 3624,
      "Ġkey": 3625,
      "Ġconditions": 3626,
      "´Ģ": 3627,
      "iter": 3628,
      "ÙĦØ³": 3629,
      "md": 3630,
      "AP": 3631,
      "Ġaround": 3632,
      "âĢĮÙĩØ§ÛĮ": 3633,
      "ļĮ": 3634,
      "éĢī": 3635,
      "Ġexample": 3636,
      "Îµ": 3637,
      "ĠØ§ÙĦÙĦ": 3638,
      "cho": 3639,
      "alt": 3640,
      "view": 3641,
      "ric": 3642,
      "ëĵ¤": 3643,
      "ĠØ§ÙĦÙĥ": 3644,
      "ĠÐ¿ÑĢÐ¾": 3645,
      "ector": 3646,
      "ameter": 3647,
      "ality": 3648,
      "æ³¨": 3649,
      "htt": 3650,
      "ĠØ§ÙĦØ°": 3651,
      "å·±": 3652,
      "è®©": 3653,
      "è´¹": 3654,
      "Ġnext": 3655,
      "ved": 3656,
      "Ġnon": 3657,
      "lex": 3658,
      "ĠÙħØ§": 3659,
      "Ä±n": 3660,
      "éŁ": 3661,
      "ali": 3662,
      "ãģ£ãģŁ": 3663,
      "!!": 3664,
      "leg": 3665,
      "Object": 3666,
      "Ġwithin": 3667,
      "tes": 3668,
      "bin": 3669,
      "ler": 3670,
      "ÙĪØª": 3671,
      "ift": 3672,
      "Ġterm": 3673,
      "Ġprof": 3674,
      "å®¢": 3675,
      "Ġpa": 3676,
      "Ð¼Ð¸": 3677,
      "é»": 3678,
      "·¸": 3679,
      "ĠEng": 3680,
      "Ġsecond": 3681,
      "ron": 3682,
      "ends": 3683,
      "ÙĨÙĬ": 3684,
      "ÙĩØ¯": 3685,
      "æ¥": 3686,
      "Ġorgan": 3687,
      "ÐµÐ½Ð¸Ðµ": 3688,
      "Ġinde": 3689,
      "ĠÐŀ": 3690,
      "Ġsz": 3691,
      "ita": 3692,
      "way": 3693,
      "Ġgre": 3694,
      "æ¯ı": 3695,
      "æŀĦ": 3696,
      "ãģĳ": 3697,
      "Ġwithout": 3698,
      "ĠÙħØ³": 3699,
      "Ø§Ø³Øª": 3700,
      "net": 3701,
      "Ġod": 3702,
      "File": 3703,
      "ê¸": 3704,
      "Ġcomments": 3705,
      "ĠÐĶ": 3706,
      "Ġwar": 3707,
      "Ġur": 3708,
      "Ġsim": 3709,
      "perty": 3710,
      "éĻħ": 3711,
      "Õ¸": 3712,
      "Ġlow": 3713,
      "ÙģØª": 3714,
      "ĠĊĊ": 3715,
      "çĬ": 3716,
      "¡°": 3717,
      "çĻ½": 3718,
      "He": 3719,
      "åĪ«": 3720,
      "Ġplay": 3721,
      "alk": 3722,
      "Ġens": 3723,
      "Ġlast": 3724,
      "¢×": 3725,
      "ÙĪÛĮ": 3726,
      "hor": 3727,
      "å¸Ĥåľº": 3728,
      ":\"": 3729,
      "ium": 3730,
      "CC": 3731,
      "Ġik": 3732,
      "Ġcour": 3733,
      "ëŁ": 3734,
      "çłĶç©¶": 3735,
      "Ġbackground": 3736,
      "æķ´": 3737,
      "ypes": 3738,
      "Ġmov": 3739,
      "ç©º": 3740,
      "ç²¾": 3741,
      "ä¹Ī": 3742,
      "Ġ×ľ×": 3743,
      "Ġvalues": 3744,
      "Ð½ÑĭÐµ": 3745,
      "è¯¥": 3746,
      "Ġaddress": 3747,
      "ÑĨÐ¸Ð¸": 3748,
      "key": 3749,
      "ÙĦØ§": 3750,
      "ÙħÙĪ": 3751,
      "lin": 3752,
      "à¤®": 3753,
      "mat": 3754,
      "Ġaz": 3755,
      "met": 3756,
      "Ġlang": 3757,
      "¤ĳ": 3758,
      "utes": 3759,
      "ĠíĻ": 3760,
      "Ġproduct": 3761,
      "èĩªå·±": 3762,
      "åĽĽ": 3763,
      "Ġcu": 3764,
      "max": 3765,
      "ìĬµ": 3766,
      "ëĤĺ": 3767,
      "Ġplan": 3768,
      "content": 3769,
      "Ġclean": 3770,
      "¹Ħ": 3771,
      "Ð¸Ñı": 3772,
      "org": 3773,
      "åıª": 3774,
      "æ¶Ī": 3775,
      "oz": 3776,
      "ste": 3777,
      "Ġexper": 3778,
      "åħī": 3779,
      "ailed": 3780,
      "ili": 3781,
      "Ġhist": 3782,
      "viron": 3783,
      "Ã¤Ã¤": 3784,
      "ë§Į": 3785,
      "Ġrelated": 3786,
      "ÙħÙĬ": 3787,
      "Un": 3788,
      "éĺŁ": 3789,
      "Ðļ": 3790,
      "ĠÑįÑĤ": 3791,
      "Ã½": 3792,
      "user": 3793,
      "ĠAmer": 3794,
      "ê²Į": 3795,
      "ìłľ": 3796,
      "ocus": 3797,
      "éĺ²": 3798,
      "time": 3799,
      "Ġanal": 3800,
      "amb": 3801,
      "count": 3802,
      "ìĪĺ": 3803,
      "ãĤĪ": 3804,
      "sol": 3805,
      "ãģĻãĤĭ": 3806,
      "è®°": 3807,
      "valid": 3808,
      "Ġmeng": 3809,
      "ament": 3810,
      "Ġpara": 3811,
      "ãģĿ": 3812,
      "Ġpres": 3813,
      "è¾ĥ": 3814,
      "à¹ģà¸": 3815,
      "Ãł": 3816,
      "acter": 3817,
      "ÐµÑģÑĤ": 3818,
      "Ġpas": 3819,
      "ï¼Ł": 3820,
      "ìĸ´": 3821,
      "à²¾": 3822,
      "ĠÐ¿Ð¾Ð»": 3823,
      "Ø§Ø®": 3824,
      "va": 3825,
      "UN": 3826,
      "ross": 3827,
      "Ġdiv": 3828,
      "Ð°Ð»Ð¸": 3829,
      "Ð½ÑĭÐ¹": 3830,
      "ĠØ§ÙĦÙĬ": 3831,
      "ero": 3832,
      "ëħ": 3833,
      "ì£¼": 3834,
      "ription": 3835,
      "å®¹": 3836,
      "Ġsize": 3837,
      "tn": 3838,
      "çħ": 3839,
      "Ġprovide": 3840,
      "Ã¡n": 3841,
      "è§Ĩ": 3842,
      "Ġwrite": 3843,
      "head": 3844,
      "ì¹": 3845,
      "è±": 3846,
      "ĠØ§Ùħ": 3847,
      "Ġthink": 3848,
      "ĠÑģÐ²": 3849,
      "×ķ×ª": 3850,
      "çĥŃ": 3851,
      "å¸¦": 3852,
      "æīĵ": 3853,
      "ÐµÑĢÐµ": 3854,
      "å¢ĥ": 3855,
      "çİĩ": 3856,
      "ĠÐ³Ð¾Ð´": 3857,
      "Ġonce": 3858,
      "åĮħ": 3859,
      "For": 3860,
      "ails": 3861,
      "éĿŀ": 3862,
      "ackage": 3863,
      "den": 3864,
      "Ð°Ð´": 3865,
      "ait": 3866,
      "Cl": 3867,
      "Ġëı": 3868,
      "ocument": 3869,
      "Ġlife": 3870,
      "ĠÚ©Ø±Ø¯": 3871,
      "ìķĦ": 3872,
      "Ġpor": 3873,
      "ĠĠĊ": 3874,
      "æ·±": 3875,
      "ÙĥÙĨ": 3876,
      "quest": 3877,
      "çı": 3878,
      "ibr": 3879,
      "Ġsmall": 3880,
      "é¡¹çĽ®": 3881,
      "Ġ×ĳ×": 3882,
      "ÑİÑĤ": 3883,
      "ĠÙħØ¬": 3884,
      "Ġge": 3885,
      "ĠÐĳ": 3886,
      "ãĥ¼ãĤ": 3887,
      "ape": 3888,
      "ĠìŀĪ": 3889,
      "Ð°Ð·": 3890,
      "Ġeffect": 3891,
      "tu": 3892,
      "include": 3893,
      "è£ħ": 3894,
      "å±Ģ": 3895,
      "zy": 3896,
      "Ġoutput": 3897,
      "path": 3898,
      "MA": 3899,
      "Ġposition": 3900,
      "Mod": 3901,
      "Ġarray": 3902,
      "len": 3903,
      "Ġsimp": 3904,
      "ku": 3905,
      "ÙĤÙĬ": 3906,
      "ìłĦ": 3907,
      "ï¼ģ": 3908,
      "vo": 3909,
      "Ġprom": 3910,
      "Ġunderstand": 3911,
      "×Ļ×Ŀ": 3912,
      "Ġbir": 3913,
      "à¦¨": 3914,
      "cedure": 3915,
      "åįİ": 3916,
      "å¼ķ": 3917,
      "ĠĠĠĠĠĠĠĠĠĠĠĠĠĠ": 3918,
      "ju": 3919,
      "indow": 3920,
      "ENT": 3921,
      "Ġtri": 3922,
      "emb": 3923,
      "ĠDet": 3924,
      "åĳĬ": 3925,
      "éĤ£": 3926,
      "é£Ł": 3927,
      "Ð¢": 3928,
      "do": 3929,
      "ional": 3930,
      "obj": 3931,
      "Ġpost": 3932,
      "By": 3933,
      "éĢŁ": 3934,
      "Ġëª": 3935,
      "Ð°ÐµÑĤ": 3936,
      "lt": 3937,
      "LO": 3938,
      "ë¯": 3939,
      "ral": 3940,
      "Ġà¤¨": 3941,
      "Ġconsider": 3942,
      "MP": 3943,
      "pty": 3944,
      "Ġcommun": 3945,
      "Ġitem": 3946,
      "ĠÙħØ¯": 3947,
      "gen": 3948,
      "Sh": 3949,
      "å·ŀ": 3950,
      "Ġanother": 3951,
      "Ġce": 3952,
      "è§Ĥ": 3953,
      "Ġorder": 3954,
      "à¥Ī": 3955,
      "ples": 3956,
      "Ð°Ñı": 3957,
      "ĠÐ¿ÑĢÐµÐ´": 3958,
      "ł×": 3959,
      "Ġide": 3960,
      "ç±³": 3961,
      "+=": 3962,
      "ĠÅŁ": 3963,
      "æıĲä¾Ľ": 3964,
      "Ġca": 3965,
      "TE": 3966,
      "èĻ": 3967,
      "Ġfield": 3968,
      "æŃ¥": 3969,
      "à¥įà¤°": 3970,
      "jo": 3971,
      "ĠÙħØ´": 3972,
      "inc": 3973,
      "Ġopen": 3974,
      "æĢĿ": 3975,
      "CE": 3976,
      "Im": 3977,
      "Ġbuild": 3978,
      "ØªÙĬ": 3979,
      "commend": 3980,
      "Ð¶Ðµ": 3981,
      "æĸ¯": 3982,
      "ä½İ": 3983,
      "ìĦ±": 3984,
      "ffic": 3985,
      "æķĻèĤ²": 3986,
      "åı·": 3987,
      "Item": 3988,
      "à²¾à²": 3989,
      "book": 3990,
      "æ¢": 3991,
      "Ġown": 3992,
      "erc": 3993,
      "less": 3994,
      "bs": 3995,
      "ÑĢÑĭ": 3996,
      "Ind": 3997,
      "èĢģ": 3998,
      "irt": 3999,
      "å»ºè®¾": 4000,
      "Time": 4001,
      "ä½¿çĶ¨": 4002,
      "à¥¤": 4003,
      "class": 4004,
      "Ġref": 4005,
      "ĠÑĢÐ°Ð·": 4006,
      "ima": 4007,
      "arr": 4008,
      "Ġìĭľ": 4009,
      "ãĥ³ãĥ": 4010,
      "Äģs": 4011,
      "Ġcr": 4012,
      "çľŁ": 4013,
      "ì°": 4014,
      "ìłģ": 4015,
      "ety": 4016,
      "ç¡®": 4017,
      "ĠFr": 4018,
      "Ġdin": 4019,
      "Ø§Ø±ÛĮ": 4020,
      "å§Ķ": 4021,
      "ÙĭØ§": 4022,
      "ĠCal": 4023,
      "Ãª": 4024,
      "æµİ": 4025,
      "omen": 4026,
      "ĠÙħØ±": 4027,
      "Ġtre": 4028,
      "Ġfun": 4029,
      "Ġos": 4030,
      "ÏĦ": 4031,
      "You": 4032,
      "ç»Ń": 4033,
      "AG": 4034,
      "\\(": 4035,
      "mon": 4036,
      "à¸±": 4037,
      "Ġimplementation": 4038,
      "ë³´": 4039,
      "éªĮ": 4040,
      "äº¿": 4041,
      "ouse": 4042,
      "ÙĪÙģ": 4043,
      "ĠOn": 4044,
      "ormal": 4045,
      "aces": 4046,
      "ë²": 4047,
      "ÙĦØ§Ùħ": 4048,
      "ĠÐºÐ¾ÑĤ": 4049,
      "æĿĲ": 4050,
      "lev": 4051,
      "oci": 4052,
      "Ġnu": 4053,
      "Ġcases": 4054,
      "efore": 4055,
      "Ġsay": 4056,
      "Ú¾": 4057,
      "itive": 4058,
      "Ġsym": 4059,
      "à¤µ": 4060,
      "æīį": 4061,
      "Ġtask": 4062,
      "èª": 4063,
      "Ġpresent": 4064,
      "åĬ©": 4065,
      "$\\": 4066,
      "oms": 4067,
      "Ġpie": 4068,
      "ÙĥØ±": 4069,
      "ories": 4070,
      "ÑģÐµ": 4071,
      "';": 4072,
      "Ġless": 4073,
      "Ġsent": 4074,
      "%;": 4075,
      "Ġê²ĥ": 4076,
      "Ġscript": 4077,
      "ĠPl": 4078,
      "è¯ķ": 4079,
      "(-": 4080,
      "fil": 4081,
      "ÙĦÙģ": 4082,
      "å¥³": 4083,
      "ÙħØ§ÙĦ": 4084,
      "ret": 4085,
      "åĬŁ": 4086,
      "ç¥ŀ": 4087,
      "ffer": 4088,
      "ua": 4089,
      "Ð»Ñĥ": 4090,
      "Ġold": 4091,
      "Ġadv": 4092,
      "Ġstate": 4093,
      "ior": 4094,
      "å¤į": 4095,
      "ĥĿ": 4096,
      "ìĬµëĭĪëĭ¤": 4097,
      "Ġgot": 4098,
      "Ø£ÙĨ": 4099,
      "ç»Ļ": 4100,
      "za": 4101,
      "ĠØ¶": 4102,
      "rain": 4103,
      "ĠString": 4104,
      "Ġdetermine": 4105,
      "å®ĥ": 4106,
      "pper": 4107,
      "sq": 4108,
      "ëį": 4109,
      "ga": 4110,
      "Ġindic": 4111,
      "([": 4112,
      "Ġbit": 4113,
      "ä¹Ĳ": 4114,
      "å§ĭ": 4115,
      "æĪĺ": 4116,
      "æľª": 4117,
      "Ġabove": 4118,
      "é¦ĸ": 4119,
      "ĠSo": 4120,
      "ences": 4121,
      "æ¨¡": 4122,
      "íļĮ": 4123,
      "ĠØªØŃ": 4124,
      "Ġ×©×": 4125,
      "Ġmargin": 4126,
      "éĢļè¿ĩ": 4127,
      "æĿĥ": 4128,
      "ÐĶ": 4129,
      "ĠThey": 4130,
      "aks": 4131,
      "Ø¨Ø¯": 4132,
      "èģĮ": 4133,
      "Ġplace": 4134,
      "Ã°": 4135,
      "à¤Ĥà¤": 4136,
      "vironment": 4137,
      "äº¬": 4138,
      "Al": 4139,
      "ë©´": 4140,
      "web": 4141,
      "ì§Ħ": 4142,
      "èİ·": 4143,
      "ĠØªÙħ": 4144,
      "æ²¡æľī": 4145,
      "Ġreally": 4146,
      "æĹ¶éĹ´": 4147,
      "Ġactiv": 4148,
      "ought": 4149,
      "Ġspe": 4150,
      "è¶ħ": 4151,
      "Ġself": 4152,
      "Ġconf": 4153,
      "ican": 4154,
      "ĠSp": 4155,
      "åĨ³": 4156,
      "ç§°": 4157,
      "çĶŁäº§": 4158,
      "Ġcho": 4159,
      "Ġíķ": 4160,
      "ĠDef": 4161,
      "begin": 4162,
      "íĬ": 4163,
      "ĠBut": 4164,
      "Ġsupport": 4165,
      "plic": 4166,
      "uri": 4167,
      "ots": 4168,
      "çµ": 4169,
      "EF": 4170,
      "ãģĹãģ¦": 4171,
      "load": 4172,
      "DI": 4173,
      "Ġret": 4174,
      "æĺĵ": 4175,
      "ãģĪ": 4176,
      "Ġanswer": 4177,
      "Ø¦ÙĬØ³": 4178,
      "æ¹": 4179,
      "ãģĵãģ¨": 4180,
      "ban": 4181,
      "Ð¾Ñĩ": 4182,
      "é¥": 4183,
      "Ġbest": 4184,
      "ĠÑı": 4185,
      "ĠØ¨Ø¹Ø¯": 4186,
      "è½¬": 4187,
      "ija": 4188,
      "Ġà¤µ": 4189,
      "ÑĬ": 4190,
      "gs": 4191,
      "rix": 4192,
      "Ġmark": 4193,
      "Out": 4194,
      "Ġstill": 4195,
      "ç¤¾ä¼ļ": 4196,
      "Ġlocal": 4197,
      "ways": 4198,
      "ãģ©": 4199,
      "index": 4200,
      "ĠÅ¾": 4201,
      "Ġident": 4202,
      "ati": 4203,
      "Ľ×": 4204,
      "Ġocc": 4205,
      "ole": 4206,
      "ume": 4207,
      "idual": 4208,
      "itor": 4209,
      "roll": 4210,
      "ibility": 4211,
      "Ġëĵ±": 4212,
      "ĠÙħØµ": 4213,
      "Ã±": 4214,
      "ÑīÐµ": 4215,
      "Create": 4216,
      "ĠÐ¿ÑĢÐµ": 4217,
      "nect": 4218,
      "æĬ¤": 4219,
      "Ġjo": 4220,
      "ubl": 4221,
      "íĻĶ": 4222,
      "Ġ×ŀ×": 4223,
      "ĠØ§ÙĦÙħØª": 4224,
      "ĠEn": 4225,
      "Ġmight": 4226,
      "åĦ": 4227,
      "ç«Ļ": 4228,
      "Ġlead": 4229,
      "ha": 4230,
      "ination": 4231,
      "ÑĤÐ°": 4232,
      "aciÃ³n": 4233,
      "Ġfont": 4234,
      "Ġpolit": 4235,
      "Ġenc": 4236,
      "Ġprote": 4237,
      "æ¼Ķ": 4238,
      "ÑĢÐ°Ð½": 4239,
      "Ġrange": 4240,
      "action": 4241,
      "IG": 4242,
      "Ð»Ðµ": 4243,
      "map": 4244,
      "uage": 4245,
      "Ø´Ø±": 4246,
      "ĠTH": 4247,
      "Ĥ°": 4248,
      "ately": 4249,
      "cer": 4250,
      "lection": 4251,
      "ãģ¦ãģĦãĤĭ": 4252,
      "å¿«": 4253,
      "Ġnet": 4254,
      "ĠÙĩÙħ": 4255,
      "elt": 4256,
      "ais": 4257,
      "<=": 4258,
      "Ġê°Ģ": 4259,
      "Ġextract": 4260,
      "Ð»ÑĮ": 4261,
      "ĠPar": 4262,
      "igned": 4263,
      "ĠDo": 4264,
      "dz": 4265,
      "ds": 4266,
      "ÙĤØ±": 4267,
      "åĨį": 4268,
      "ished": 4269,
      "çº¦": 4270,
      "ĠÑĤÐ°Ðº": 4271,
      "ether": 4272,
      "Ġcap": 4273,
      "kit": 4274,
      "Ġtechn": 4275,
      "Ġíķľ": 4276,
      "ired": 4277,
      "ÐºÐ¾Ð²": 4278,
      "ÅĽ": 4279,
      "Ġli": 4280,
      "ĠÑĪ": 4281,
      "è®®": 4282,
      "ĠÐ¿ÑĢÐ¸": 4283,
      "ically": 4284,
      "Ġki": 4285,
      "ĠØ¨ÙĨ": 4286,
      "æŁ¥": 4287,
      "à¹ĥ": 4288,
      "ãĤģ": 4289,
      "imum": 4290,
      "Ġà¤¬": 4291,
      "Ġeas": 4292,
      "abase": 4293,
      "Line": 4294,
      "iddle": 4295,
      "js": 4296,
      "Ġproblem": 4297,
      "ands": 4298,
      "à³Ĩ": 4299,
      "ATE": 4300,
      "ãĤĦ": 4301,
      "áĥĿ": 4302,
      "ources": 4303,
      "ç§¯": 4304,
      "Ġfood": 4305,
      "/>": 4306,
      ">=": 4307,
      "æ¡Ī": 4308,
      "ĠCheck": 4309,
      "her": 4310,
      "We": 4311,
      "....": 4312,
      "åįĩ": 4313,
      "ĠIs": 4314,
      "Ġdev": 4315,
      "Ġturn": 4316,
      "ä¸ĵä¸ļ": 4317,
      "ĠØ¥ÙĨ": 4318,
      "bo": 4319,
      "Ġwidth": 4320,
      "ãĤ¿": 4321,
      "Ġyear": 4322,
      "ç´ł": 4323,
      "éħį": 4324,
      "Ġhal": 4325,
      "åŁŁ": 4326,
      "Ø¯ÙĬØ¯": 4327,
      "ÐµÐ·": 4328,
      "ãĥ¬": 4329,
      "æĴ": 4330,
      "Ġscore": 4331,
      "ìĹħ": 4332,
      "Ġpower": 4333,
      "åŃ¦çĶŁ": 4334,
      "ump": 4335,
      "Ġtable": 4336,
      "Ġles": 4337,
      "ç»ıæµİ": 4338,
      "Ïģ": 4339,
      "è´£": 4340,
      "asc": 4341,
      "ĠØ®ÙĦØ§ÙĦ": 4342,
      "ries": 4343,
      "å·¥ç¨ĭ": 4344,
      "Ġage": 4345,
      "mi": 4346,
      "akan": 4347,
      "Ĺ×": 4348,
      "ponse": 4349,
      "ãģĭãĤī": 4350,
      "ĠØªØ¹": 4351,
      "Ġrest": 4352,
      "Ã¸r": 4353,
      "ãģªãģĦ": 4354,
      "Ġbas": 4355,
      "äºĶ": 4356,
      "Ġsam": 4357,
      "ÙĪØ¶": 4358,
      "IB": 4359,
      "æİ§": 4360,
      "pat": 4361,
      "bol": 4362,
      "ones": 4363,
      "ĠØ§ÙĦÙħÙĨ": 4364,
      "Ġresearch": 4365,
      "side": 4366,
      "æł¹": 4367,
      "Ġstd": 4368,
      "àŃ": 4369,
      "\"\\": 4370,
      "è¯·": 4371,
      "ÙĬÙģ": 4372,
      "FFF": 4373,
      "êµ¬": 4374,
      "ĠÙħØª": 4375,
      "ÑĩÐµÑģÐº": 4376,
      "Info": 4377,
      "ko": 4378,
      "Ġtransform": 4379,
      "hold": 4380,
      "obal": 4381,
      "Ġtoo": 4382,
      "une": 4383,
      "ĠÐĺ": 4384,
      "Ġlength": 4385,
      "Ġaccess": 4386,
      "Ġà¤ķà¥ĩ": 4387,
      "åĪĴ": 4388,
      "ware": 4389,
      "ething": 4390,
      "Key": 4391,
      "ours": 4392,
      "height": 4393,
      "loc": 4394,
      "font": 4395,
      "Ġhygiene": 4396,
      "ä½ķ": 4397,
      "void": 4398,
      "_{": 4399,
      "ä»ĸä»¬": 4400,
      "Ġbo": 4401,
      "Õ¶": 4402,
      "ãģ¾ãģĻ": 4403,
      "åĳ¨": 4404,
      "ÙĪØ£": 4405,
      "result": 4406,
      "Ġborder": 4407,
      "Ġgrow": 4408,
      "ãĤ·": 4409,
      "Ñŀ": 4410,
      "èĳ": 4411,
      "ÙĤÙĦ": 4412,
      "ÙĪØ¹": 4413,
      "èĤ¡": 4414,
      "Ġvarious": 4415,
      "Ġamount": 4416,
      "ope": 4417,
      "erg": 4418,
      "å¾·": 4419,
      "Ð¾ÑģÑģ": 4420,
      "Ð¸ÑĤÐµÐ»ÑĮ": 4421,
      "ëıĻ": 4422,
      "Ġinteger": 4423,
      "Ðĵ": 4424,
      "lu": 4425,
      "ya": 4426,
      "Ġindiv": 4427,
      "ìĻĢ": 4428,
      "è¶Ĭ": 4429,
      "ØŃØ©": 4430,
      "Ġpract": 4431,
      "ëªħ": 4432,
      "isi": 4433,
      "true": 4434,
      "ĠÐ£": 4435,
      "åŃĺ": 4436,
      "Ġprivate": 4437,
      "å¡": 4438,
      "err": 4439,
      "wa": 4440,
      "Ð¶Ð´": 4441,
      "ache": 4442,
      "Or": 4443,
      "################": 4444,
      "TR": 4445,
      "å¤´": 4446,
      "à¤ª": 4447,
      "umn": 4448,
      "Ġlab": 4449,
      "IL": 4450,
      "Ġmar": 4451,
      "Ġchange": 4452,
      "ä¸ĸçķĮ": 4453,
      "ĠÐºÐ¾ÑĤÐ¾ÑĢ": 4454,
      "ĠÚĨ": 4455,
      "åºĹ": 4456,
      "Ġà¤°": 4457,
      "Ø§Ø©": 4458,
      "ĠÓ©": 4459,
      "ĠØ°": 4460,
      "`,": 4461,
      "ÑĢÐ°ÑĤ": 4462,
      "Ø¯Ùħ": 4463,
      ")=": 4464,
      "ression": 4465,
      "uration": 4466,
      "Ġìłķ": 4467,
      "å£«": 4468,
      "Ġuz": 4469,
      "æ¸ħ": 4470,
      "pi": 4471,
      "Ġbreak": 4472,
      "Ġproject": 4473,
      "è¨Ģ": 4474,
      "ÑģÑĤÑĮ": 4475,
      "Ø®Ø±": 4476,
      "orn": 4477,
      "Ġbody": 4478,
      "On": 4479,
      "ÐºÐ¾": 4480,
      "uh": 4481,
      "Ġein": 4482,
      "Ġchang": 4483,
      "ÙĥÙĦ": 4484,
      "sm": 4485,
      "Ġrepresent": 4486,
      "Ġìļ": 4487,
      "Ġmas": 4488,
      "ika": 4489,
      "Ġgroup": 4490,
      "è®º": 4491,
      "åĢ¼": 4492,
      "ĠØ§ÙĦØ·": 4493,
      "Ġsample": 4494,
      "Ġtakes": 4495,
      "Ġbook": 4496,
      "));": 4497,
      "Ġkind": 4498,
      "ici": 4499,
      "App": 4500,
      "{$": 4501,
      "ĠSystem": 4502,
      "Ġclear": 4503,
      "rec": 4504,
      "iving": 4505,
      "su": 4506,
      "ÙĬØ§Øª": 4507,
      "Ġserv": 4508,
      "ides": 4509,
      "Ġha": 4510,
      "icle": 4511,
      "Ġdecision": 4512,
      "Ùİ": 4513,
      "ä¸»è¦ģ": 4514,
      "Ðľ": 4515,
      "rect": 4516,
      "Ġcert": 4517,
      "ĠVal": 4518,
      "è§ģ": 4519,
      "ĠÙģØ±": 4520,
      "ags": 4521,
      "ãĥŃ": 4522,
      "éĩĩ": 4523,
      "Ġexam": 4524,
      "ference": 4525,
      "éĹ®é¢ĺ": 4526,
      "Ġstatement": 4527,
      "Ġview": 4528,
      "Ĩµ": 4529,
      "çĸĹ": 4530,
      "ĠPol": 4531,
      "Ġsure": 4532,
      "ideo": 4533,
      "çĭ": 4534,
      "ither": 4535,
      "ÐµÑģ": 4536,
      "body": 4537,
      "ÐĽ": 4538,
      "code": 4539,
      "è¡Įä¸ļ": 4540,
      "pected": 4541,
      "à³ģ": 4542,
      "ently": 4543,
      "^{": 4544,
      "ĠTrans": 4545,
      "ÈĻi": 4546,
      "æĺ¾": 4547,
      "Ø§ÙĨØª": 4548,
      "onna": 4549,
      "ĠÐĵ": 4550,
      "ĠOr": 4551,
      "vern": 4552,
      "oto": 4553,
      "Ġwr": 4554,
      "Ġà¤ħ": 4555,
      "Ð£": 4556,
      "aÅŁ": 4557,
      "ÙĢ": 4558,
      "Ġincluding": 4559,
      "define": 4560,
      "ineer": 4561,
      "Ġbi": 4562,
      "æĢģ": 4563,
      "à¥Ĥ": 4564,
      "Ġleg": 4565,
      "yd": 4566,
      "IP": 4567,
      "ena": 4568,
      "Ġrequired": 4569,
      "icon": 4570,
      "$(": 4571,
      "che": 4572,
      "ils": 4573,
      "EC": 4574,
      "ä¿¡æģ¯": 4575,
      "Ġcost": 4576,
      "ĠDis": 4577,
      "Ġredu": 4578,
      "ĠÙĦÙħ": 4579,
      "Test": 4580,
      "$.": 4581,
      "Ġmill": 4582,
      "è¯Ĩ": 4583,
      "Ġsever": 4584,
      "ances": 4585,
      "æĸŃ": 4586,
      "rap": 4587,
      "Ġíĺ": 4588,
      "Ġini": 4589,
      ",.": 4590,
      "Ġrecord": 4591,
      "Ð¼Ð°": 4592,
      "æ±Ł": 4593,
      "sum": 4594,
      "ĠSet": 4595,
      "ĠÙĪØ²": 4596,
      "ala": 4597,
      "ploy": 4598,
      "èŀ": 4599,
      "outh": 4600,
      "Ã¨": 4601,
      "ÙģØ±": 4602,
      "ç³»ç»Ł": 4603,
      "å¿ħ": 4604,
      "Ġstand": 4605,
      "*)": 4606,
      "cur": 4607,
      "ropri": 4608,
      "é¢Ħ": 4609,
      "åĵį": 4610,
      "Ġimportant": 4611,
      "Ġrecommend": 4612,
      "');": 4613,
      "aterial": 4614,
      "Ġà¤Ĩ": 4615,
      "åĥ": 4616,
      "Ġbus": 4617,
      "åħ»": 4618,
      "page": 4619,
      "Ġkeep": 4620,
      "Ø·ÙĦ": 4621,
      "ores": 4622,
      "Ð¸Ð»Ð¸": 4623,
      "Ġnecess": 4624,
      "lib": 4625,
      "åıį": 4626,
      "Õ¥": 4627,
      "ĠĠĠĠĠĠĠĠĠĠĠĠĠĠĠĠĠĠĠĠĠĠĠ": 4628,
      "Ġà¤¦": 4629,
      "åİĨ": 4630,
      "Ġhead": 4631,
      "ä¾ĭ": 4632,
      "Ġstore": 4633,
      "Ġsomething": 4634,
      "éħĴ": 4635,
      "à§ĩà¦": 4636,
      "æĪ¿": 4637,
      "As": 4638,
      "Ġà¤ľ": 4639,
      "istr": 4640,
      "message": 4641,
      "Ġland": 4642,
      "Ġza": 4643,
      "ls": 4644,
      "çĶŁæ´»": 4645,
      "background": 4646,
      "ĠThere": 4647,
      "Ä¼": 4648,
      "Ġë¬": 4649,
      "ĠNo": 4650,
      "èĬ±": 4651,
      "Ø´Ø§Ø±": 4652,
      "inally": 4653,
      "corpor": 4654,
      "ingle": 4655,
      "Ø¯Ø©": 4656,
      "length": 4657,
      "ÙĦÙħ": 4658,
      "íķĺëĬĶ": 4659,
      "Ġvoid": 4660,
      "Ġseg": 4661,
      "Õ«": 4662,
      "EX": 4663,
      "åºľ": 4664,
      "çīĩ": 4665,
      "erson": 4666,
      "iti": 4667,
      "èĮĥ": 4668,
      "uint": 4669,
      "è¶³": 4670,
      "Ġmus": 4671,
      "ĠIF": 4672,
      "ÑħÐ¾Ð´": 4673,
      "éĶĢ": 4674,
      "æŀģ": 4675,
      "ho": 4676,
      "Ġchildren": 4677,
      "ailable": 4678,
      "æħ": 4679,
      "çĪ±": 4680,
      "èīº": 4681,
      "ING": 4682,
      "Text": 4683,
      "ØªØµ": 4684,
      "ãĥķ": 4685,
      "æĹħ": 4686,
      "ager": 4687,
      "ÐºÑĤ": 4688,
      "ĉĉĉĉĉ": 4689,
      "Ġfac": 4690,
      "Ġlos": 4691,
      "Ġlim": 4692,
      "è®¾è®¡": 4693,
      "vis": 4694,
      "çĶ»": 4695,
      "Ġheight": 4696,
      "Ad": 4697,
      "ëħĦ": 4698,
      "yt": 4699,
      "ĠCO": 4700,
      "åĨľ": 4701,
      "Ġindividual": 4702,
      "`.": 4703,
      "ĠØ§ÙĦÙĬÙĪÙħ": 4704,
      "ee": 4705,
      "íĬ¸": 4706,
      "Ġgen": 4707,
      "Ø§ÙĦÙħ": 4708,
      "rist": 4709,
      "Of": 4710,
      "aving": 4711,
      "æ¸©": 4712,
      "Ġgreat": 4713,
      "ãĢĤâĢĿ": 4714,
      "Ġmel": 4715,
      "DB": 4716,
      "margin": 4717,
      "éĻ¤": 4718,
      "Ġil": 4719,
      "nav": 4720,
      "Ġside": 4721,
      "ches": 4722,
      "à¥ĩà¤": 4723,
      "Ġlight": 4724,
      "\\<": 4725,
      "ived": 4726,
      "åĪĻ": 4727,
      "(),": 4728,
      "dir": 4729,
      "Ġmodel": 4730,
      "ÙĪØ§": 4731,
      "å®īåħ¨": 4732,
      "important": 4733,
      "ĠÚ©ÛĮ": 4734,
      "ention": 4735,
      "Ġdol": 4736,
      "odes": 4737,
      "///": 4738,
      "åĪĹ": 4739,
      "ê±": 4740,
      "æİĴ": 4741,
      "ission": 4742,
      "Ġfar": 4743,
      "ĠÐ¸Ð½": 4744,
      "ë©°": 4745,
      "oolean": 4746,
      "Ġum": 4747,
      "âĢĿï¼Į": 4748,
      "iness": 4749,
      "à»": 4750,
      "inn": 4751,
      "ĠCol": 4752,
      "Ø§ÙĨÙĬ": 4753,
      "å°Ķ": 4754,
      "Ġhapp": 4755,
      "Ġmean": 4756,
      "}}": 4757,
      "Ġorig": 4758,
      "ĠØ¨ÙĬÙĨ": 4759,
      "éľĢè¦ģ": 4760,
      "otal": 4761,
      "Ġsocial": 4762,
      "ively": 4763,
      "Ag": 4764,
      "ĠØ§ÙĦØ«": 4765,
      "æĻ¯": 4766,
      "ç»´": 4767,
      "lication": 4768,
      "arge": 4769,
      "åĨµ": 4770,
      "akes": 4771,
      "Att": 4772,
      "æµĭ": 4773,
      "ìĤ°": 4774,
      "àª¾": 4775,
      "Ġpath": 4776,
      "oint": 4777,
      "ĠEr": 4778,
      "åŃĹ": 4779,
      "Ġcommon": 4780,
      "ĠUse": 4781,
      "Ġhuman": 4782,
      "ÑĩÐ°": 4783,
      "ĠÙĩØ°Ø§": 4784,
      "ainer": 4785,
      "Ġfore": 4786,
      "Ġmaking": 4787,
      "Ùı": 4788,
      "Ġmodule": 4789,
      "ĠÐ¾Ð´": 4790,
      "Ġcalculate": 4791,
      "di": 4792,
      "param": 4793,
      "çĬ¶": 4794,
      "Ġaf": 4795,
      "Ø³ÙĬ": 4796,
      "engan": 4797,
      "Ġsem": 4798,
      "ĠØ§ÙĦÙĪ": 4799,
      "Ġrespons": 4800,
      "iment": 4801,
      "ĠTe": 4802,
      "Ġĉ": 4803,
      "åģ¥": 4804,
      "border": 4805,
      "ĠÙĪÙħ": 4806,
      "ĠĠĠĠĠĠĠĠĠĠĠĠĠĠĠĠĠĠĠĠĠĠĠĠ": 4807,
      "Ġexist": 4808,
      "si": 4809,
      "Ġappropri": 4810,
      "ìĨĮ": 4811,
      "ä¹ł": 4812,
      "FFFFFFFFFFFFFFFF": 4813,
      "Ġol": 4814,
      "Ġhome": 4815,
      "Ġben": 4816,
      "èĩ´": 4817,
      "ê¹": 4818,
      "éĻį": 4819,
      "íĦ": 4820,
      "ìĺģ": 4821,
      "ä¼Ĺ": 4822,
      "ĠDry": 4823,
      "Ġquestion": 4824,
      "ĠBe": 4825,
      "æĿĳ": 4826,
      "ãĤ³": 4827,
      "ĠØ§ÙĦØ°ÙĬ": 4828,
      "ulation": 4829,
      "ģà¸²à¸": 4830,
      "bre": 4831,
      "Ġaddition": 4832,
      "ĠÑģÐ¿": 4833,
      "ãģ¤": 4834,
      "icense": 4835,
      "Ġdefault": 4836,
      "ception": 4837,
      "gl": 4838,
      "ÛĮØª": 4839,
      "ä»¥åıĬ": 4840,
      "Ġair": 4841,
      "Config": 4842,
      "çª": 4843,
      "post": 4844,
      "ameters": 4845,
      "ÉĻn": 4846,
      "èı": 4847,
      "[\"": 4848,
      "Ġapproach": 4849,
      "Ġcourse": 4850,
      "table": 4851,
      "ÙĪÙĦØ©": 4852,
      "Ġuntil": 4853,
      "ids": 4854,
      "ª×": 4855,
      "State": 4856,
      "æ´»åĬ¨": 4857,
      "error": 4858,
      "aging": 4859,
      "åħļ": 4860,
      "åįı": 4861,
      "æĸĩåĮĸ": 4862,
      "Ġì¶": 4863,
      "æĳ": 4864,
      "åı¯èĥ½": 4865,
      "ĠÑĢ": 4866,
      "Ñĺ": 4867,
      "nie": 4868,
      "Ø·Ø©": 4869,
      "å¤§åŃ¦": 4870,
      "Ġmot": 4871,
      "æļ": 4872,
      "ules": 4873,
      "At": 4874,
      "íĥ": 4875,
      "ç½®": 4876,
      "Ġmag": 4877,
      "Ø§Ø¯Ø©": 4878,
      "à¸¢": 4879,
      "Ġexplaining": 4880,
      "Ġindex": 4881,
      "Ġpod": 4882,
      "åĽŃ": 4883,
      "¤×": 4884,
      "Ð½Ð³": 4885,
      "Ġmatch": 4886,
      "DA": 4887,
      "Ġtog": 4888,
      "agement": 4889,
      "ĠÐ²Ð¾": 4890,
      ">>": 4891,
      "è¯Ħ": 4892,
      "Ġdry": 4893,
      "Ġcome": 4894,
      "parency": 4895,
      "ĠInt": 4896,
      "Ġva": 4897,
      "iod": 4898,
      "Num": 4899,
      "Ġcut": 4900,
      "àµĨ": 4901,
      ":**": 4902,
      "Ø§Ø±Ø¯": 4903,
      "ende": 4904,
      "PS": 4905,
      "pace": 4906,
      "à¨¾": 4907,
      "alam": 4908,
      "Ø±ÙĬÙĤ": 4909,
      "No": 4910,
      "Ġcell": 4911,
      "ique": 4912,
      "ĠĠĠĠĠĠĠĠĊ": 4913,
      "Ðķ": 4914,
      "ìļ©": 4915,
      "ÖĤ": 4916,
      "IF": 4917,
      "ws": 4918,
      "Ġdest": 4919,
      "ãģ§ãģĻ": 4920,
      "ji": 4921,
      "ĠCl": 4922,
      "ä¸Ńå¿ĥ": 4923,
      "Index": 4924,
      "ĠAll": 4925,
      "bottom": 4926,
      "áĥĿáĥ": 4927,
      "Ġneg": 4928,
      "ured": 4929,
      "Ġprovided": 4930,
      "hing": 4931,
      "ros": 4932,
      "èĭ±": 4933,
      "before": 4934,
      "Request": 4935,
      "Ĺà¸µ": 4936,
      "åĲĮæĹ¶": 4937,
      "ury": 4938,
      "ĠÃł": 4939,
      "Ã£": 4940,
      "ÑĢÐ¾": 4941,
      "ording": 4942,
      "imal": 4943,
      "Qu": 4944,
      "ÑĥÐ¿": 4945,
      "kl": 4946,
      "Ġsal": 4947,
      "<-": 4948,
      "çħ§": 4949,
      "US": 4950,
      "Ġ×Ĳ×": 4951,
      "ĠQu": 4952,
      "âĢĭ": 4953,
      "èŀį": 4954,
      "info": 4955,
      "Ø§Ø±Øª": 4956,
      "Ġsat": 4957,
      "aps": 4958,
      "ç¢": 4959,
      "Ġinvol": 4960,
      "ML": 4961,
      "ä¸Ķ": 4962,
      "äº§ä¸ļ": 4963,
      "æ£Ģ": 4964,
      "Ġgonna": 4965,
      "æĬĬ": 4966,
      "pa": 4967,
      "arning": 4968,
      "é©¬": 4969,
      "Ġhtt": 4970,
      "ÙĬØ±Ø©": 4971,
      "ãĥĹ": 4972,
      "Û°": 4973,
      "ĠÐºÐ¾Ð¼": 4974,
      "User": 4975,
      "åĪĿ": 4976,
      "ÑĪÐµ": 4977,
      "Ġfeel": 4978,
      "System": 4979,
      "ĠPer": 4980,
      "ĠSome": 4981,
      "Ġaction": 4982,
      "DF": 4983,
      "à¸ļ": 4984,
      "conom": 4985,
      "åĽ½éĻħ": 4986,
      "å°±æĺ¯": 4987,
      "Ġìĸ": 4988,
      "ining": 4989,
      "ĠìŀĪëĭ¤": 4990,
      "à¸°": 4991,
      "Ġtogether": 4992,
      "rel": 4993,
      "Ġresults": 4994,
      "æĪĲä¸º": 4995,
      "Ġsince": 4996,
      "Ġevent": 4997,
      "db": 4998,
      "ĠìĨ": 4999,
      "Ġwrit": 5000,
      "ĠMar": 5001,
      "dev": 5002,
      "Ø±Ø§Ø¡": 5003,
      "New": 5004,
      ".âĢĿ": 5005,
      "irm": 5006,
      "open": 5007,
      "Ġcult": 5008,
      "Ġê·¸": 5009,
      "Ã¡r": 5010,
      "Ġappropriate": 5011,
      "Ġopt": 5012,
[...]
