{
    "<|pad|>": 0,
    ">>ABSTRACT<<": 1,
    ">>INTRODUCTION<<": 2,
    ">>SUMMARY<<": 3,
    ">>COMMENT<<": 4,
    ">>ANSWER<<": 5,
    ">>QUESTION<<": 6,
    ">>DOMAIN<<": 7,
    ">>PREFIX<<": 8,
    ">>SUFFIX<<": 9,
    ">>MIDDLE<<": 10,
    "<|end_of_text|>": 11,
    "<|finetune_right_pad_id|>": 12,
    "<|start_header_id|>": 13,
    "<|end_header_id|>": 14,
    "<|eom_id|>": 15,
    "<|eot_id|>": 16,
    "<|begin_of_text|>": 17,
    ">>TITLE<<": 18,
    "<tool_response>": 19,
    "</tool_response>": 20,
    "<tool_call>": 21,
    "</tool_call>": 22,
    "<schema>": 23,
    "</schema>": 24,
    "<scratch_pad>": 25,
    "</scratch_pad>": 26,
    "<thinking>": 27,
    "</thinking>": 28,
    "<explanation>": 29,
    "</explanation>": 30,
    "<file_sep>": 31,
    "<repo_name>": 32,
    "\\blindtext": 33,
    "\\newpage": 34,
    "\\boxed": 35,
    "\\framebox": 36,
    "\\fbox": 37,
    "\\tag": 38,
    "\\nonumber": 39,
    "\\item": 40,
    "\\centering": 41,
    "\\caption": 42,
    "\\includegraphics": 43,
    "\\label": 44,
    "\\multicolumn": 45,
    "\\cline": 46,
    "\\hline": 47,
    "\\end": 48,
    "\\begin": 49,
    "\\tableofcontents": 50,
    "\\maketitle": 51,
    "\\date": 52,
    "\\author": 53,
    "\\title": 54,
    "\\chapter": 55,
    "\\subsubsection": 56,
    "\\subsection": 57,
    "\\section": 58,
    "\\noindent": 59,
    "\\newline": 60,
    "\\par": 61,
    "\\ddot": 62,
    "\\dot": 63,
    "\\bar": 64,
    "\\iff": 65,
    "\\implies": 66,
    "\\neg": 67,
    "\\lor": 68,
    "\\land": 69,
    "\\qquad": 70,
    "\\quad": 71,
    "\\arctan": 72,
    "\\arccos": 73,
    "\\arcsin": 74,
    "\\cot": 75,
    "\\sec": 76,
    "\\csc": 77,
    "\\tan": 78,
    "\\cos": 79,
    "\\sin": 80,
    "\\widetilde": 81,
    "\\widehat": 82,
    "\\complement": 83,
    "\\varnothing": 84,
    "\\tilde": 85,
    "\\hat": 86,
    "\\vec": 87,
    "\\mathfrak": 88,
    "\\mathcal": 89,
    "\\mathbb": 90,
    "\\emptyset": 91,
    "\\bot": 92,
    "\\aleph": 93,
    "\\Re": 94,
    "\\Im": 95,
    "\\ell": 96,
    "\\hbar": 97,
    "\\exists": 98,
    "\\forall": 99,
    "\\partial": 100,
    "\\nabla": 101,
    "\\infty": 102,
    "\\binom": 103,
    "\\overline": 104,
    "\\sqrt": 105,
    "\\tfrac": 106,
    "\\dfrac": 107,
    "\\frac": 108,
    "\\textsc": 109,
    "\\textsf": 110,
    "\\texttt": 111,
    "\\emph": 112,
    "\\underline": 113,
    "\\textit": 114,
    "\\textbf": 115,
    "\\bigoplus": 116,
    "\\bigcap": 117,
    "\\bigcup": 118,
    "\\prod": 119,
    "\\sum": 120,
    "\\oint": 121,
    "\\iiint": 122,
    "\\iint": 123,
    "\\int": 124,
    "\\right": 125,
    "\\left": 126,
    "\\Bigr": 127,
    "\\Bigl": 128,
    "\\bigr": 129,
    "\\bigl": 130,
    ">>UNUSED_119<<": 131,
    ">>UNUSED_120<<": 132,
    "\\rceil": 133,
    "\\lceil": 134,
    "\\rfloor": 135,
    "\\lfloor": 136,
    "\\rangle": 137,
    "\\langle": 138,
    "\\overleftarrow": 139,
    "\\overleftrightarrow": 140,
    "\\overrightarrow": 141,
    "\\Longleftrightarrow": 142,
    "\\longleftrightarrow": 143,
    "\\longrightarrow": 144,
    "\\longleftarrow": 145,
    "\\Longrightarrow": 146,
    "\\Longleftarrow": 147,
    "\\gets": 148,
    "\\to": 149,
    "\\mapsto": 150,
    "\\Updownarrow": 151,
    "\\Downarrow": 152,
    "\\Uparrow": 153,
    "\\updownarrow": 154,
    "\\downarrow": 155,
    "\\uparrow": 156,
    "\\Leftrightarrow": 157,
    "\\Rightarrow": 158,
    "\\Leftarrow": 159,
    "\\leftrightarrow": 160,
    "\\rightarrow": 161,
    "\\leftarrow": 162,
    "\\perp": 163,
    "\\propto": 164,
    "\\ni": 165,
    "\\notin": 166,
    "\\in": 167,
    "\\supseteq": 168,
    "\\supset": 169,
    "\\sqsupseteq": 170,
    "\\sqsubseteq": 171,
    "\\subseteq": 172,
    "\\subset": 173,
    "\\cong": 174,
    "\\approx": 175,
    "\\simeq": 176,
    "\\sim": 177,
    "\\equiv": 178,
    "\\neq": 179,
    "\\geq": 180,
    "\\leq": 181,
    "\\oslash": 182,
    "\\otimes": 183,
    "\\ominus": 184,
    "\\oplus": 185,
    "\\wedge": 186,
    "\\vee": 187,
    "\\sqcup": 188,
    "\\sqcap": 189,
    "\\uplus": 190,
    "\\cup": 191,
    "\\cap": 192,
    "\\cdot": 193,
    "\\bullet": 194,
    "\\circ": 195,
    "\\star": 196,
    "\\ast": 197,
    "\\div": 198,
    "\\times": 199,
    "\\mp": 200,
    "\\pm": 201,
    "\\omega": 202,
    "\\psi": 203,
    "\\chi": 204,
    "\\varphi": 205,
    "\\varsigma": 206,
    "\\phi": 207,
    "\\upsilon": 208,
    "\\tau": 209,
    "\\sigma": 210,
    "\\rho": 211,
    "\\pi": 212,
    "\\xi": 213,
    "\\nu": 214,
    "\\mu": 215,
    "\\lambda": 216,
    "\\kappa": 217,
    "\\iota": 218,
    "\\theta": 219,
    "\\eta": 220,
    "\\zeta": 221,
    "\\epsilon": 222,
    "\\delta": 223,
    "\\gamma": 224,
    "\\beta": 225,
    "\\alpha": 226,
    "<|im_start|>": 227,
    "<|im_end|>": 228,
    "<|system|>": 229,
    ">>UNUSED_218<<": 230,
    ">>UNUSED_219<<": 231,
    ">>UNUSED_220<<": 232,
    ">>UNUSED_221<<": 233,
    ">>UNUSED_222<<": 234,
    ">>UNUSED_223<<": 235,
    ">>UNUSED_224<<": 236,
    ">>UNUSED_225<<": 237,
    ">>UNUSED_226<<": 238,
    ">>UNUSED_227<<": 239,
    ">>UNUSED_228<<": 240,
    ">>UNUSED_229<<": 241,
    ">>UNUSED_230<<": 242,
    ">>UNUSED_231<<": 243,
    ">>UNUSED_232<<": 244,
    ">>UNUSED_233<<": 245,
    ">>UNUSED_234<<": 246,
    ">>UNUSED_235<<": 247,
    ">>UNUSED_236<<": 248,
    ">>UNUSED_237<<": 249,
    ">>UNUSED_238<<": 250,
    ">>UNUSED_239<<": 251,
    ">>UNUSED_240<<": 252,
    ">>UNUSED_241<<": 253,
    ">>UNUSED_242<<": 254,
    ">>UNUSED_243<<": 255,
    ">>UNUSED_244<<": 256,
    ">>UNUSED_245<<": 257,
    ">>UNUSED_246<<": 258,
    ">>UNUSED_247<<": 259,
    ">>UNUSED_248<<": 260,
    ">>UNUSED_249<<": 261,
    ">>UNUSED_250<<": 262,
    ">>UNUSED_251<<": 263,
    ">>UNUSED_252<<": 264,
    ">>UNUSED_253<<": 265,
    ">>UNUSED_254<<": 266,
    ">>UNUSED_255<<": 267,
    ">>UNUSED_256<<": 268,
    ">>UNUSED_257<<": 269,
    ">>UNUSED_258<<": 270,
    ">>UNUSED_259<<": 271,
    ">>UNUSED_260<<": 272,
    ">>UNUSED_261<<": 273,
    ">>UNUSED_262<<": 274,
    ">>UNUSED_263<<": 275,
    ">>UNUSED_264<<": 276,
    ">>UNUSED_265<<": 277,
    ">>UNUSED_266<<": 278,
    ">>UNUSED_267<<": 279,
    ">>UNUSED_268<<": 280,
    ">>UNUSED_269<<": 281,
    ">>UNUSED_270<<": 282,
    ">>UNUSED_271<<": 283,
    ">>UNUSED_272<<": 284,
    ">>UNUSED_273<<": 285,
    ">>UNUSED_274<<": 286,
    ">>UNUSED_275<<": 287,
    ">>UNUSED_276<<": 288,
    ">>UNUSED_277<<": 289,
    ">>UNUSED_278<<": 290,
    ">>UNUSED_279<<": 291,
    ">>UNUSED_280<<": 292,
    ">>UNUSED_281<<": 293,
    ">>UNUSED_282<<": 294,
    ">>UNUSED_283<<": 295,
    ">>UNUSED_284<<": 296,
    ">>UNUSED_285<<": 297,
    ">>UNUSED_286<<": 298,
    ">>UNUSED_287<<": 299,
    ">>UNUSED_288<<": 300,
    ">>UNUSED_289<<": 301,
    ">>UNUSED_290<<": 302,
    ">>UNUSED_291<<": 303,
    ">>UNUSED_292<<": 304,
    ">>UNUSED_293<<": 305,
    ">>UNUSED_294<<": 306,
    ">>UNUSED_295<<": 307,
    ">>UNUSED_296<<": 308,
    ">>UNUSED_297<<": 309,
    ">>UNUSED_298<<": 310,
    ">>UNUSED_299<<": 311,
    ">>UNUSED_300<<": 312,
    ">>UNUSED_301<<": 313,
    ">>UNUSED_302<<": 314,
    ">>UNUSED_303<<": 315,
    ">>UNUSED_304<<": 316,
    ">>UNUSED_305<<": 317,
    ">>UNUSED_306<<": 318,
    ">>UNUSED_307<<": 319,
    ">>UNUSED_308<<": 320,
    ">>UNUSED_309<<": 321,
    ">>UNUSED_310<<": 322,
    ">>UNUSED_311<<": 323,
    ">>UNUSED_312<<": 324,
    ">>UNUSED_313<<": 325,
    ">>UNUSED_314<<": 326,
    ">>UNUSED_315<<": 327,
    ">>UNUSED_316<<": 328,
    ">>UNUSED_317<<": 329,
    ">>UNUSED_318<<": 330,
    ">>UNUSED_319<<": 331,
    ">>UNUSED_320<<": 332,
    ">>UNUSED_321<<": 333,
    ">>UNUSED_322<<": 334,
    ">>UNUSED_323<<": 335,
    ">>UNUSED_324<<": 336,
    ">>UNUSED_325<<": 337,
    ">>UNUSED_326<<": 338,
    ">>UNUSED_327<<": 339,
    ">>UNUSED_328<<": 340,
    ">>UNUSED_329<<": 341,
    ">>UNUSED_330<<": 342,
    ">>UNUSED_331<<": 343,
    ">>UNUSED_332<<": 344,
    ">>UNUSED_333<<": 345,
    ">>UNUSED_334<<": 346,
    ">>UNUSED_335<<": 347,
    ">>UNUSED_336<<": 348,
    ">>UNUSED_337<<": 349,
    ">>UNUSED_338<<": 350,
    ">>UNUSED_339<<": 351,
    ">>UNUSED_340<<": 352,
    ">>UNUSED_341<<": 353,
    ">>UNUSED_342<<": 354,
    ">>UNUSED_343<<": 355,
    ">>UNUSED_344<<": 356,
    ">>UNUSED_345<<": 357,
    ">>UNUSED_346<<": 358,
    ">>UNUSED_347<<": 359,
    ">>UNUSED_348<<": 360,
    ">>UNUSED_349<<": 361,
    ">>UNUSED_350<<": 362,
    ">>UNUSED_351<<": 363,
    ">>UNUSED_352<<": 364,
    ">>UNUSED_353<<": 365,
    ">>UNUSED_354<<": 366,
    ">>UNUSED_355<<": 367,
    ">>UNUSED_356<<": 368,
    ">>UNUSED_357<<": 369,
    ">>UNUSED_358<<": 370,
    ">>UNUSED_359<<": 371,
    ">>UNUSED_360<<": 372,
    ">>UNUSED_361<<": 373,
    ">>UNUSED_362<<": 374,
    ">>UNUSED_363<<": 375,
    ">>UNUSED_364<<": 376,
    ">>UNUSED_365<<": 377,
    ">>UNUSED_366<<": 378,
    ">>UNUSED_367<<": 379,
    ">>UNUSED_368<<": 380,
    ">>UNUSED_369<<": 381,
    ">>UNUSED_370<<": 382,
    ">>UNUSED_371<<": 383,
    ">>UNUSED_372<<": 384,
    ">>UNUSED_373<<": 385,
    ">>UNUSED_374<<": 386,
    ">>UNUSED_375<<": 387,
    ">>UNUSED_376<<": 388,
    ">>UNUSED_377<<": 389,
    ">>UNUSED_378<<": 390,
    ">>UNUSED_379<<": 391,
    ">>UNUSED_380<<": 392,
    ">>UNUSED_381<<": 393,
    ">>UNUSED_382<<": 394,
    ">>UNUSED_383<<": 395,
    ">>UNUSED_384<<": 396,
    ">>UNUSED_385<<": 397,
    ">>UNUSED_386<<": 398,
    ">>UNUSED_387<<": 399,
    ">>UNUSED_388<<": 400,
    ">>UNUSED_389<<": 401,
    ">>UNUSED_390<<": 402,
    ">>UNUSED_391<<": 403,
    ">>UNUSED_392<<": 404,
    ">>UNUSED_393<<": 405,
    ">>UNUSED_394<<": 406,
    ">>UNUSED_395<<": 407,
    ">>UNUSED_396<<": 408,
    ">>UNUSED_397<<": 409,
    ">>UNUSED_398<<": 410,
    ">>UNUSED_399<<": 411,
    ">>UNUSED_400<<": 412,
    ">>UNUSED_401<<": 413,
    ">>UNUSED_402<<": 414,
    ">>UNUSED_403<<": 415,
    ">>UNUSED_404<<": 416,
    ">>UNUSED_405<<": 417,
    ">>UNUSED_406<<": 418,
    ">>UNUSED_407<<": 419,
    ">>UNUSED_408<<": 420,
    ">>UNUSED_409<<": 421,
    ">>UNUSED_410<<": 422,
    ">>UNUSED_411<<": 423,
    ">>UNUSED_412<<": 424,
    ">>UNUSED_413<<": 425,
    ">>UNUSED_414<<": 426,
    ">>UNUSED_415<<": 427,
    ">>UNUSED_416<<": 428,
    ">>UNUSED_417<<": 429,
    ">>UNUSED_418<<": 430,
    ">>UNUSED_419<<": 431,
    ">>UNUSED_420<<": 432,
    ">>UNUSED_421<<": 433,
    ">>UNUSED_422<<": 434,
    ">>UNUSED_423<<": 435,
    ">>UNUSED_424<<": 436,
    ">>UNUSED_425<<": 437,
    ">>UNUSED_426<<": 438,
    ">>UNUSED_427<<": 439,
    ">>UNUSED_428<<": 440,
    ">>UNUSED_429<<": 441,
    ">>UNUSED_430<<": 442,
    ">>UNUSED_431<<": 443,
    ">>UNUSED_432<<": 444,
    ">>UNUSED_433<<": 445,
    ">>UNUSED_434<<": 446,
    ">>UNUSED_435<<": 447,
    ">>UNUSED_436<<": 448,
    ">>UNUSED_437<<": 449,
    ">>UNUSED_438<<": 450,
    ">>UNUSED_439<<": 451,
    ">>UNUSED_440<<": 452,
    ">>UNUSED_441<<": 453,
    ">>UNUSED_442<<": 454,
    ">>UNUSED_443<<": 455,
    ">>UNUSED_444<<": 456,
    ">>UNUSED_445<<": 457,
    ">>UNUSED_446<<": 458,
    ">>UNUSED_447<<": 459,
    ">>UNUSED_448<<": 460,
    ">>UNUSED_449<<": 461,
    ">>UNUSED_450<<": 462,
    ">>UNUSED_451<<": 463,
    ">>UNUSED_452<<": 464,
    ">>UNUSED_453<<": 465,
    ">>UNUSED_454<<": 466,
    ">>UNUSED_455<<": 467,
    ">>UNUSED_456<<": 468,
    ">>UNUSED_457<<": 469,
    ">>UNUSED_458<<": 470,
    ">>UNUSED_459<<": 471,
    ">>UNUSED_460<<": 472,
    ">>UNUSED_461<<": 473,
    ">>UNUSED_462<<": 474,
    ">>UNUSED_463<<": 475,
    ">>UNUSED_464<<": 476,
    ">>UNUSED_465<<": 477,
    ">>UNUSED_466<<": 478,
    ">>UNUSED_467<<": 479,
    ">>UNUSED_468<<": 480,
    ">>UNUSED_469<<": 481,
    ">>UNUSED_470<<": 482,
    ">>UNUSED_471<<": 483,
    ">>UNUSED_472<<": 484,
    ">>UNUSED_473<<": 485,
    ">>UNUSED_474<<": 486,
    ">>UNUSED_475<<": 487,
    ">>UNUSED_476<<": 488,
    ">>UNUSED_477<<": 489,
    ">>UNUSED_478<<": 490,
    ">>UNUSED_479<<": 491,
    ">>UNUSED_480<<": 492,
    ">>UNUSED_481<<": 493,
    ">>UNUSED_482<<": 494,
    ">>UNUSED_483<<": 495,
    ">>UNUSED_484<<": 496,
    ">>UNUSED_485<<": 497,
    ">>UNUSED_486<<": 498,
    ">>UNUSED_487<<": 499,
    ">>UNUSED_488<<": 500,
    ">>UNUSED_489<<": 501,
    ">>UNUSED_490<<": 502,
    ">>UNUSED_491<<": 503,
    ">>UNUSED_492<<": 504,
    ">>UNUSED_493<<": 505,
    ">>UNUSED_494<<": 506,
    ">>UNUSED_495<<": 507,
    ">>UNUSED_496<<": 508,
    ">>UNUSED_497<<": 509,
    ">>UNUSED_498<<": 510,
    ">>UNUSED_499<<": 511,
    ">>UNUSED_500<<": 512,
    ">>UNUSED_501<<": 513,
    ">>UNUSED_502<<": 514,
    ">>UNUSED_503<<": 515,
    ">>UNUSED_504<<": 516,
    ">>UNUSED_505<<": 517,
    ">>UNUSED_506<<": 518,
    ">>UNUSED_507<<": 519,
    ">>UNUSED_508<<": 520,
    ">>UNUSED_509<<": 521,
    ">>UNUSED_510<<": 522,
    ">>UNUSED_511<<": 523,
    "!": 524,
    "\"": 525,
    "#": 526,
    "$": 527,
    "%": 528,
    "&": 529,
    "'": 530,
    "(": 531,
    ")": 532,
    "*": 533,
    "+": 534,
    ",": 535,
    "-": 536,
    ".": 537,
    "/": 538,
    "0": 539,
    "1": 540,
    "2": 541,
    "3": 542,
    "4": 543,
    "5": 544,
    "6": 545,
    "7": 546,
    "8": 547,
    "9": 548,
    ":": 549,
    ";": 550,
    "<": 551,
    "=": 552,
    ">": 553,
    "?": 554,
    "@": 555,
    "A": 556,
    "B": 557,
    "C": 558,
    "D": 559,
    "E": 560,
    "F": 561,
    "G": 562,
    "H": 563,
    "I": 564,
    "J": 565,
    "K": 566,
    "L": 567,
    "M": 568,
    "N": 569,
    "O": 570,
    "P": 571,
    "Q": 572,
    "R": 573,
    "S": 574,
    "T": 575,
    "U": 576,
    "V": 577,
    "W": 578,
    "X": 579,
    "Y": 580,
    "Z": 581,
    "[": 582,
    "\\": 583,
    "]": 584,
    "^": 585,
    "_": 586,
    "`": 587,
    "a": 588,
    "b": 589,
    "c": 590,
    "d": 591,
    "e": 592,
    "f": 593,
    "g": 594,
    "h": 595,
    "i": 596,
    "j": 597,
    "k": 598,
    "l": 599,
    "m": 600,
    "n": 601,
    "o": 602,
    "p": 603,
    "q": 604,
    "r": 605,
    "s": 606,
    "t": 607,
    "u": 608,
    "v": 609,
    "w": 610,
    "x": 611,
    "y": 612,
    "z": 613,
    "{": 614,
    "|": 615,
    "}": 616,
    "~": 617,
    "\u00a1": 618,
    "\u00a2": 619,
    "\u00a3": 620,
    "\u00a4": 621,
    "\u00a5": 622,
    "\u00a6": 623,
    "\u00a7": 624,
    "\u00a8": 625,
    "\u00a9": 626,
    "\u00aa": 627,
    "\u00ab": 628,
    "\u00ac": 629,
    "\u00ae": 630,
    "\u00af": 631,
    "\u00b0": 632,
    "\u00b1": 633,
    "\u00b2": 634,
    "\u00b3": 635,
    "\u00b4": 636,
    "\u00b5": 637,
    "\u00b6": 638,
    "\u00b7": 639,
    "\u00b8": 640,
    "\u00b9": 641,
    "\u00ba": 642,
    "\u00bb": 643,
    "\u00bc": 644,
    "\u00bd": 645,
    "\u00be": 646,
    "\u00bf": 647,
    "\u00c2": 648,
    "\u00c3": 649,
    "\u00c4": 650,
    "\u00c5": 651,
    "\u00c6": 652,
    "\u00c7": 653,
    "\u00c8": 654,
    "\u00c9": 655,
    "\u00ca": 656,
    "\u00cb": 657,
    "\u00cc": 658,
    "\u00cd": 659,
    "\u00ce": 660,
    "\u00cf": 661,
    "\u00d0": 662,
    "\u00d1": 663,
    "\u00d2": 664,
    "\u00d3": 665,
    "\u00d4": 666,
    "\u00d5": 667,
    "\u00d6": 668,
    "\u00d7": 669,
    "\u00d8": 670,
    "\u00d9": 671,
    "\u00da": 672,
    "\u00db": 673,
    "\u00dc": 674,
    "\u00dd": 675,
    "\u00de": 676,
    "\u00df": 677,
    "\u00e0": 678,
    "\u00e1": 679,
    "\u00e2": 680,
    "\u00e3": 681,
    "\u00e4": 682,
    "\u00e5": 683,
    "\u00e6": 684,
    "\u00e7": 685,
    "\u00e8": 686,
    "\u00e9": 687,
    "\u00ea": 688,
    "\u00eb": 689,
    "\u00ec": 690,
    "\u00ed": 691,
    "\u00ee": 692,
    "\u00ef": 693,
    "\u00f0": 694,
    "\u00f1": 695,
    "\u00f2": 696,
    "\u00f3": 697,
    "\u00f4": 698,
    "\u0100": 699,
    "\u0101": 700,
    "\u0102": 701,
    "\u0103": 702,
    "\u0104": 703,
    "\u0105": 704,
    "\u0106": 705,
    "\u0107": 706,
    "\u0108": 707,
    "\u0109": 708,
    "\u010a": 709,
    "\u010b": 710,
    "\u010c": 711,
    "\u010d": 712,
    "\u010e": 713,
    "\u010f": 714,
    "\u0110": 715,
    "\u0111": 716,
    "\u0112": 717,
    "\u0113": 718,
    "\u0114": 719,
    "\u0115": 720,
    "\u0116": 721,
    "\u0117": 722,
    "\u0118": 723,
    "\u0119": 724,
    "\u011a": 725,
    "\u011b": 726,
    "\u011c": 727,
    "\u011d": 728,
    "\u011e": 729,
    "\u011f": 730,
    "\u0120": 731,
    "\u0121": 732,
    "\u0122": 733,
    "\u0123": 734,
    "\u0124": 735,
    "\u0125": 736,
    "\u0126": 737,
    "\u0127": 738,
    "\u0128": 739,
    "\u0129": 740,
    "\u012a": 741,
    "\u012b": 742,
    "\u012c": 743,
    "\u012d": 744,
    "\u012e": 745,
    "\u012f": 746,
    "\u0130": 747,
    "\u0131": 748,
    "\u0132": 749,
    "\u0133": 750,
    "\u0134": 751,
    "\u0135": 752,
    "\u0136": 753,
    "\u0137": 754,
    "\u0138": 755,
    "\u0139": 756,
    "\u013a": 757,
    "\u013b": 758,
    "\u013c": 759,
    "\u013d": 760,
    "\u013e": 761,
    "\u013f": 762,
    "\u0140": 763,
    "\u0141": 764,
    "\u0142": 765,
    "\u0143": 766,
    "\u0120\u0120": 767,
    "\u0120\u0120\u0120\u0120": 768,
    "\u0120t": 769,
    "in": 770,
    "er": 771,
    "\u0120a": 772,
    "\u00d8\u00a7": 773,
    "en": 774,
    "on": 775,
    "re": 776,
    "\u0120s": 777,
    "he": 778,
    "at": 779,
    "\u00d9\u0126": 780,
    "an": 781,
    "or": 782,
    "es": 783,
    "\u0120c": 784,
    "\u0120\u00d0": 785,
    "\u0120\u00d8": 786,
    "\u0120p": 787,
    "it": 788,
    "\u0120d": 789,
    "\u0120the": 790,
    "al": 791,
    "is": 792,
    "ar": 793,
    "le": 794,
    "\u0120\u0120\u0120\u0120\u0120\u0120\u0120\u0120": 795,
    "\u0120o": 796,
    "\u0120f": 797,
    "\u00d0\u00be": 798,
    "\u00d9\u0127": 799,
    "\u0120m": 800,
    "\u0120w": 801,
    "ing": 802,
    "\u0120b": 803,
    "\u00d0\u00b0": 804,
    "\u00d9\u012a": 805,
    "\u00e3\u0123": 806,
    "\u00d9\u012c": 807,
    "\u00d8\u00b1": 808,
    "ou": 809,
    "\u00d9\u0128": 810,
    "\u00d0\u00b5": 811,
    "ed": 812,
    "as": 813,
    "\u00ef\u00bc": 814,
    "\u00d8\u00a7\u00d9\u0126": 815,
    "ion": 816,
    "\u00e4\u00b8": 817,
    "\u00e0\u00a4": 818,
    "nd": 819,
    "\u00d0\u00b8": 820,
    "\u0120in": 821,
    "ic": 822,
    "ent": 823,
    "et": 824,
    "\u00e3\u0122": 825,
    "ro": 826,
    "\u00d1\u0124": 827,
    "\u0120n": 828,
    "\u00d8\u00a7\u00d8": 829,
    "\u0120\u0120\u0120": 830,
    "\u0120to": 831,
    "el": 832,
    "\u00ef\u00bc\u012e": 833,
    "\u0120\u00d8\u00a7\u00d9\u0126": 834,
    "st": 835,
    "\u00d0\u00bd": 836,
    "\u0120h": 837,
    "\u00d1\u0122": 838,
    "ct": 839,
    "\u0120of": 840,
    "\u00d1\u0123": 841,
    "\u0120and": 842,
    "\u0120l": 843,
    "il": 844,
    "\u0120th": 845,
    "am": 846,
    "om": 847,
    "--": 848,
    "\u00d0\u00be\u00d0": 849,
    "\u00d8\u00aa": 850,
    "\u0120e": 851,
    "\u0120re": 852,
    "\u00d9\u0129": 853,
    "id": 854,
    "ut": 855,
    "\u00d8\u00af": 856,
    "\u00e2\u0122": 857,
    "im": 858,
    "\u0120v": 859,
    "\u00e0\u00b8": 860,
    "ol": 861,
    "\u00e7\u013c": 862,
    "\u00e7\u013c\u0126": 863,
    "\u010a\u010a": 864,
    "un": 865,
    "us": 866,
    "\u00db\u012e": 867,
    "\u0120g": 868,
    "ur": 869,
    "ad": 870,
    "\u00e4\u00ba": 871,
    "\u00e3\u0124": 872,
    "ac": 873,
    "\u00d8\u00a9": 874,
    "\u0120T": 875,
    "\u0120\u00ec": 876,
    "ot": 877,
    "ig": 878,
    "em": 879,
    "\u00d0\u00bb": 880,
    "\u00d9\u0123": 881,
    "\u0120S": 882,
    "\u0120I": 883,
    "ul": 884,
    "\u0120k": 885,
    "if": 886,
    "\u00e3\u0125": 887,
    "\u00e3\u0122\u0124": 888,
    "\u00e6\u013e": 889,
    "ow": 890,
    "\u0120\u00d9\u0127": 891,
    "iv": 892,
    "\u0120y": 893,
    "\u0120A": 894,
    "\u0120st": 895,
    "se": 896,
    "od": 897,
    "\u00e5\u0131": 898,
    "\u00d9\u0124": 899,
    "\u0120is": 900,
    "\u0120C": 901,
    "ir": 902,
    "\u0120de": 903,
    "ch": 904,
    "\u00e5\u0127": 905,
    "\u0109\u0109": 906,
    "ag": 907,
    "\u00d8\u00a8": 908,
    "um": 909,
    "ation": 910,
    "\u00e3\u0122\u0123": 911,
    "\u00d8\u00b9": 912,
    "\u00d8\u00b3": 913,
    "\u0120for": 914,
    "\u00e4\u00bb": 915,
    "ra": 916,
    "\u00d1\u0125": 917,
    "\u00d0\u00ba": 918,
    "\u0120\u00d8\u00a8": 919,
    "\u0120\u00d9\u012a": 920,
    "ate": 921,
    "\u00e0\u00a6": 922,
    "os": 923,
    "qu": 924,
    "ak": 925,
    "\u0120P": 926,
    "th": 927,
    "\u00e5\u00a4": 928,
    "ab": 929,
    "est": 930,
    "\u0120on": 931,
    "ly": 932,
    "\u0120con": 933,
    "ers": 934,
    "\u0120be": 935,
    "\u0120\u0120\u0120\u0120\u0120\u0120\u0120\u0120\u0120\u0120\u0120\u0120\u0120\u0120\u0120\u0120": 936,
    "ce": 937,
    "ay": 938,
    "end": 939,
    "\u00e0\u00a5": 940,
    "\u00e5\u00ae": 941,
    "\u0120\u00e0\u00a4": 942,
    "\u0120M": 943,
    "ist": 944,
    "\u00d9\u0125": 945,
    "----": 946,
    "ri": 947,
    "pe": 948,
    "\u00e5\u012a": 949,
    "\u0120D": 950,
    "\u0120\u00eb": 951,
    "\u0120\u0120\u0120\u0120\u0120\u0120\u0120": 952,
    "\u00ec\u013f": 953,
    "\u00d0\u00b2": 954,
    "\u0120pro": 955,
    "and": 956,
    "ter": 957,
    "\u0120you": 958,
    "\u00d0\u00b4": 959,
    "te": 960,
    "\u00e7\u0136": 961,
    "\u00d1\u012d": 962,
    "av": 963,
    "\u010d\u010a": 964,
    "\u00e4\u00bd": 965,
    "\u0120\u00d8\u00a7\u00d9\u0126\u00d8": 966,
    "\u00e0\u00b4": 967,
    "\u0120that": 968,
    "\u0120B": 969,
    "\u00d0\u00bc": 970,
    "\u00e5\u0132": 971,
    "\u00d1\u0131": 972,
    "ver": 973,
    "\u00e5\u013e": 974,
    "ith": 975,
    "\u00e8\u00bf": 976,
    "\u0120wh": 977,
    "\u00d8\u00a7\u00d9\u0128": 978,
    "\u0120it": 979,
    "**": 980,
    "res": 981,
    "\u0120an": 982,
    "\u0120\u00d0\u00bf": 983,
    "pt": 984,
    "\u0120r": 985,
    "\u00e1\u0125": 986,
    "\u0120al": 987,
    "ess": 988,
    "\u0120j": 989,
    "\u00e5\u012c": 990,
    "\u0120E": 991,
    "ction": 992,
    "ie": 993,
    "ere": 994,
    "ht": 995,
    "pp": 996,
    "\u0120R": 997,
    "oc": 998,
    "ik": 999,
    "\u0120F": 1000,
    "\u0120ex": 1001,
    "\u0120as": 1002,
    "\u00e6\u013a": 1003,
    "\u00e5\u013d": 1004,
    "\u0120se": 1005,
    "\u00d8\u012e": 1006,
    "==": 1007,
    ");": 1008,
    "\u00d8\u00a7\u00d8\u00b1": 1009,
    "\u0120H": 1010,
    "op": 1011,
    "\u00e7\u00bb": 1012,
    "\u00d1\u0123\u00d1\u0124": 1013,
    "\u0120u": 1014,
    "\u00e5\u00b9": 1015,
    "\u00e6\u0138": 1016,
    "FF": 1017,
    "\u0120with": 1018,
    "\u00e6\u012a": 1019,
    "int": 1020,
    "\u0120or": 1021,
    "\u0120N": 1022,
    "//": 1023,
    "ine": 1024,
    "\u0120L": 1025,
    "\u00d8\u0143": 1026,
    "\u00d1\u012e": 1027,
    "pl": 1028,
    "ment": 1029,
    "\u0120\u00d8\u00aa": 1030,
    "\u00e6\u0139": 1031,
    "iz": 1032,
    "ore": 1033,
    "ue": 1034,
    "\u00da\u00a9": 1035,
    "\u0120\u00d0\u00b2": 1036,
    "ang": 1037,
    "ud": 1038,
    "\u00e0\u00b2": 1039,
    "ame": 1040,
    "\u0120ne": 1041,
    "ort": 1042,
    "og": 1043,
    "\u00e4\u00bc": 1044,
    "ant": 1045,
    "\u0120com": 1046,
    "\u0120\u0120\u0120\u0120\u0120": 1047,
    "\u0120\u00d1\u0123": 1048,
    "\u0120us": 1049,
    "\u00d8\u00b4": 1050,
    "ap": 1051,
    "\u00d1\u0129": 1052,
    "ain": 1053,
    "\u0120\u010a": 1054,
    "\u0120he": 1055,
    "\u00e0\u00b9": 1056,
    "\u0120le": 1057,
    "\u00d1\u0122\u00d0\u00b0": 1058,
    "ub": 1059,
    "\u0120W": 1060,
    "\u00e4\u00b8\u0122": 1061,
    "\u00c3\u00a9": 1062,
    "\u0120\u00d9\u0123": 1063,
    "\u00d8\u00a7\u00d8\u00aa": 1064,
    "\u00d8\u00ac": 1065,
    "\u00e4\u00b9": 1066,
    "\u0120\u00d0\u00bd": 1067,
    "ity": 1068,
    "art": 1069,
    "\u00e8\u00ae": 1070,
    "\u00e5\u0143": 1071,
    "\u0120\u00d9\u0126": 1072,
    "xt": 1073,
    "age": 1074,
    "\u00d0\u00b5\u00d0\u00bd": 1075,
    "\u00ed\u0137": 1076,
    "\u00e5\u012f": 1077,
    "\u0120\u00d8\u00b9": 1078,
    "ight": 1079,
    "\u0120\u00ea": 1080,
    "ok": 1081,
    "\u00e5\u00b0": 1082,
    "\u0120G": 1083,
    "\u0120en": 1084,
    "\u0120if": 1085,
    "\u00d9\u012c\u00d8\u00a9": 1086,
    "ld": 1087,
    "``": 1088,
    "ust": 1089,
    "ill": 1090,
    "\u00e8\u00af": 1091,
    "\u0120we": 1092,
    "\u0120at": 1093,
    "ia": 1094,
    "\u0120\u00d8\u00a3": 1095,
    "\u00c3\u00a1": 1096,
    "ies": 1097,
    "ure": 1098,
    "\u00eb\u012d": 1099,
    "\u00e2\u0122\u013e": 1100,
    "rom": 1101,
    "\u00e2\u0122\u013f": 1102,
    "\u00d9\u012b": 1103,
    "\u00d0\u00be\u00d0\u00b2": 1104,
    "\u0120The": 1105,
    "\u0120\u00d7": 1106,
    "nt": 1107,
    "\u00e6\u013f": 1108,
    "\u0120\u00d8\u00a7\u00d9\u0126\u00d9\u0127": 1109,
    "\u0120i": 1110,
    "\u00d0\u00b7": 1111,
    "\u0120this": 1112,
    "\u00e5\u00b7": 1113,
    "ile": 1114,
    "\u0120tr": 1115,
    "\u00e5\u00b8": 1116,
    "\u0120are": 1117,
    "ans": 1118,
    "\u00e6\u013a\u00af": 1119,
    "\u0120\u00d8\u00af": 1120,
    "orm": 1121,
    "\u00d8\u00b2": 1122,
    "ult": 1123,
    "ect": 1124,
    "\u00e5\u013e\u00a8": 1125,
    "\u00e0\u00a4\u00be": 1126,
    "\u00d1\u0127": 1127,
    "\u00e9\u0129": 1128,
    "\u00d0\u00b3": 1129,
    "urn": 1130,
    "\u0120un": 1131,
    "ov": 1132,
    "\u00c4\u0123": 1133,
    "ind": 1134,
    "\u0120O": 1135,
    "\u00e5\u00ba": 1136,
    "per": 1137,
    "\u00e5\u012e": 1138,
    "ive": 1139,
    "all": 1140,
    "),": 1141,
    "\u0120by": 1142,
    "--------": 1143,
    "\u00d0\u00b9": 1144,
    "\u00e4\u00ba\u00ba": 1145,
    "\u00e6\u013e\u012b": 1146,
    "\u00d8\u00a7\u00d9\u0127": 1147,
    "ass": 1148,
    "rou": 1149,
    "tr": 1150,
    "imp": 1151,
    "ase": 1152,
    "\u0120ch": 1153,
    "ib": 1154,
    "\u00e9\u0122": 1155,
    "ack": 1156,
    "\u00e4\u00b8\u0143": 1157,
    "\u00e5\u00bc": 1158,
    "\u00d8\u00b7": 1159,
    "\u00e6\u012b": 1160,
    "\u00e8\u00a1": 1161,
    "cl": 1162,
    "\u0120\u00d0\u00be": 1163,
    "ff": 1164,
    "\u0120qu": 1165,
    "\u0120\u00d8\u00a7\u00d8": 1166,
    "\u00d8\u00b5": 1167,
    "out": 1168,
    "con": 1169,
    "\u0120sh": 1170,
    "our": 1171,
    "\u0120\u00d0\u00b8": 1172,
    "ial": 1173,
    "ord": 1174,
    "\u0120do": 1175,
    "ata": 1176,
    "\u00d0\u00bf": 1177,
    "\u0120J": 1178,
    "de": 1179,
    "##": 1180,
    "ost": 1181,
    "\u00e5\u0128": 1182,
    "able": 1183,
    "\u0120z": 1184,
    "\u0120K": 1185,
    "\u00e3\u0123\u00ae": 1186,
    "\u00e7\u013d": 1187,
    "\u00d0\u00b1": 1188,
    "\u00d8\u00a7\u00db\u012e": 1189,
    "\u00c3\u00a4": 1190,
    "..": 1191,
    "\u0120U": 1192,
    "\u0120not": 1193,
    "\u00d1\u0122\u00d0\u00b5": 1194,
    "ave": 1195,
    "\u00e8\u0122": 1196,
    "\u0120can": 1197,
    "\u00c9\u013b": 1198,
    "\u0120\u0120\u0120\u0120\u0120\u0120\u0120\u0120\u0120\u0120\u0120": 1199,
    "ell": 1200,
    "\u00e5\u0129": 1201,
    "\u00e6\u0137": 1202,
    "are": 1203,
    "\u00e5\u00be": 1204,
    "\u00e5\u0134": 1205,
    "ip": 1206,
    "\u00e5\u00b9\u00b4": 1207,
    "\u0120\u00da\u00a9": 1208,
    "\u0120su": 1209,
    "turn": 1210,
    "\u0120from": 1211,
    "\u00e6\u012c": 1212,
    "\u00ec\u0139": 1213,
    "\",": 1214,
    "to": 1215,
    "\u00e5\u00a4\u00a7": 1216,
    "\u00e0\u00b5": 1217,
    "\u00e5\u00af": 1218,
    "put": 1219,
    "\u0120\u00d9\u0123\u00d9\u012c": 1220,
    "\u00e5\u00b1": 1221,
    "unction": 1222,
    "\u00e4\u00b8\u00ba": 1223,
    "\u00e4\u00b8\u012f": 1224,
    "ne": 1225,
    "ire": 1226,
    "ide": 1227,
    "ition": 1228,
    "\u00e5\u0134\u012e": 1229,
    "\u00e5\u013d\u00bd": 1230,
    "\u00e6\u0142": 1231,
    "\u0120was": 1232,
    "\u0120\u00d9\u0127\u00d9\u0128": 1233,
    "\u0120\u00c3": 1234,
    ").": 1235,
    "ru": 1236,
    "\u00e4\u00ba\u0128": 1237,
    "ast": 1238,
    "\u0120pr": 1239,
    "\u00d0\u00b0\u00d0\u00bd": 1240,
    "\u00e0\u00a7": 1241,
    "::": 1242,
    "\u00eb\u012d\u00a4": 1243,
    "ode": 1244,
    "\u00e7\u00a7": 1245,
    "ber": 1246,
    "\u0120V": 1247,
    "ould": 1248,
    "\u00e8\u00b4": 1249,
    "form": 1250,
    "ard": 1251,
    "\u0125\u00bd": 1252,
    "\u00e4\u00b8\u013c": 1253,
    "\u0120ad": 1254,
    "ome": 1255,
    "\u0120\u00d8\u00b3": 1256,
    "\u0120ar": 1257,
    "ach": 1258,
    "ij": 1259,
    "\u0120cont": 1260,
    "\u0120\u00d9\u0128": 1261,
    "=\"": 1262,
    "\u0120cl": 1263,
    "ype": 1264,
    "->": 1265,
    "\u00d8\u00ae": 1266,
    "ite": 1267,
    "\u0120\u00d0\u00b4": 1268,
    "\u00e6\u00b0": 1269,
    "\u0120\u00d0\u00ba": 1270,
    "\u00e0\u00a4\u00be\u00e0\u00a4": 1271,
    "\u00e8\u00b5": 1272,
    "\u00e6\u0122": 1273,
    "\u00d1\u0128": 1274,
    "\u00e8\u00a7": 1275,
    "\u0120ab": 1276,
    "\u0120te": 1277,
    "\u00e9\u013b": 1278,
    "\u00d9\u012a\u00d8\u00b1": 1279,
    "ents": 1280,
    "\u0120res": 1281,
    "\u00d9\u012c\u00d9\u0128": 1282,
    "ich": 1283,
    "cc": 1284,
    "ath": 1285,
    "ime": 1286,
    "\u0120me": 1287,
    "ge": 1288,
    "\u00e7\u012b": 1289,
    "\u00d8\u00a7\u00d8\u00af": 1290,
    "()": 1291,
    "In": 1292,
    "\u00e6\u0136": 1293,
    "ice": 1294,
    "\u00c5\u00a1": 1295,
    "****": 1296,
    "\u00d0\u00b0\u00d0\u00bb": 1297,
    "\u00e7\u0130": 1298,
    "AA": 1299,
    "\u0120In": 1300,
    "\u0109\u0109\u0109\u0109": 1301,
    "ens": 1302,
    "\u0120have": 1303,
    "\u00c3\u0143": 1304,
    "low": 1305,
    "ry": 1306,
    "\u0120pl": 1307,
    "\u0120so": 1308,
    "\u00d0\u00b5\u00d1\u0124": 1309,
    "\u0120your": 1310,
    "\u00c3\u00b3": 1311,
    "\u00e7\u0136\u0141": 1312,
    "\u00e5\u0143\u00a6": 1313,
    "\u00ea\u00b3": 1314,
    "\u00d1\u012a": 1315,
    "\u0120\u00ed": 1316,
    "\u0120val": 1317,
    "\u00d8\u00b6": 1318,
    "ace": 1319,
    "\u0120\u00d0\u00bd\u00d0\u00b0": 1320,
    "\u00d0\u00be\u00d0\u00bb": 1321,
    "ve": 1322,
    "(\"": 1323,
    "\u00d9\u0126\u00d9\u012b": 1324,
    "\u00e1\u0122": 1325,
    "ah": 1326,
    "act": 1327,
    "\u0120per": 1328,
    "\u00d0\u00be\u00d1\u0122": 1329,
    "ks": 1330,
    "\u00e4\u00bb\u00a5": 1331,
    "\u00c4\u0125": 1332,
    "ated": 1333,
    "fer": 1334,
    "ob": 1335,
    "\u00e5\u00bd": 1336,
    "\u00d0\u00be\u00d0\u00b4": 1337,
    "\u00d0\u00be\u00d0\u00bc": 1338,
    "du": 1339,
    "\u0120el": 1340,
    "\u00d0\u00b8\u00d1\u0124": 1341,
    "ien": 1342,
    "ep": 1343,
    "\u00ec\u013f\u00b4": 1344,
    "\u0120\u00d8\u00b1": 1345,
    "\u0120return": 1346,
    "ally": 1347,
    "\u00e2\u0122\u013b": 1348,
    "ther": 1349,
    "\u00e5\u00bf": 1350,
    "\u00e4\u00b8\u012c": 1351,
    "one": 1352,
    "\u00d0\u00b6": 1353,
    "eng": 1354,
    "\u0120go": 1355,
    "\u00e5\u00a5": 1356,
    "ount": 1357,
    "\u00e8\u00a6": 1358,
    "ari": 1359,
    "\u00e8\u0129": 1360,
    "\u0120sc": 1361,
    "\u00e4\u00bf": 1362,
    "ple": 1363,
    "\u00e6\u0143": 1364,
    "ake": 1365,
    "vel": 1366,
    "\u0120\u0120\u0120\u0120\u0120\u0120\u0120\u0120\u0120\u0120\u0120\u0120": 1367,
    "\u00e3\u0123\u0126": 1368,
    "\u0120\u00d1\u0124": 1369,
    "\u00d9\u012a\u00d9\u0128": 1370,
    "\u00e4\u00bc\u013c": 1371,
    "\u00e7\u00ba": 1372,
    "\u00e0\u00a5\u0129": 1373,
    "\u00d0\u00b5\u00d1\u0122": 1374,
    "ign": 1375,
    "\u00e0\u00a8": 1376,
    "\u00d1\u0130": 1377,
    "\u0120function": 1378,
    "\u0120\u00d0\u00bc": 1379,
    "\u0120er": 1380,
    "ring": 1381,
    "\u00d0\u00b0\u00d1\u0124": 1382,
    "))": 1383,
    "\u00c4\u00b1": 1384,
    "\u0120Th": 1385,
    "ft": 1386,
    "\u00e5\u0130": 1387,
    "\u00da\u00af": 1388,
    "\u0120la": 1389,
    "px": 1390,
    "\u00e5\u0131\u0133": 1391,
    "ress": 1392,
    "\u00e7\u0136\u00a8": 1393,
    "====": 1394,
    "ary": 1395,
    "\u0120\u00d8\u00a5": 1396,
    "\u00d0\u00b5\u00d0\u00bb": 1397,
    "\u00e6\u00b3": 1398,
    "\u00e7\u0143": 1399,
    "ont": 1400,
    "\u00e7\u0132": 1401,
    "com": 1402,
    "\u00d8\u00a3": 1403,
    "\u00d9\u012a\u00d9\u0126": 1404,
    "\u0120out": 1405,
    "ong": 1406,
    "\u00e5\u0133": 1407,
    "\u00d9\u0129\u00d8\u00a7": 1408,
    "\u00d7\u013b": 1409,
    "\u00eb\u012c": 1410,
    "eg": 1411,
    "\u00d1\u012f": 1412,
    "\u00d9\u012c\u00d8\u00b1": 1413,
    "\u00e6\u00b5": 1414,
    "\u0120\u00d8\u0143": 1415,
    "\u0120\u00d8\u00b4": 1416,
    "ck": 1417,
    "\u0120all": 1418,
    "\u00d1\u0123\u00d0\u00ba": 1419,
    "\u0120imp": 1420,
    "\u00e3\u0123\u00ab": 1421,
    "text": 1422,
    "\u00e9\u013f": 1423,
    "\u0120dis": 1424,
    "\u00e8\u00a1\u012e": 1425,
    "\u00ec\u0140": 1426,
    "ations": 1427,
    "\u00e6\u0130": 1428,
    "ous": 1429,
    "\u0120\u00d9\u0129": 1430,
    "arg": 1431,
    "\u00d8\u00a7\u00d8\u00a8": 1432,
    "\u0120end": 1433,
    "\u0120sp": 1434,
    "\u00e9\u0139": 1435,
    "\u00e4\u00bd\u013e": 1436,
    "\u00d0\u00bd\u00d1\u012d": 1437,
    "ll": 1438,
    "\u0120\u00d0\u00b1": 1439,
    "ail": 1440,
    "\u00ec\u0126": 1441,
    "\u00e5\u00b7\u00a5": 1442,
    "\u00e8\u0125\u00bd": 1443,
    "ert": 1444,
    "ex": 1445,
    "\u00d0\u00be\u00d0\u00b3": 1446,
    "\u00eb\u012c\u0136": 1447,
    "ize": 1448,
    "\u00e0\u00a5\u012f": 1449,
    "ance": 1450,
    "\u00d7\u0137": 1451,
    "\u00e4\u00b8\u00aa": 1452,
    "\u00ec\u0142": 1453,
    "ec": 1454,
    "\u0120up": 1455,
    "ject": 1456,
    "\u00e0\u00aa": 1457,
    "\u00e8\u00a6\u0123": 1458,
    "gh": 1459,
    "so": 1460,
    "\u00e5\u0135": 1461,
    "ption": 1462,
    "\u00e6\u012a\u0132": 1463,
    "\u0120\u00d9\u012c": 1464,
    "\u0120pre": 1465,
    "```": 1466,
    "\u00c4\u00ab": 1467,
    "\u0120\u00d8\u00ac": 1468,
    "lic": 1469,
    "lo": 1470,
    "we": 1471,
    "\u00e6\u0139\u00b6": 1472,
    "\u00ea\u00b0": 1473,
    "ory": 1474,
    "FFFF": 1475,
    "\u00ec\u0139\u0132": 1476,
    "ER": 1477,
    "\u0120par": 1478,
    "ef": 1479,
    "\u0120\u00e0\u00a6": 1480,
    "\u00e3\u0123\u00a8": 1481,
    "\u00e3\u0125\u00bc": 1482,
    "val": 1483,
    "SS": 1484,
    "gr": 1485,
    "\u00e6\u0139\u00a5": 1486,
    "\u00e6\u0140": 1487,
    "\u00e3\u0123\u00a7": 1488,
    "ical": 1489,
    "ys": 1490,
    "\u0120\u00d8\u00ae": 1491,
    "\u0120then": 1492,
    "\u0120their": 1493,
    "\u0120\u00d8\u00a7\u00d9\u0126\u00d8\u00aa": 1494,
    "ild": 1495,
    "\u0120\u00d0\u00bf\u00d1\u0122": 1496,
    "\u00d0\u00bd\u00d0\u00b8": 1497,
    "\u0120\u00d9\u0124": 1498,
    "ai": 1499,
    "\u0120\u00d0\u00b7": 1500,
    "\u00e3\u0123\u0141": 1501,
    "',": 1502,
    "\u00e3\u0124\u012d": 1503,
    "\u00e5\u0141": 1504,
    "\u0120will": 1505,
    "\u0120\u00d8\u00a7\u00d9\u0126\u00d8\u00a3": 1506,
    "\u00e3\u0123\u0139": 1507,
    "ook": 1508,
    "li": 1509,
    "\u00d8\u00b0": 1510,
    "\u0120which": 1511,
    "</": 1512,
    "\u00e5\u0129\u00ba": 1513,
    "\u00e0\u00a4\u00b0": 1514,
    "\u00e5\u0127\u00ac": 1515,
    "ose": 1516,
    "eth": 1517,
    "\u0120wor": 1518,
    "erm": 1519,
    "enc": 1520,
    "\u00d0\u00be\u00d1\u0124": 1521,
    "\u00c3\u00bc": 1522,
    "\u00ec\u00a7": 1523,
    "\u0120\u00d9\u012a\u00d8\u00a7\u00d9\u0126": 1524,
    "\u0120but": 1525,
    "\u00c4\u0135": 1526,
    "pr": 1527,
    "ph": 1528,
    "\u00e6\u00af": 1529,
    "\u00ec\u013f\u0126": 1530,
    "\u00e4\u00ba\u0130": 1531,
    "\u00e5\u012b": 1532,
    "\u00e6\u00b2": 1533,
    "\u00e9\u00a2": 1534,
    "\u00eb\u00a1": 1535,
    "\u00e8\u00be": 1536,
    "pec": 1537,
    "\u00e2\u0122\u012e": 1538,
    "IN": 1539,
    "\u0120app": 1540,
    "\u0120has": 1541,
    "ke": 1542,
    "DD": 1543,
    "\u00e6\u012e": 1544,
    "\u00e0\u00b5\u012f": 1545,
    "\u0120one": 1546,
    "\u0120they": 1547,
    "\u00e5\u013e\u00b0": 1548,
    "\u00e3\u0124\u0134": 1549,
    "ma": 1550,
    "\u00e5\u00ae\u00b6": 1551,
    "\u00e3\u0123\u00af": 1552,
    "\u00e6\u012d": 1553,
    "\u00e3\u0123\u00a6": 1554,
    "lement": 1555,
    "par": 1556,
    "\u00e6\u013f\u00a5": 1557,
    "\u0120ro": 1558,
    "\u00e8\u00bf\u013b": 1559,
    "\u0120sa": 1560,
    "\u0120num": 1561,
    "\u00e6\u00b1": 1562,
    "The": 1563,
    "\u0120my": 1564,
    "ike": 1565,
    "\u00d0\u00be\u00d0\u00bd": 1566,
    "clud": 1567,
    "\u00e0\u00b3": 1568,
    "\u00e5\u012a\u00b0": 1569,
    "\u0120\u0120\u0120\u0120\u0120\u0120": 1570,
    "=>": 1571,
    "\u00e6\u012a\u0133": 1572,
    "\u00d8\u00ab": 1573,
    "\u00e3\u0123\u012e": 1574,
    "\u00e2\u0122\u0135": 1575,
    "\u00d0\u00bd\u00d0\u00be": 1576,
    "\u00d8\u00a7\u00d8\u00b3": 1577,
    "\u0120\u00d8\u00af\u00d8\u00b1": 1578,
    "\u00e9\u00ab": 1579,
    "\u00e8\u00bd": 1580,
    "\u0120man": 1581,
    ":=": 1582,
    "ug": 1583,
    "\u0120no": 1584,
    "\u0120det": 1585,
    "\u00c3\u00a5": 1586,
    "----------------": 1587,
    "\u00e7\u0132\u0128": 1588,
    "\u00e5\u00af\u00b9": 1589,
    "led": 1590,
    "\u00e9\u00ab\u013a": 1591,
    "\u00e5\u0131\u00af": 1592,
    "oth": 1593,
    "up": 1594,
    "\u00d8\u00b3\u00d8\u00aa": 1595,
    "ence": 1596,
    "\u00d0\u00be\u00d0\u00b9": 1597,
    "\u00d7\u0137\u00d7": 1598,
    "\u00d9\u012a\u00d8\u00af": 1599,
    "\u00e6\u0138\u00b0": 1600,
    "rib": 1601,
    "\u00e5\u012a\u0128": 1602,
    "\u00c5\u0141": 1603,
    "\u0120\u00d0\u00b3": 1604,
    "io": 1605,
    "\u00e0\u00a5\u0122": 1606,
    "ors": 1607,
    "\u00e7\u013e": 1608,
    "ater": 1609,
    "pro": 1610,
    "\u00d0\u00b5\u00d0\u00bd\u00d0\u00b8": 1611,
    "\u00e6\u00b8": 1612,
    "pon": 1613,
    "\u0120St": 1614,
    "\u00e3\u0123\u00aa": 1615,
    "ars": 1616,
    "\u0120des": 1617,
    "\u00e0\u00b8\u013b": 1618,
    "\u00e4\u00ba\u00a7": 1619,
    "\u00d8\u00a7\u00d9\u0123": 1620,
    "\u0120x": 1621,
    "\u00e0\u00b8\u00b2": 1622,
    "\u00e7\u00ab": 1623,
    "\u00e6\u013e\u012a": 1624,
    "\u00c5\u00be": 1625,
    "old": 1626,
    "\u00e6\u0126": 1627,
    "ek": 1628,
    "\u00d0\u00b8\u00d0\u00bb": 1629,
    "\u00e4\u00be": 1630,
    "\u00e9\u013a": 1631,
    "\u0120\u00d1\u0125": 1632,
    "\u00d8\u00a7\u00d8\u00a1": 1633,
    "\u0120Y": 1634,
    "\u00e5\u00a4\u013c": 1635,
    "\u00d7\u013b\u00d7": 1636,
    "St": 1637,
    "ock": 1638,
    "igh": 1639,
    "\u00d0\u00b0\u00d1\u0122": 1640,
    "\u00e6\u0125": 1641,
    "\u00e6\u0138\u00b9": 1642,
    "ni": 1643,
    "erv": 1644,
    "\u00ef\u00bc\u012b": 1645,
    "\u00ef\u00bc\u012a": 1646,
    "\u0120over": 1647,
    "####": 1648,
    "\u0120\u00d9\u0125": 1649,
    "\u0120stat": 1650,
    "__": 1651,
    "\u0120\u00ec\u013f": 1652,
    "\u00c3\u00b6": 1653,
    "\u00e5\u00b8\u0124": 1654,
    "own": 1655,
    "tt": 1656,
    "\u0120hand": 1657,
    "\u00e9\u0123": 1658,
    "\u00d0\u00b8\u00d0\u00bd": 1659,
    "yst": 1660,
    "\u00e7\u0143\u012b": 1661,
    "\u0120int": 1662,
    "uk": 1663,
    "\u00eb\u00a1\u013e": 1664,
    "ew": 1665,
    "round": 1666,
    "\u0120\u00d8\u00b9\u00d9\u0126\u00d9\u012b": 1667,
    "\u00ea\u00b3\u0142": 1668,
    "\u00e7\u00ae": 1669,
    "\u00e5\u0127\u00a8": 1670,
    "\u0120\u00d8\u00a7\u00d9\u0126\u00d8\u00b9": 1671,
    "\u00d8\u00b1\u00d9\u012c": 1672,
    "\u0120get": 1673,
    "aus": 1674,
    "\")": 1675,
    "ng": 1676,
    "\u00e8\u0129\u00aa": 1677,
    "\u0120inter": 1678,
    "\u012a\u00eb\u012d\u00a4": 1679,
    "ound": 1680,
    "\u00e5\u012e\u0138": 1681,
    "aj": 1682,
    "\u00d8\u00a7\u00d8\u00b9": 1683,
    "\u00e6\u00b4": 1684,
    "\u00e5\u0132\u012a": 1685,
    "\u00e0\u00a5\u012f\u00e0\u00a4": 1686,
    "\u00e8\u0124": 1687,
    "\u00e9\u0125": 1688,
    "\u0120col": 1689,
    "\u0120am": 1690,
    "\u00e0\u00a4\u00bf": 1691,
    "\u0120\u00d1\u0129": 1692,
    "ions": 1693,
    "\u00e7\u00bd": 1694,
    "\u0120some": 1695,
    "\u0120dif": 1696,
    "\u00e9\u0137": 1697,
    "\u0120\u00ec\u0140": 1698,
    "\u00b8\u00b0": 1699,
    "\u0120und": 1700,
    "dition": 1701,
    "ss": 1702,
    "ool": 1703,
    "\u0120\u00d8\u00a7\u00d8\u00b3": 1704,
    "heck": 1705,
    "\u00d1\u012b": 1706,
    "row": 1707,
    "\u00d0\u00b0\u00d0\u00ba": 1708,
    "\u00ed\u0137\u013e": 1709,
    "\u00d8\u00a7\u00d8\u00a6": 1710,
    "ating": 1711,
    "\u00e5\u012c\u00a8": 1712,
    "\u00e7\u00bb\u0131": 1713,
    "ient": 1714,
    "\u00ec\u013f\u013a": 1715,
    "sc": 1716,
    "ink": 1717,
    "\u0120pos": 1718,
    "les": 1719,
    "\u0120more": 1720,
    "WW": 1721,
    "\u00e7\u00a8": 1722,
    "\u00d9\u0126\u00d9\u012c": 1723,
    "\u00e4\u00b8\u0130": 1724,
    "itt": 1725,
    "ree": 1726,
    "\u00e6\u013e\u00ac": 1727,
    "ON": 1728,
    "me": 1729,
    "\u0120\u00e0\u00a4\u0137": 1730,
    "ror": 1731,
    "\u0120part": 1732,
    "\u00e9\u00a1": 1733,
    "\u00d9\u00be": 1734,
    "\u0120about": 1735,
    "\u0120\u0120\u0120\u0120\u0120\u0120\u0120\u0120\u0120\u0120\u0120\u0120\u0120\u0120\u0120\u0120\u0120\u0120\u0120\u0120\u0120\u0120\u0120\u0120\u0120\u0120\u0120\u0120\u0120\u0120\u0120\u0120": 1736,
    "\u00e4\u00bd\u0135": 1737,
    "\u00d0\u00be\u00d1\u0123": 1738,
    "ual": 1739,
    "\u0120set": 1740,
    "\u00e8\u00bf\u013d": 1741,
    "\u0120how": 1742,
    "ific": 1743,
    "ps": 1744,
    "\u0120use": 1745,
    "\u00e4\u00bb\u00ac": 1746,
    "\u00e6\u00ac": 1747,
    "\u0120cre": 1748,
    "irst": 1749,
    "\u0120di": 1750,
    "\u00ef\u00bc\u013c": 1751,
    "\u0120new": 1752,
    "\u00e5\u0132\u012e": 1753,
    "\u00eb\u00a5": 1754,
    "ely": 1755,
    "\u00d9\u0128\u00d8\u00af": 1756,
    "\u00e4\u00b8\u012d": 1757,
    "\u00d9\u012a\u00d9\u0127": 1758,
    "\u00e5\u012c\u013d": 1759,
    "AT": 1760,
    "\u00e3\u0125\u00b3": 1761,
    "\u00ed\u0137\u013a": 1762,
    "\u0120que": 1763,
    "\u0120there": 1764,
    "\u0120pe": 1765,
    "iel": 1766,
    "ased": 1767,
    "\u0120ob": 1768,
    "\u00e5\u0135\u0123": 1769,
    "\u0120em": 1770,
    "ax": 1771,
    "\u00e6\u0131": 1772,
    "\u0120like": 1773,
    "cess": 1774,
    "\u0120his": 1775,
    "\u00e5\u00bb": 1776,
    "elf": 1777,
    "\u0120just": 1778,
    "\u00eb\u0131": 1779,
    "\u00e0\u00a6\u00be": 1780,
    "\u00ec\u012d": 1781,
    "\u0120ev": 1782,
    "\u00c4\u012f": 1783,
    "\u0120\u0120\u0120\u0120\u0120\u0120\u0120\u0120\u0120\u0120\u0120\u0120\u0120\u0120\u0120": 1784,
    "\u0124\u00ac": 1785,
    "EN": 1786,
    "of": 1787,
    "\u0120po": 1788,
    "\u00e7\u0130\u00b0": 1789,
    "ract": 1790,
    "anc": 1791,
    "ery": 1792,
    "\u0120\u00d8\u00a8\u00d9\u0129": 1793,
    "\u00e9\u013d": 1794,
    "\u0120ke": 1795,
    "lect": 1796,
    "ates": 1797,
    "\u0120def": 1798,
    "col": 1799,
    "\u0120into": 1800,
    "\u0120when": 1801,
    "\u00ec\u013e": 1802,
    "\u00e8\u00bf\u0129": 1803,
    "\u0120\u00ec\u0142": 1804,
    "\u0120time": 1805,
    "\u00e0\u00b5\u012f\u00e0\u00b4": 1806,
    "\u00d8\u00ba": 1807,
    "\u00e9\u0125\u00a8": 1808,
    "\u00e6\u013e\u00ba": 1809,
    "\u0120\u00d0\u00bd\u00d0\u00b5": 1810,
    "\u0120cal": 1811,
    "name": 1812,
    "ier": 1813,
    "ny": 1814,
    "ings": 1815,
    "ener": 1816,
    "\u00e5\u00ae\u013c": 1817,
    "\u0120trans": 1818,
    "\u00d1\u0126": 1819,
    "wo": 1820,
    "\u00db\u0123": 1821,
    "\u00d8\u00a7\u00d9\u0124": 1822,
    "ns": 1823,
    "\u0120\u00d9\u0126\u00d9\u0126": 1824,
    "ystem": 1825,
    "\u0120class": 1826,
    "********": 1827,
    "rite": 1828,
    "\u00e7\u00a4": 1829,
    "\u0120them": 1830,
    "\u00e6\u013b": 1831,
    "\u0120\u00d0\u00b0": 1832,
    "\u00e6\u013d": 1833,
    "\u00e0\u00b9\u012a": 1834,
    "\">": 1835,
    "\u0120\u00d8\u00a3\u00d9\u0128": 1836,
    "\u00e6\u0122\u00a7": 1837,
    "\u0120rel": 1838,
    "\u0120need": 1839,
    "\u00d8\u00a7\u00d9\u0129": 1840,
    "\u00e4\u00bb\u0138": 1841,
    "ays": 1842,
    "\u00e5\u00ae\u0140": 1843,
    "\u0120value": 1844,
    "ement": 1845,
    "\u00c2\u00bb": 1846,
    "\u00d1\u0128\u00d0\u00b8": 1847,
    "\u00c2\u00ab": 1848,
    "ble": 1849,
    "\u0120any": 1850,
    "\u00e0\u00ba": 1851,
    "\u00d1\u0123\u00d1\u0131": 1852,
    "ark": 1853,
    "\u00e0\u00a4\u00bf\u00e0\u00a4": 1854,
    "\u0120other": 1855,
    "\u012e\u0122": 1856,
    "AR": 1857,
    "\u00e5\u00b1\u0137": 1858,
    "\u0120mod": 1859,
    "\u0120et": 1860,
    "\u00e5\u0132\u0130": 1861,
    "Name": 1862,
    "\u00e8\u0123": 1863,
    "ange": 1864,
    "\u00d0\u00b5\u00d0\u00bc": 1865,
    "iss": 1866,
    "\u00e5\u00bc\u0122": 1867,
    "\u0120spec": 1868,
    "\u00d0\u00b0\u00d0\u00bc": 1869,
    "ian": 1870,
    "add": 1871,
    "\u00db\u0134": 1872,
    "\u00e7\u013b": 1873,
    "\u00e4\u00b9\u0141": 1874,
    "fr": 1875,
    "\u0120bet": 1876,
    "\u00e7\u00ac": 1877,
    "\u00d1\u0124\u00d0\u00be": 1878,
    "ick": 1879,
    "\u0120kn": 1880,
    "over": 1881,
    "ish": 1882,
    "\u0120differ": 1883,
    "\u0120should": 1884,
    "\u00e4\u00b8\u00bb": 1885,
    "\u00e8\u0122\u0127": 1886,
    "\u0120im": 1887,
    "\u0120Ch": 1888,
    "ray": 1889,
    "\u00d9\u012c\u00d8\u00af": 1890,
    ".\"": 1891,
    "\u00ea\u00b0\u0122": 1892,
    "\u0120ag": 1893,
    "\u00e3\u0123\u013b": 1894,
    "ise": 1895,
    "\u00e9\u013f\u00a2": 1896,
    "\u00e5\u00a2": 1897,
    "\u0120It": 1898,
    "\u00ec\u00a7\u0122": 1899,
    "\u0120else": 1900,
    "\u00c4\u0139": 1901,
    "ript": 1902,
    "\u00e6\u00b3\u0137": 1903,
    "\u00e8\u00ae\u00be": 1904,
    "Id": 1905,
    "der": 1906,
    "\u00d1\u0123\u00d1\u0124\u00d0\u00b2": 1907,
    "sp": 1908,
    "ility": 1909,
    "ove": 1910,
    "\u00e0\u00b8\u0143": 1911,
    "\u00ec\u0137": 1912,
    "\u0120acc": 1913,
    "rit": 1914,
    "\u0120add": 1915,
    "\u00ec\u012c": 1916,
    "pert": 1917,
    "\u00e5\u00bb\u00ba": 1918,
    "\u0120Pro": 1919,
    "ull": 1920,
    "\u00e5\u0131\u012c": 1921,
    "port": 1922,
    "\u00d8\u00b8": 1923,
    "\u0120bl": 1924,
    "\u00d0\u00bb\u00d0\u00b0": 1925,
    "ons": 1926,
    "\u00e5\u00a6": 1927,
    "\u00e5\u012b\u012f": 1928,
    "\u00e7\u0124": 1929,
    "\u00e0\u00b8\u00b2\u00e0\u00b8": 1930,
    "\u00d0\u00be\u00d0\u00b1": 1931,
    "\u0109\u0109\u0109": 1932,
    "\u00e5\u0123": 1933,
    "\u00e5\u012c\u0142": 1934,
    "je": 1935,
    "\u0120\u00e0\u00b4": 1936,
    "\u0120\u0120\u0120\u0120\u0120\u0120\u0120\u0120\u0120": 1937,
    "\u0120min": 1938,
    "\u0120\u00d8\u00a2": 1939,
    "\u00e9\u00a3": 1940,
    "\u00e2\u0122\u0136": 1941,
    "az": 1942,
    "ute": 1943,
    "ger": 1944,
    "AL": 1945,
    "\u00ec\u013f\u0122": 1946,
    "ms": 1947,
    "\u00d0\u00be\u00d0\u00b3\u00d0\u00be": 1948,
    "\u0120data": 1949,
    "\u00e7\u0136\u00b5": 1950,
    "get": 1951,
    "\u0120each": 1952,
    "\u0120comm": 1953,
    "\u00e5\u012c\u00a1": 1954,
    "\u00e9\u0122\u013c": 1955,
    "\u00e5\u0127\u00b6": 1956,
    "\u0120prov": 1957,
    "ade": 1958,
    "\u00e8\u012b": 1959,
    "au": 1960,
    "\u00e5\u00ba\u00a6": 1961,
    "RE": 1962,
    "ym": 1963,
    "cre": 1964,
    "\u0120sub": 1965,
    "\u00d0\u00bb\u00d0\u00b8": 1966,
    "cul": 1967,
    "\u00e4\u00b9\u012d": 1968,
    "\u0120op": 1969,
    "\u0120\u0120\u0120\u0120\u010a": 1970,
    "ix": 1971,
    "\u00c3\u00b8": 1972,
    "\u00e0\u00a4\u0124": 1973,
    "\u0120also": 1974,
    "\u0120\u00d8\u00a7\u00d9\u0126\u00d8\u00b3": 1975,
    "\u0120\u00d8\u00a7\u00db\u012e": 1976,
    "app": 1977,
    "\u0120these": 1978,
    "\u00d8\u00a8\u00d8\u00b1": 1979,
    "\u0120\u00d8\u00a7\u00d8\u00b3\u00d8\u00aa": 1980,
    "set": 1981,
    "ST": 1982,
    "ict": 1983,
    "\u0120its": 1984,
    "\u00e7\u0141": 1985,
    "essage": 1986,
    "\u00e9\u0129\u012f": 1987,
    "\u00e8\u00b6": 1988,
    "},": 1989,
    "\u0120were": 1990,
    "\u00e5\u00bf\u0125": 1991,
    "Re": 1992,
    "rol": 1993,
    "\u0120requ": 1994,
    "urr": 1995,
    "\u0120sk": 1996,
    "\u0120includ": 1997,
    "\u00e8\u00b7": 1998,
    "\u00e5\u00b0\u00b1": 1999,
    "\u00c4\u0127": 2000,
    "($": 2001,
    "\u0120This": 2002,
    "line": 2003,
    "\u00d9\u012d": 2004,
    "tring": 2005,
    "\u0120\u00ce": 2006,
    "\u00e6\u012f": 2007,
    "\u0120string": 2008,
    "\u0120av": 2009,
    "\u00e9\u0137\u00bf": 2010,
    "\u00d8\u00a6": 2011,
    "========": 2012,
    "\u0120\u00e0\u00b8": 2013,
    "\u0120than": 2014,
    "\u00e5\u0128\u0127": 2015,
    "\u00ea\u00b2": 2016,
    "als": 2017,
    "ible": 2018,
    "\u00e4\u00ba\u012d": 2019,
    "\u0120what": 2020,
    "iew": 2021,
    "na": 2022,
    "Th": 2023,
    "\u0120\u00d1\u0122\u00d0\u00b0": 2024,
    "\u00e0\u00ac": 2025,
    "div": 2026,
    "\u00e8\u00b5\u0126": 2027,
    "\u00e6\u0131\u0132": 2028,
    "\u00e7\u00be": 2029,
    "\u00e7\u013d\u00ae": 2030,
    "eb": 2031,
    "\u0120med": 2032,
    "ning": 2033,
    "ublic": 2034,
    "\u00b4\u00eb": 2035,
    "\u0120na": 2036,
    "\u0120comp": 2037,
    "\u00e5\u0143\u0132": 2038,
    "\u00e3\u0123\u012d": 2039,
    "\u00e5\u00be\u0139": 2040,
    "ta": 2041,
    "Con": 2042,
    "\u0120\u00d0\u00b7\u00d0\u00b0": 2043,
    "ash": 2044,
    "\u0120cons": 2045,
    "\u0120who": 2046,
    "\u00e5\u0127\u00b3": 2047,
    "arch": 2048,
    "\u00eb\u00a5\u00bc": 2049,
    "\u0120back": 2050,
    "\u0120had": 2051,
    "pect": 2052,
    "ample": 2053,
    "\u00e6\u013e\u0122": 2054,
    "\u00d1\u0122\u00d1\u0125": 2055,
    "\u00e5\u012a\u00b6": 2056,
    "\u00e5\u012e\u00ba": 2057,
    "\u0120rec": 2058,
    "\u0120stud": 2059,
    "\u0120sol": 2060,
    "\u0120\u010a\u0120\u010a": 2061,
    "ied": 2062,
    "\u0120\u00eb\u00b0": 2063,
    "\u00e8\u0122\u012e": 2064,
    "\u0120result": 2065,
    "\u00ec\u013c": 2066,
    "\u00e0\u00a6\u00be\u00e0\u00a6": 2067,
    "\u0120code": 2068,
    "\u00e6\u012b\u0122": 2069,
    "\u00ea\u00b5": 2070,
    "dd": 2071,
    "\u00e1\u0125\u0132": 2072,
    "\u0120est": 2073,
    "\u0120let": 2074,
    "\u0120different": 2075,
    "\u0120number": 2076,
    "\u00d0\u00b5\u00d0\u00b9": 2077,
    "\u0120expl": 2078,
    "\u00e5\u0131\u00b8": 2079,
    "\u00ec\u0126\u013e": 2080,
    "\u00d0\u00ba\u00d0\u00b0": 2081,
    "\u0120first": 2082,
    "ung": 2083,
    "ues": 2084,
    "fter": 2085,
    "\u0120pol": 2086,
    "LE": 2087,
    "\u00e0\u00a7\u0129": 2088,
    "iet": 2089,
    "\u0120\u00d9\u00be": 2090,
    "\u00e6\u00b0\u00b4": 2091,
    "gram": 2092,
    "\u0120const": 2093,
    "\u0120bu": 2094,
    "\u00e7\u0142": 2095,
    "\u00e0\u00b9\u0122": 2096,
    "ner": 2097,
    "\u0120fe": 2098,
    "Pro": 2099,
    "\u00d5\u00a1": 2100,
    "\u0120act": 2101,
    "\u0120ext": 2102,
    "\u00d8\u00aa\u00d8\u00b1": 2103,
    "\u0120under": 2104,
    "sh": 2105,
    "\u00e3\u0123\u00be": 2106,
    "ative": 2107,
    "its": 2108,
    "\u00e5\u013e\u00ba": 2109,
    "\u00e9\u0129\u0131": 2110,
    "\u00e7\u012b\u00a9": 2111,
    "\u00d3\u00a9": 2112,
    "\u0120mem": 2113,
    "\u00e0\u00b9\u0122\u00e0\u00b8": 2114,
    "\u00e5\u013f": 2115,
    "\u0120input": 2116,
    "\u0120two": 2117,
    "hed": 2118,
    "ID": 2119,
    "ield": 2120,
    "rough": 2121,
    "atch": 2122,
    "\u0120work": 2123,
    "\u00e5\u0122": 2124,
    "\u00e5\u00b0\u0128": 2125,
    "\u00e3\u0123\u00a3": 2126,
    "\u00e6\u0138\u0129": 2127,
    "cont": 2128,
    "ask": 2129,
    "\u00e1\u00bb": 2130,
    "\u00e7\u00a9": 2131,
    "import": 2132,
    "\u00ec\u013d": 2133,
    "\u0120reg": 2134,
    "\u00e5\u0127\u00a5": 2135,
    "\u00d8\u00b1\u00d8\u00af": 2136,
    "ruct": 2137,
    "\u0120may": 2138,
    "\u0120inst": 2139,
    "ox": 2140,
    "\u00e8\u00b0": 2141,
    "\u00e6\u013e\u0141": 2142,
    "ments": 2143,
    "\u0120name": 2144,
    "\u00e0\u00a5\u012d": 2145,
    "\".": 2146,
    "Type": 2147,
    "\u0120\u00ea\u00b0": 2148,
    "\u00e6\u0137\u013b": 2149,
    "ause": 2150,
    "\u0120vari": 2151,
    "\u00e7\u00ae\u00a1": 2152,
    "\u00d0\u00b5\u00d0\u00b4": 2153,
    "\u00e6\u00b6": 2154,
    "\u0120ass": 2155,
    "\u00e5\u00a5\u00bd": 2156,
    "\u0120pers": 2157,
    "],": 2158,
    "mer": 2159,
    "\u00ea\u00b8\u00b0": 2160,
    "\u00e4\u00bd\u012f": 2161,
    "\u0120ye": 2162,
    "\u00d9\u0127\u00d8\u00a7": 2163,
    "\u0120da": 2164,
    "\u00d9\u012c\u00d9\u0126": 2165,
    "\u00e7\u00b3": 2166,
    "Ex": 2167,
    "\u0136\u00d7": 2168,
    "und": 2169,
    "\u0120our": 2170,
    "pos": 2171,
    "vent": 2172,
    "\u0120\u00d8\u00a8\u00d8\u00b1": 2173,
    "\u00e3\u0124\u0124": 2174,
    "\u00d8\u00a7\u00d8\u0143": 2175,
    "):": 2176,
    "\u00ed\u0137\u00b4": 2177,
    "\u00e7\u0137": 2178,
    "ada": 2179,
    "\u0120rem": 2180,
    "oid": 2181,
    "lean": 2182,
    "\u00e4\u00bf\u013f": 2183,
    "\u00e5\u00a7": 2184,
    "\u00d8\u00a7\u00d8\u00b2": 2185,
    "olog": 2186,
    "\u0120men": 2187,
    "\u0120\u00e0\u00b2": 2188,
    "\u00e5\u00b0\u0131": 2189,
    "\u00e6\u012c\u0122": 2190,
    "\u00d0\u00b8\u00d0\u00b9": 2191,
    "\u00e9\u013c": 2192,
    "ci": 2193,
    "\u0120ent": 2194,
    "('": 2195,
    "\u0120bec": 2196,
    "\u0120\u00d0\u00bf\u00d0\u00be": 2197,
    "\u00e3\u0124\u012e": 2198,
    "\u00ed\u0138": 2199,
    "\u00e5\u00ba\u0136": 2200,
    "\u0120using": 2201,
    "\u00e3\u0124\u00b9": 2202,
    "rt": 2203,
    "ale": 2204,
    "\u0120make": 2205,
    "\u0120\u00d8\u00a8\u00d8\u00a7\u00d9\u0126": 2206,
    "\u0120fol": 2207,
    "\u0120aut": 2208,
    "\u00c5\u00b3": 2209,
    "yp": 2210,
    "read": 2211,
    "fo": 2212,
    "\u00eb\u0124": 2213,
    "\u0120id": 2214,
    "def": 2215,
    "\u00e7\u00ac\u00ac": 2216,
    "idth": 2217,
    "\u0120gr": 2218,
    "\u00e6\u0137\u00b0": 2219,
    "\":": 2220,
    "\u00e9\u0127": 2221,
    "\u012a\u013a": 2222,
    "\u00e5\u0127\u00ac\u00e5\u0131\u00b8": 2223,
    "\u00e7\u00a8\u012d": 2224,
    "ja": 2225,
    "\u0120\u00d8\u00a7\u00d9\u0126\u00d8\u00a5": 2226,
    "alse": 2227,
    "\u00e7\u013f": 2228,
    "\u00e6\u0141": 2229,
    "\u00eb\u0131\u0126": 2230,
    "\u0120If": 2231,
    "ule": 2232,
    "\u00e9\u0129\u0133": 2233,
    "\u00e0\u00b9\u012b": 2234,
    "\u0120\u00d9\u0127\u00d8\u00b9": 2235,
    "\u0120\u00d1\u012f": 2236,
    "OR": 2237,
    "\";": 2238,
    "\u00d8\u00b1\u00d9\u012a": 2239,
    "Val": 2240,
    "\u0120\u00ea\u00b2": 2241,
    "play": 2242,
    "nal": 2243,
    "\u0120og": 2244,
    "\u00e5\u00a4\u0138": 2245,
    "\u00e8\u00a1\u00a8": 2246,
    "\u0120her": 2247,
    "aking": 2248,
    "\u00d1\u0138": 2249,
    "ength": 2250,
    "amp": 2251,
    "ics": 2252,
    "\u00e8\u012c": 2253,
    "\u00e7\u013d\u00b8": 2254,
    "\u00e7\u00b1": 2255,
    "\u0120\u00d8\u00a7\u00d8\u00b2": 2256,
    "wit": 2257,
    "ott": 2258,
    "duct": 2259,
    "\u00d0\u00bd\u00d0\u00b0": 2260,
    "\u00e8\u0132": 2261,
    "\u010a\u0120\u0120\u0120\u0120\u010a": 2262,
    "\u00eb\u00a6": 2263,
    "\u0120based": 2264,
    "que": 2265,
    "\u0120been": 2266,
    "\u0120would": 2267,
    "\u0120dec": 2268,
    "\u00e0\u00a4\u00a8": 2269,
    "\u0120only": 2270,
    "\u00e9\u0125\u00bd": 2271,
    "min": 2272,
    "ities": 2273,
    "\u00d8\u00b1\u00d8\u00a8": 2274,
    "\u0120ra": 2275,
    "\u0120\u00d8\u00b5": 2276,
    "\u0120through": 2277,
    "\u00d8\u00aa\u00d9\u0129": 2278,
    "\u00e8\u00ae\u00a1": 2279,
    "ced": 2280,
    "\u00e0\u00a7\u012f": 2281,
    "\u00e9\u0139\u00b4": 2282,
    "air": 2283,
    "ka": 2284,
    "\u0120such": 2285,
    "ood": 2286,
    "\u00e5\u00a6\u0124": 2287,
    "\u0120ac": 2288,
    "\u0120user": 2289,
    "|>": 2290,
    "\u00e7\u00b4": 2291,
    "hes": 2292,
    "ople": 2293,
    "yg": 2294,
    "\u0120implement": 2295,
    "\u00e4\u00bf\u00a1": 2296,
    "data": 2297,
    "red": 2298,
    "\u00e6\u00af\u0136": 2299,
    "...": 2300,
    "\u00c5\u0124": 2301,
    "\u00e0\u00a7\u012f\u00e0\u00a6": 2302,
    "\u0120fl": 2303,
    "%%": 2304,
    "\u0120\u00d8\u00a7\u00d9\u0126\u00d8\u0143": 2305,
    "ces": 2306,
    "\u0120\u00d9\u0127\u00db\u012e": 2307,
    "\u00e6\u013e\u00af": 2308,
    "\u00e5\u0132\u012f": 2309,
    "\u00d0\u00b8\u00d0\u00bc": 2310,
    "\u0120\u00da\u00af": 2311,
    "\u0120form": 2312,
    "\u0120je": 2313,
    "ins": 2314,
    "\u00ef\u00bc\u013d": 2315,
    "\u0120\u00d0\u00be\u00d1\u0124": 2316,
    "fore": 2317,
    "\u0120sm": 2318,
    "IT": 2319,
    "att": 2320,
    "\u00e3\u0125\u00bc\u00e3\u0125": 2321,
    "SE": 2322,
    "urrent": 2323,
    "\u00e7\u0124\u00b9": 2324,
    "\u0120where": 2325,
    "aw": 2326,
    "\u00d9\u0127\u00d9\u0128": 2327,
    "\u0120list": 2328,
    "\u00e5\u00bd\u0135": 2329,
    "\u0120som": 2330,
    "\u0120Un": 2331,
    "\u0120Tr": 2332,
    "\u0120type": 2333,
    "\u00e5\u0133\u013a": 2334,
    "\u0120es": 2335,
    "\u00d9\u0127\u00d9\u0126": 2336,
    "\u00d9\u012a\u00d9\u0124": 2337,
    "ator": 2338,
    "\u00e0\u00b4\u00bf": 2339,
    "Data": 2340,
    "\u0120off": 2341,
    "date": 2342,
    "ution": 2343,
    "\u0120know": 2344,
    "\u0120ir": 2345,
    "ctions": 2346,
    "ui": 2347,
    "\u0120\u00ec\u00a7": 2348,
    "ethod": 2349,
    "\u0120ph": 2350,
    "\u00e7\u00b3\u00bb": 2351,
    "\u0120hel": 2352,
    "yn": 2353,
    "\u0120\u00d0\u00be\u00d0\u00b1": 2354,
    "\u0120str": 2355,
    "\u0120Con": 2356,
    "\u00e7\u00a7\u0133": 2357,
    "\u0120He": 2358,
    "\u00d5\u00a1\u00d5": 2359,
    "let": 2360,
    "ser": 2361,
    "\u00e3\u0124\u012b": 2362,
    "\u00e3\u0122\u012d": 2363,
    "\u00e5\u00a4\u00a9": 2364,
    "\u00e3\u0123\u0128": 2365,
    "\u00e1\u0125\u013a": 2366,
    "\u0120\u00d0\u00a1": 2367,
    "reat": 2368,
    "\u00e7\u0138": 2369,
    "\u0120\u00d8\u00a5\u00d9\u0126\u00d9\u012b": 2370,
    "ev": 2371,
    "\u00e5\u00b9\u00b6": 2372,
    "\u00e3\u0122\u012c": 2373,
    "\u00d0\u0132": 2374,
    "ider": 2375,
    "\u00e7\u0126": 2376,
    "\u0120\u00d8\u00a7\u00d9\u0126\u00d8\u00ac": 2377,
    "order": 2378,
    "any": 2379,
    "\u0120\u00c4": 2380,
    "\u00d0\u00b0\u00d0\u00b2": 2381,
    "\u010d\u010a\u010d\u010a": 2382,
    "DE": 2383,
    "\u0140\u00d7": 2384,
    "ough": 2385,
    "fig": 2386,
    "\u00e6\u0125\u0127": 2387,
    "\u0120met": 2388,
    "\u0120\u00ec\u0137": 2389,
    "\u0120want": 2390,
    "\u0120right": 2391,
    "ork": 2392,
    "AAAA": 2393,
    "\u00e3\u0124\u012c": 2394,
    "\u0120follow": 2395,
    "\u00e5\u012a\u00a9": 2396,
    "\u0120print": 2397,
    "\u00d8\u00b9\u00d8\u00af": 2398,
    "\u00e5\u00ae\u012b": 2399,
    "\u00e6\u0123": 2400,
    "\u0120inform": 2401,
    "\u00d8\u00a7\u00d8\u00ac": 2402,
    "ures": 2403,
    "right": 2404,
    "\u0120ter": 2405,
    "ular": 2406,
    "\u00ec\u0140\u0132": 2407,
    "ti": 2408,
    "\u0120ever": 2409,
    "iven": 2410,
    "\u0120condition": 2411,
    "\u0120\u00c3\u00ae": 2412,
    "\u0120program": 2413,
    "return": 2414,
    "\u00eb\u00a7": 2415,
    "\u00e1\u0125\u0132\u00e1\u0125": 2416,
    "bu": 2417,
    "unc": 2418,
    "\u0120high": 2419,
    "\u00eb\u00b6": 2420,
    "\u00d0\u00b0\u00d0\u00bd\u00d0\u00b8": 2421,
    "\u0120Wh": 2422,
    "\u00d0\u00be\u00d0\u00ba": 2423,
    "\u00e4\u00bc\u0123": 2424,
    "roup": 2425,
    "ource": 2426,
    "ision": 2427,
    "\u00e5\u0127\u0125": 2428,
    "ground": 2429,
    "\u00e5\u00b9\u00b3": 2430,
    "type": 2431,
    "\u0120\u00d8\u00a7\u00d9\u0126\u00d8\u00af": 2432,
    "\u0120\u00d8\u00a7\u00d9\u0128": 2433,
    "\u00e7\u00a7\u012f": 2434,
    "\u0120now": 2435,
    "ody": 2436,
    "\u0120tra": 2437,
    "\u00e0\u00b8\u0143\u00e0\u00b8": 2438,
    "\u00d8\u00aa\u00d9\u0127": 2439,
    "*/": 2440,
    "els": 2441,
    "\u0120\u00d1\u0123\u00d1\u0124": 2442,
    "ines": 2443,
    "rop": 2444,
    "\u0120here": 2445,
    "\u0120ed": 2446,
    "\u00d1\u0122\u00d0\u00b5\u00d0\u00b4": 2447,
    "\u00e6\u013d\u00b4": 2448,
    "\u00e9\u013e": 2449,
    "\u00db\u012e\u00d9\u0128": 2450,
    "\u00e4\u00b8\u012b": 2451,
    "\u00d0\u00b8\u00d0\u00b2": 2452,
    "AN": 2453,
    "uc": 2454,
    "ext": 2455,
    "\u00e4\u00bb\u00a3": 2456,
    "\u00e5\u013d\u0142": 2457,
    "\u0120\u00d8\u00a7\u00d9\u0126\u00d9\u0124": 2458,
    "oy": 2459,
    "\u0120fin": 2460,
    "resent": 2461,
    "\u00e7\u0139": 2462,
    "i\u00c3\u00b3": 2463,
    "\u00e7\u00be\u0130": 2464,
    "\u00e0\u00a4\u0137": 2465,
    "\u00e6\u00b4\u00bb": 2466,
    "\u00ec\u0138": 2467,
    "tem": 2468,
    "\u0120\u0120\u0120\u0120\u0120\u0120\u0120\u0120\u0120\u0120\u0120\u0120\u0120\u0120\u0120\u0120\u0120\u0120\u0120": 2469,
    "\u00e4\u00b8\u0143\u00e5\u013d\u00bd": 2470,
    "\u00e6\u0136\u00bf": 2471,
    "\u0120cor": 2472,
    "\u0125\u0123": 2473,
    "\u00e5\u00a3": 2474,
    "\u0120dan": 2475,
    "\u00e5\u0137": 2476,
    "\u0120Z": 2477,
    "bl": 2478,
    "\u00e6\u00b0\u0133": 2479,
    "\u0120\u00e1\u0125": 2480,
    "\u0120going": 2481,
    "ages": 2482,
    "Res": 2483,
    "}.": 2484,
    "\u0120co": 2485,
    "test": 2486,
    "\u0123\u00e0\u00b8": 2487,
    "gy": 2488,
    "ases": 2489,
    "ze": 2490,
    "\u00e9\u0136": 2491,
    "\u0120start": 2492,
    "\u00e6\u013a\u0130": 2493,
    "\u0120people": 2494,
    "ond": 2495,
    "\u00e4\u00bd\u00bf": 2496,
    "\u00e6\u0126\u0131": 2497,
    "\u0120used": 2498,
    "ices": 2499,
    "be": 2500,
    "alth": 2501,
    "imes": 2502,
    "\u00e0\u00a6\u00bf": 2503,
    "\u0120ap": 2504,
    "\u00e3\u0123\u0135": 2505,
    "\u00eb\u0135": 2506,
    "\u013e\u00d7": 2507,
    "\u00e8\u012d": 2508,
    "\u00e5\u00bc\u0131": 2509,
    "\u0120ind": 2510,
    "\u0120well": 2511,
    "IC": 2512,
    "${": 2513,
    "\u00d8\u00a5": 2514,
    "oj": 2515,
    "ower": 2516,
    "ature": 2517,
    "gan": 2518,
    "\u0120\u00ec\u012d": 2519,
    "\u00e3\u0124\u00a4": 2520,
    "\u0120test": 2521,
    "\u00e7\u012b\u00b9": 2522,
    "irect": 2523,
    "string": 2524,
    "\u00e4\u00bb\u0130": 2525,
    "ements": 2526,
    "\u00e6\u00ac\u00a1": 2527,
    "ween": 2528,
    "kan": 2529,
    "\u0120Ex": 2530,
    "ih": 2531,
    "\u00e9\u0123\u0135": 2532,
    "\u00e7\u00bd\u0133": 2533,
    "\u0120ver": 2534,
    "velop": 2535,
    "\u00c5\u00ab": 2536,
    "\u00e5\u0141\u00ba": 2537,
    "\u0120van": 2538,
    "\u0133\u00d7": 2539,
    "\u0120\u00d0\u00b5": 2540,
    "\u00d9\u0129\u00d9\u0127": 2541,
    "\u00e0\u00b3\u012f": 2542,
    "ts": 2543,
    "ote": 2544,
    "\u00e7\u0125": 2545,
    "amet": 2546,
    "''": 2547,
    "\u0120pat": 2548,
    "\u00e9\u00a6": 2549,
    "\u00d0\u00b5\u00d0\u00ba": 2550,
    "\u00eb\u00b3": 2551,
    "\u0120\u00e0\u00a4\u00b8": 2552,
    "AC": 2553,
    "\u0120level": 2554,
    "\u0120\u00d8\u00b9\u00d9\u0128": 2555,
    "\u00e4\u00b8\u0135": 2556,
    "\u00e7\u00a1": 2557,
    "uch": 2558,
    "\u0120public": 2559,
    "\u00e0\u00b8\u013b\u00e0\u00b8": 2560,
    "ren": 2561,
    "\u00e3\u0122\u012e": 2562,
    "\u00e3\u0122\u012f": 2563,
    "ument": 2564,
    "\u00ec\u0124\u00ac": 2565,
    "\u00ec\u013f\u00b8": 2566,
    "\u00d0\u00be\u00d0\u00b6": 2567,
    "\u00c4\u013b": 2568,
    "\u00d0\u00bb\u00d1\u0131": 2569,
    "ency": 2570,
    "\u0120\u00d0\u00bb": 2571,
    "\u0120loc": 2572,
    "\u0120read": 2573,
    "\u0120\u00d0\u0141": 2574,
    "\u0120\u00c3\u00a9": 2575,
    "kt": 2576,
    "\u0120could": 2577,
    "log": 2578,
    "\u00ec\u013e\u00bc": 2579,
    "\u00a9\u00d7": 2580,
    "\u00e5\u0131\u0133\u00e5\u00b1\u0137": 2581,
    "\u0120\u00d8\u00a7\u00db\u012e\u00d9\u0128": 2582,
    "\u0120\u00eb\u00a7": 2583,
    "String": 2584,
    "ern": 2585,
    "\u00d8\u00a8\u00d9\u012c": 2586,
    "\u0120require": 2587,
    "\u00eb\u0142": 2588,
    "\u00d0\u00b5\u00d0\u00bb\u00d1\u012e": 2589,
    "########": 2590,
    "\u0120tem": 2591,
    "\u0120control": 2592,
    "\u00eb\u00b0": 2593,
    "uring": 2594,
    "\u00e8\u00af\u00b4": 2595,
    "witch": 2596,
    "\u00e7\u00a5": 2597,
    "\u00e5\u00b7\u00a5\u00e4\u00bd\u013e": 2598,
    "FFFFFFFF": 2599,
    "\u00e0\u00a4\u00a4": 2600,
    "\u00c4\u013d": 2601,
    "\u0120\u00ec\u0139": 2602,
    "\u0120inv": 2603,
    "\u00e4\u00bc\u0123\u00e4\u00b8\u013c": 2604,
    "\u0120Re": 2605,
    "\u00e8\u012a": 2606,
    "\u0120var": 2607,
    "\u00e8\u00bd\u00a6": 2608,
    "\u00d0\u00be\u00d1\u0123\u00d1\u0124": 2609,
    "}{": 2610,
    "\u0120tak": 2611,
    "\u00e9\u0135": 2612,
    "\u00e9\u00a1\u00b9": 2613,
    "\u00e9\u013b\u00a2": 2614,
    "af": 2615,
    "\u0120\u00e0\u00a8": 2616,
    "\u0120dat": 2617,
    "else": 2618,
    "\u00e8\u00b4\u00a8": 2619,
    "str": 2620,
    "\u0120der": 2621,
    "\u0120case": 2622,
    "\u0120between": 2623,
    "ault": 2624,
    "\u0120true": 2625,
    "case": 2626,
    "\u0126\u00e0\u00b8": 2627,
    "ily": 2628,
    "\u0120sur": 2629,
    "ful": 2630,
    "\u00d8\u00a7\u00d8\u00b4": 2631,
    "\u0120find": 2632,
    "\u0120\u00d0\u0134": 2633,
    "To": 2634,
    "\u0120check": 2635,
    "Com": 2636,
    "\u0120ser": 2637,
    "\u0120\u00d8\u00b7": 2638,
    "\u00e8\u00bf\u013a": 2639,
    "\u00e6\u012a\u0133\u00e4\u00bb\u00ac": 2640,
    "\u0120rep": 2641,
    "fl": 2642,
    "\u0120see": 2643,
    "\u0120\u00d7\u0136\u00d7": 2644,
    "\u0120tot": 2645,
    "\u0120\u00d0\u013c": 2646,
    "\u0120dep": 2647,
    "\u00e6\u013e\u012f": 2648,
    "\u0120dist": 2649,
    "\u00e6\u012b\u012d": 2650,
    "\u00e5\u0140": 2651,
    "\u00e7\u00b2": 2652,
    "isk": 2653,
    "\u00d9\u012a\u00d8\u00b2": 2654,
    "\u0120del": 2655,
    "\u00d8\u00a7\u00d8\u00b5": 2656,
    "mod": 2657,
    "yth": 2658,
    "\u00e7\u013f\u0122": 2659,
    "\u0120\u00d8\u00a7\u00d9\u0126\u00d8\u00b4": 2660,
    "\u00e6\u0143\u00a4": 2661,
    "\u0120file": 2662,
    "\u00e6\u00ba": 2663,
    "\u00e6\u012a\u0138": 2664,
    "Ch": 2665,
    "\u00d9\u012c\u00d8\u00b3": 2666,
    "cent": 2667,
    "\u0120Com": 2668,
    "\u0109if": 2669,
    "\u00e0\u00b4\u00bf\u00e0\u00b4": 2670,
    "\u00e4\u00b8\u0129": 2671,
    "\u00eb\u00a6\u00ac": 2672,
    "\u00e5\u0132\u0126": 2673,
    "\u00e0\u00a9": 2674,
    "\u00e6\u012f\u00ae": 2675,
    "var": 2676,
    "color": 2677,
    "\u0120yang": 2678,
    "\u00e6\u00b7": 2679,
    "\u0120Al": 2680,
    "\u00ec\u013d\u0132": 2681,
    "ify": 2682,
    "ames": 2683,
    "\u00eb\u00a9": 2684,
    "\u0120care": 2685,
    "ank": 2686,
    "\u00e6\u012e\u0123": 2687,
    "\u00e8\u00b5\u00b7": 2688,
    "Sc": 2689,
    "<<": 2690,
    "ann": 2691,
    "\u00e6\u00a1": 2692,
    "\u00ec\u012d\u013e": 2693,
    "ffect": 2694,
    "aut": 2695,
    "\u0109return": 2696,
    "RO": 2697,
    "oh": 2698,
    "\u00e4\u00b8\u0122\u00e4\u00b8\u00aa": 2699,
    "\u00e8\u00a7\u0126": 2700,
    "for": 2701,
    "\u00e7\u0142\u0136": 2702,
    "cept": 2703,
    "\u00e5\u00b8\u00b8": 2704,
    "\u0120We": 2705,
    "ational": 2706,
    "\u0120cent": 2707,
    "la": 2708,
    "\u0120Q": 2709,
    "\u00e0\u00a4\u00b2": 2710,
    "ense": 2711,
    "\u00ec\u013a": 2712,
    "AM": 2713,
    "\u0120gener": 2714,
    "ara": 2715,
    "\u0120look": 2716,
    "\u0120\u00d8\u00a7": 2717,
    "\u00e6\u0143\u00a3": 2718,
    "\u0120\u00d8\u00a7\u00d9\u0126\u00d9\u0128": 2719,
    "\u0120\u00ea\u00b3": 2720,
    "\u00e3\u0123\u00a6\u00e3\u0123\u0126": 2721,
    "\u00e3\u0125\u012a": 2722,
    "\u0120after": 2723,
    "argin": 2724,
    "\u0120\u00d8\u00a7\u00d9\u0126\u00d9\u0123": 2725,
    "\u0120said": 2726,
    "ender": 2727,
    "\u00e6\u0140\u013e": 2728,
    "sk": 2729,
    "ife": 2730,
    "\u00e7\u0126\u00b6": 2731,
    "ious": 2732,
    "\u0120til": 2733,
    "\"\"": 2734,
    "size": 2735,
    "\u0120ma": 2736,
    "frac": 2737,
    "\u0120she": 2738,
    "\u00d8\u00a7\u00d9\u012d": 2739,
    "iene": 2740,
    "\u00d2\u00af": 2741,
    "\u0120handle": 2742,
    "\u0120\u00ec\u0126": 2743,
    "oss": 2744,
    "no": 2745,
    "\u0120person": 2746,
    "\u00e6\u0139\u0142": 2747,
    "ton": 2748,
    "Value": 2749,
    "\u00d9\u012a\u00d8\u00b3": 2750,
    "\u00c8\u013d": 2751,
    "\u00a3\u00bc": 2752,
    "\u00d1\u0125\u00d0\u00b4": 2753,
    "\u00e6\u0142\u0129": 2754,
    "\u00d0\u00be\u00d0\u00b7": 2755,
    "cond": 2756,
    "\u0120text": 2757,
    "\u00d0\u00b0\u00d1\u0124\u00d1\u012e": 2758,
    "\u0120fr": 2759,
    "[]": 2760,
    "\u0120most": 2761,
    "\u0120import": 2762,
    "ET": 2763,
    "\u00e7\u0136\u00b1": 2764,
    "\u0120fil": 2765,
    "\u0120process": 2766,
    "\u0120att": 2767,
    "other": 2768,
    "\u00d8\u00b1\u00d8\u00a9": 2769,
    "\u0120count": 2770,
    "wer": 2771,
    "\u00ce\u00b1": 2772,
    "\u00e8\u00a2": 2773,
    "\u0120sch": 2774,
    "\u00e4\u00bd\u0128": 2775,
    "ability": 2776,
    "\u0120err": 2777,
    "\u00e4\u00bb\u00b6": 2778,
    "();": 2779,
    "ml": 2780,
    "\u00e5\u0137\u0128": 2781,
    "ader": 2782,
    "\u00ec\u012c\u00a4": 2783,
    "file": 2784,
    "ersion": 2785,
    "\u0120\u00d1\u0127": 2786,
    "por": 2787,
    "Er": 2788,
    "trans": 2789,
    "ward": 2790,
    "\u00d8\u00b1\u00db\u012e": 2791,
    "\u00e0\u00b2\u00bf": 2792,
    "\u0120real": 2793,
    "\u0120char": 2794,
    "\u00e0\u00a6\u00b0": 2795,
    "\u0120\u00e0\u00a4\u00ae": 2796,
    "ene": 2797,
    "\u00e9\u0124": 2798,
    "function": 2799,
    "aining": 2800,
    "\u00d0\u00be\u00d0\u00bf": 2801,
    "<|": 2802,
    "comm": 2803,
    "\u00d8\u00a8\u00d9\u0126": 2804,
    "\u0120bel": 2805,
    "\u00d9\u0127\u00d8\u00a9": 2806,
    "\u0120whe": 2807,
    "ina": 2808,
    "\u00e5\u00a2\u0140": 2809,
    "\u0120\u00d8\u00a8\u00d8\u00a7": 2810,
    "\u00d1\u0129\u00d0\u00b5": 2811,
    "\u00d0\u00b2\u00d0\u00b0": 2812,
    "\u0120\u00eb\u012e\u0122": 2813,
    "\u00e7\u00a4\u00be": 2814,
    "br": 2815,
    ",\"": 2816,
    "ams": 2817,
    "\u00e8\u012f": 2818,
    "self": 2819,
    "\u0129\u00e0\u00b8": 2820,
    "((": 2821,
    "\u00e9\u0129\u012e": 2822,
    "\");": 2823,
    "\u00d9\u0128\u00d8\u00a7": 2824,
    "--------------------------------": 2825,
    "\u00d0\u013f": 2826,
    "\u0120\u00d9\u0127\u00d8\u0143": 2827,
    "\u0120har": 2828,
    "\u00e6\u00b5\u00b7": 2829,
    "\u00e7\u00ab\u012d": 2830,
    "ined": 2831,
    "\u00ec\u013e\u00bc\u00eb\u00a1\u013e": 2832,
    "\u00ec\u0140\u00a5": 2833,
    "\u0120\u00c3\u00aen": 2834,
    "\u0120Se": 2835,
    "\u00c4\u0129": 2836,
    "\u00d0\u00b8\u00d1\u0127": 2837,
    "\u0120\u00d1\u0129\u00d1\u0124\u00d0\u00be": 2838,
    "\u0120X": 2839,
    "\u00eb\u013f": 2840,
    "\u0120equ": 2841,
    "\u0120while": 2842,
    "land": 2843,
    "print": 2844,
    "back": 2845,
    "\u0120because": 2846,
    "teger": 2847,
    "\u0120top": 2848,
    "\u00ec\u00b2": 2849,
    "\u00d0\u00a1": 2850,
    "\u00e5\u012a\u013d": 2851,
    "adi": 2852,
    "\u00e6\u0142\u00a1": 2853,
    "\u0120\u00ec\u013a": 2854,
    "\u0120many": 2855,
    "\u00e8\u00a7\u00a3": 2856,
    "\u0120Ar": 2857,
    "\u00e9\u013d\u0128": 2858,
    "\u00e8\u00a3": 2859,
    "\u0120\u0120\u0120\u0120\u0120\u0120\u0120\u0120\u0120\u0120": 2860,
    "\u0120call": 2861,
    "\u0120flow": 2862,
    "\u00e6\u0126\u0141": 2863,
    "\u0120vis": 2864,
    "ets": 2865,
    "\u0120log": 2866,
    "num": 2867,
    "ession": 2868,
    "endof": 2869,
    "\u0120help": 2870,
    "\u0120poss": 2871,
    "UT": 2872,
    "\u00e7\u00bc": 2873,
    "\u00ec\u0142\u0137": 2874,
    "by": 2875,
    "rem": 2876,
    "\u00e5\u00be\u012a": 2877,
    "\u00da\u00ba": 2878,
    "ists": 2879,
    "endoftext": 2880,
    "\u00e6\u012c\u00a5": 2881,
    "\u00e0\u00ab": 2882,
    "\u00d0\u00be\u00d0\u00bb\u00d1\u012e": 2883,
    "\u0120\u00ec\u013f\u00b4": 2884,
    "\u00d0\u00b5\u00d0\u00bd\u00d1\u0124": 2885,
    "idd": 2886,
    "\u0120ve": 2887,
    "\u0120beg": 2888,
    "\u0120\u00da\u00a9\u00d9\u0129": 2889,
    "\u0120mat": 2890,
    "\u0120given": 2891,
    "po": 2892,
    "\u00d9\u0129\u00d8\u00a7\u00db\u012e": 2893,
    "\u00e9\u0122\u0142": 2894,
    "lease": 2895,
    "\u00c5\u0133": 2896,
    "\u0120comple": 2897,
    "\u0120\u00d5": 2898,
    "ygiene": 2899,
    "\u0120\u00d8\u00b2": 2900,
    "\u00e1\u0125\u0136": 2901,
    "\u00d8\u00b9\u00d8\u00a9": 2902,
    "\u0132\u00d7": 2903,
    "\u0120\u00d0\u00b2\u00d1\u012d": 2904,
    "arn": 2905,
    "tern": 2906,
    "\u00e7\u00bb\u0141": 2907,
    "\u0120before": 2908,
    "\u0120\u00d0\u013e": 2909,
    "\u00e6\u0124": 2910,
    "\u0120Res": 2911,
    "\u00e9\u0134": 2912,
    "\u0120\u00d8\u00a7\u00d9\u0126\u00d8\u00ae": 2913,
    "\u00e0\u00b3\u012f\u00e0\u00b2": 2914,
    "\u0120\u00e0\u00a4\u00aa": 2915,
    "wn": 2916,
    "\u0120put": 2917,
    "\u0120system": 2918,
    "')": 2919,
    "\u0120die": 2920,
    "\u0120\u00d1\u0122\u00d0\u00b5": 2921,
    "\u0120long": 2922,
    "\u00da\u0128": 2923,
    "\u00e5\u00bc\u00ba": 2924,
    "\u00e4\u00ba\u00a4": 2925,
    "ED": 2926,
    "Ar": 2927,
    "\u00d0\u00ba\u00d0\u00b8": 2928,
    "\u00c3\u00a7": 2929,
    "ava": 2930,
    "pport": 2931,
    "\u00d9\u0126\u00d9\u0125": 2932,
    "\u0120does": 2933,
    "\u0120way": 2934,
    "\u0120lo": 2935,
    "itle": 2936,
    "\u0120down": 2937,
    "\u00e3\u0125\u00ab": 2938,
    "\u00e8\u00a8": 2939,
    "\u0120exp": 2940,
    "ba": 2941,
    "\u00d0\u00b5\u00d0\u00bd\u00d0\u00b8\u00d1\u0131": 2942,
    "\u0120ut": 2943,
    "\u0120method": 2944,
    "\u00ed\u013a": 2945,
    "left": 2946,
    "son": 2947,
    "\u0120water": 2948,
    "ama": 2949,
    "\u00ed\u013b": 2950,
    "\u00e5\u0132\u0133": 2951,
    "\u00e5\u0131\u00af\u00e4\u00bb\u00a5": 2952,
    "\u0120br": 2953,
    "\u00e6\u012c\u0122\u00e6\u013e\u00af": 2954,
    "\u00e8\u0125": 2955,
    "\u00e9\u00a3\u0130": 2956,
    "\u00e5\u0140\u012d": 2957,
    "\u0120De": 2958,
    "\u00d1\u0122\u00d0\u00b8": 2959,
    "/*": 2960,
    "\u0120sl": 2961,
    "\u0120fam": 2962,
    "\u0120gl": 2963,
    "ey": 2964,
    "\u0120take": 2965,
    "\u00e5\u00a4\u0126": 2966,
    "\u00e8\u00b7\u00af": 2967,
    "\u0120Here": 2968,
    "\u00e3\u0123\u0137": 2969,
    "List": 2970,
    "ited": 2971,
    "ln": 2972,
    "\u00e3\u0125\u0125": 2973,
    "\u00d0\u00bd\u00d1\u012d\u00d1\u0127": 2974,
    "ting": 2975,
    "\u00d0\u00b0\u00d1\u0123": 2976,
    "\u00e5\u00b7\u00b2": 2977,
    "\u00e0\u00b8\u00b5": 2978,
    "\u00e4\u00ba\u012e": 2979,
    "\u00d0\u0134": 2980,
    "\u0120run": 2981,
    "\u00e4\u00bb\u00bb": 2982,
    "yle": 2983,
    "go": 2984,
    "\u00d9\u0127\u00d8\u00a7\u00d9\u0128": 2985,
    "Par": 2986,
    "egin": 2987,
    "\u00e5\u0131\u0139": 2988,
    "sub": 2989,
    "\u00d8\u00b1\u00d9\u0125": 2990,
    "\u00d8\u0143\u00d8\u00af": 2991,
    "\u00e5\u0127\u00b7": 2992,
    "};": 2993,
    "\u00e3\u0123\u0131": 2994,
    "iem": 2995,
    "urs": 2996,
    "ica": 2997,
    "AB": 2998,
    "\u00e6\u00b5\u0123": 2999,
    "\u0120information": 3000,
    "\u00eb\u013f\u00bc": 3001,
    "\u00d0\u00b4\u00d0\u00b0": 3002,
    "\u00ec\u013f\u00bc": 3003,
    "\u00e6\u00b1\u0124": 3004,
    "++": 3005,
    "iver": 3006,
    "\u00d9\u0124\u00d8\u00af": 3007,
    "esc": 3008,
    "\u0120even": 3009,
    "\u0120did": 3010,
    "ism": 3011,
    "ane": 3012,
    "\u00db\u012e\u00d8\u00af": 3013,
    "****************": 3014,
    "\u00e7\u0123": 3015,
    "\u00e6\u0142\u00bc": 3016,
    "list": 3017,
    "\u0120current": 3018,
    "\u00e5\u00bd\u00b1": 3019,
    "\u00e7\u00a4\u00ba": 3020,
    "\u00d9\u0127\u00d8\u00af": 3021,
    "\u00e2\u0122\u013a": 3022,
    "\u00e8\u00a5": 3023,
    "\u0120\u00cf": 3024,
    "inter": 3025,
    "\u0120om": 3026,
    "\u0120dr": 3027,
    "raph": 3028,
    "\u00e8\u0129\u00b3": 3029,
    "\u0120\u00d0\u0142": 3030,
    "\u00d1\u0125\u00d1\u0124": 3031,
    "\u00d8\u00b9\u00d9\u0126": 3032,
    "\u00e7\u00ba\u00a7": 3033,
    "\u00e7\u00a6": 3034,
    "\u0120whether": 3035,
    "\u00eb\u012d\u012a\u00eb\u012d\u00a4": 3036,
    "ush": 3037,
    "ness": 3038,
    "\u00e0\u00a5\u0123": 3039,
    "\u0120switch": 3040,
    "\u0120\u00d0\u00b8\u00d0\u00b7": 3041,
    "ember": 3042,
    "\u0120gu": 3043,
    "gg": 3044,
    "\u00e8\u0124\u00b2": 3045,
    "loat": 3046,
    "\u00d1\u0123\u00d1\u0124\u00d0\u00b8": 3047,
    "ION": 3048,
    "\u00d1\u0131\u00d1\u0124": 3049,
    "\u00e7\u00bb\u0135": 3050,
    "CT": 3051,
    "\u00e7\u00bb\u0126": 3052,
    "ii": 3053,
    "\u0120unt": 3054,
    "\u00e4\u00ba\u013d": 3055,
    "\u00e6\u0130\u00a5": 3056,
    "\u0120\u00eb\u0124": 3057,
    "\u0120don": 3058,
    "\u00e5\u012d": 3059,
    "\u0120calcul": 3060,
    "\u00e8\u00a2\u00ab": 3061,
    "\u00e8\u00a5\u00bf": 3062,
    "\u00e5\u012f\u0137": 3063,
    "\u00e5\u0130\u0141": 3064,
    "\u0120\u00e0\u00a4\u00b9": 3065,
    "\u00ec\u0139\u0132\u00ec\u0126\u013e": 3066,
    "requ": 3067,
    "://": 3068,
    "\u00c4\u0141": 3069,
    "\u00e7\u0141\u00a5": 3070,
    "Se": 3071,
    "\u00ce\u00bf": 3072,
    "i\u00c3\u00b3n": 3073,
    "oo": 3074,
    "\u00e6\u0136\u00b6": 3075,
    "\u00e0\u00a4\u00b9": 3076,
    "\u0120respon": 3077,
    "\u00c8\u013b": 3078,
    "stand": 3079,
    "\u0120total": 3080,
    "\u00e5\u0138": 3081,
    "the": 3082,
    "||": 3083,
    "\u0120tech": 3084,
    "\u00e8\u00bf\u0132": 3085,
    "\u00e4\u00be\u013d": 3086,
    "\u0120For": 3087,
    "\u0120point": 3088,
    "\u00e3\u0123\u012f": 3089,
    "\u00e7\u012a": 3090,
    "\u00c9\u013br": 3091,
    "\u00d0\u00b8\u00d1\u0123": 3092,
    "\u0120You": 3093,
    "ana": 3094,
    "\u00a8\u00d7": 3095,
    "ather": 3096,
    "\u00c3\u00a2": 3097,
    "\u0120again": 3098,
    "\u0120ja": 3099,
    "\u00e8\u00ba": 3100,
    "\u00d8\u00a7\u00d8\u00b7": 3101,
    "not": 3102,
    "\u00eb\u012e\u0122": 3103,
    "ential": 3104,
    "\u00ea\u00b3\u00bc": 3105,
    "\u00e9\u013e\u0122": 3106,
    "\u00d9\u012c\u00d8\u00a7": 3107,
    "AS": 3108,
    "ven": 3109,
    "\u0120sign": 3110,
    "ten": 3111,
    "\u00e1\u0125\u013a\u00e1\u0125": 3112,
    "\u0120ins": 3113,
    "\u0120both": 3114,
    "\u0120include": 3115,
    "ually": 3116,
    "\u00d8\u00a4": 3117,
    "\u00d0\u00b3\u00d0\u00be": 3118,
    "\u00e0\u00a4\u00b8": 3119,
    "\u00e6\u013e\u012f\u00e5\u012c\u00a1": 3120,
    "ppet": 3121,
    "pre": 3122,
    "\u0120New": 3123,
    "\u00e2\u0122\u00a6": 3124,
    "\u0120bre": 3125,
    "ptions": 3126,
    "my": 3127,
    "\u0120determ": 3128,
    "\u0120art": 3129,
    "item": 3130,
    "\u0120found": 3131,
    "\u0120struct": 3132,
    "\u0120het": 3133,
    "\u00e4\u00b8\u0138": 3134,
    "\u0120\u00d0\u013f": 3135,
    "\u0120sni": 3136,
    "ES": 3137,
    "Ob": 3138,
    "\u00e7\u00ae\u00a1\u00e7\u0132\u0128": 3139,
    "\u00e6\u0138\u013b": 3140,
    "\u00e1\u0125\u0136\u00e1\u0125": 3141,
    "\u0120priv": 3142,
    "\u00d9\u012a\u00d8\u00a8": 3143,
    "\u00c5\u013b": 3144,
    "Cont": 3145,
    "\u0120p\u00c3\u00a5": 3146,
    "\u00e9\u00aa": 3147,
    "\u00e9\u0139\u00a8": 3148,
    "fe": 3149,
    "ized": 3150,
    "$$": 3151,
    "\u0120statements": 3152,
    "\u0120develop": 3153,
    "\u00e4\u00bb\u012c": 3154,
    "\u00e6\u0122\u00bb": 3155,
    "\u0120vi": 3156,
    "clude": 3157,
    "\u00e5\u00af\u00bc": 3158,
    "da": 3159,
    "\u0120show": 3160,
    "\u00eb\u00ac": 3161,
    "\u00e6\u00b0\u0136": 3162,
    "\u0120IN": 3163,
    "\u0120proble": 3164,
    "\u00e5\u012e\u00bb": 3165,
    "\u0120word": 3166,
    "face": 3167,
    "\u00e3\u0125\u00a9": 3168,
    "\u00e5\u0131\u00b0": 3169,
    "\u00d0\u00bd\u00d0\u00be\u00d0\u00b9": 3170,
    "\u00e1\u00ba": 3171,
    "])": 3172,
    "\u0120vo": 3173,
    "\\[": 3174,
    "\u00e9\u00a2\u013a": 3175,
    "\u00e2\u0122\u0140": 3176,
    "\u00e7\u013e\u012d": 3177,
    "ives": 3178,
    "\u00e3\u0123\u0139\u00e3\u0123\u0141": 3179,
    "\u0120pass": 3180,
    "\u00e5\u00b1\u00b1": 3181,
    "\u0120\u00db\u0123": 3182,
    "\u00d0\u00b0\u00d0\u00bb\u00d1\u012e": 3183,
    "med": 3184,
    "\u00e7\u013e\u0123": 3185,
    "\u00c5\u00a3": 3186,
    "\u00d0\u00b5\u00d0\u00b2": 3187,
    "\u00e6\u012c\u0137": 3188,
    "Tr": 3189,
    "\u00e8\u0130": 3190,
    "Write": 3191,
    "\u00e5\u012f\u0139": 3192,
    "ever": 3193,
    "\u00e7\u0132\u0125": 3194,
    "\u00e4\u00bc\u0142": 3195,
    "\u0120den": 3196,
    "\u0120\u00e2": 3197,
    "\u00e5\u0127\u012a": 3198,
    "\u00e0\u00b5\u0123": 3199,
    "\u00e3\u0125\u00aa": 3200,
    "ado": 3201,
    "\u00e8\u0123\u0136": 3202,
    "\u00d8\u00b3\u00d8\u00a8": 3203,
    "\u00d1\u0122\u00d0\u00be\u00d0\u00b2": 3204,
    "\u0120message": 3205,
    "ants": 3206,
    "\u0120mon": 3207,
    "\u00ce\u00b9": 3208,
    "\u00e0\u00a5\u012f\u00e0\u00a4\u00af": 3209,
    "\u00e5\u0127\u00b1": 3210,
    "!=": 3211,
    "\u00e5\u012f\u0123": 3212,
    "\u0120snippet": 3213,
    "\u00e6\u00bb": 3214,
    "use": 3215,
    "\u0120\u00ec\u00a7\u0122": 3216,
    "\u00d9\u0123\u00d9\u012c": 3217,
    "\u00ec\u0128": 3218,
    "ittle": 3219,
    "\u0120\u00eb\u012d": 3220,
    "\u0120provid": 3221,
    "\u00e8\u00be\u00be": 3222,
    "&&": 3223,
    "\u00d8\u00a7\u00d8\u00b6": 3224,
    "UR": 3225,
    "\u00d9\u0129\u00d8\u00b1": 3226,
    "\u00e6\u00b8\u00b8": 3227,
    "\u0120\u00d0\u00b6": 3228,
    "\u010a\u010a\u010a": 3229,
    "\u00e5\u0141\u0130": 3230,
    "\u00e5\u0131\u0138": 3231,
    "atus": 3232,
    "AD": 3233,
    "\u0120\u00ec\u012a\u013a": 3234,
    "\u00e5\u012e\u0139": 3235,
    "\u00d0\u0140": 3236,
    "\u00eb\u00b6\u0122": 3237,
    "\u0120soc": 3238,
    "\u0120\u00d8\u00a7\u00d9\u0126\u00d8\u00b5": 3239,
    "day": 3240,
    "\u00e3\u0125\u00bb": 3241,
    "\u00e4\u00bd\u0142": 3242,
    "\u00e3\u0124\u00a2": 3243,
    "\u0120following": 3244,
    "reate": 3245,
    "\u00e5\u00b8\u012a": 3246,
    "\u00e3\u0123\u0142": 3247,
    "\u00e3\u0124\u00af": 3248,
    "nya": 3249,
    "\u0120child": 3250,
    "\u00ec\u0125\u0123": 3251,
    "\u00e8\u00ba\u00ab": 3252,
    "\u00e8\u012b\u00b2": 3253,
    "\u00e5\u00a4\u0129": 3254,
    "ccess": 3255,
    "\u0120years": 3256,
    "\u00e7\u00ba\u00bf": 3257,
    "\u0120every": 3258,
    "\u00e4\u00b8\u013e": 3259,
    "\u0120een": 3260,
    "\u00e3\u0124\u0135": 3261,
    "vert": 3262,
    "\u0120object": 3263,
    "\u0120vol": 3264,
    "reme": 3265,
    "\u00e0\u00b9\u0126\u00e0\u00b8": 3266,
    "ified": 3267,
    "UL": 3268,
    "})": 3269,
    "DDDD": 3270,
    "\u00d0\u00bd\u00d0\u00be\u00d0\u00b3\u00d0\u00be": 3271,
    "uss": 3272,
    "abel": 3273,
    "\u00e8\u012e": 3274,
    "\u0120nil": 3275,
    "new": 3276,
    "CO": 3277,
    "\u0120\u00ea\u00b8\u00b0": 3278,
    "\u00e5\u013d\u0140": 3279,
    "\u00e6\u00ba\u0132": 3280,
    "inal": 3281,
    "ience": 3282,
    "\u00eb\u00aa": 3283,
    "];": 3284,
    "\u00e6\u00bc": 3285,
    "\u0120same": 3286,
    "\u00e7\u0130\u00af": 3287,
    "\u00c3\u00ba": 3288,
    "ural": 3289,
    "vir": 3290,
    "\u0120false": 3291,
    "\u0120dem": 3292,
    "\u0120\u00d0\u00b1\u00d1\u012d": 3293,
    "ivers": 3294,
    "ribute": 3295,
    "mp": 3296,
    "\u0120\u00d8\u00b1\u00d8\u00a7": 3297,
    "ww": 3298,
    "ats": 3299,
    "\u0120create": 3300,
    "\u00e5\u0130\u00bb": 3301,
    "ains": 3302,
    "sl": 3303,
    "mt": 3304,
    "unt": 3305,
    "\u0120\u00d0\u0132": 3306,
    "\u00e0\u00a6\u00bf\u00e0\u00a6": 3307,
    "\u00db\u012e\u00d9\u0127": 3308,
    "\u00d9\u012c\u00d9\u0127": 3309,
    "ince": 3310,
    "\u00d8\u00b1\u00d9\u0123": 3311,
    "lear": 3312,
    "ervice": 3313,
    "\u00e8\u0122\u0125": 3314,
    "\u0120direct": 3315,
    "\u0120begin": 3316,
    "\u00e5\u00b9\u00bf": 3317,
    "\u0120\u00d1\u0126": 3318,
    "\u00e9\u00a9": 3319,
    "\u0120those": 3320,
    "\u00d9\u0124\u00d8\u00a9": 3321,
    "\u0120\u00d9\u0129\u00d8\u00b0": 3322,
    "\u00c3\u00a9s": 3323,
    "En": 3324,
    "\u00e7\u0139\u0127": 3325,
    "\u0120car": 3326,
    "\u00e8\u0126": 3327,
    "\u0120che": 3328,
    "\u0120\u0120\u0120\u0120\u0120\u0120\u0120\u0120\u0120\u0120\u0120\u0120\u0120\u0120\u0120\u0120\u0120\u0120\u0120\u0120": 3329,
    "bers": 3330,
    "\u0120\u00db\u012e": 3331,
    "\u0120him": 3332,
    "\u0120mo": 3333,
    "ables": 3334,
    "\u0120si": 3335,
    "const": 3336,
    "iled": 3337,
    "\u00c5\u00bc": 3338,
    "ye": 3339,
    "\u00d0\u00b8\u00d0\u00b4": 3340,
    "\u00d1\u0123\u00d0\u00bf": 3341,
    "\u0120good": 3342,
    "uro": 3343,
    "\u0120\u00e0\u00aa": 3344,
    "\u0120health": 3345,
    "\u00d0\u00b8\u00d0\u00b7": 3346,
    ")*": 3347,
    "\u00d9\u012a\u00d8\u00a7\u00d9\u0128": 3348,
    "\u00e6\u00a8": 3349,
    "Int": 3350,
    "wh": 3351,
    "\u00e8\u0132\u00a5": 3352,
    "\u0120arg": 3353,
    "\u0120Sh": 3354,
    "func": 3355,
    "\u00e5\u00b2": 3356,
    "Set": 3357,
    "\u0120world": 3358,
    "\u0120called": 3359,
    "\u0120error": 3360,
    "\u0120uint": 3361,
    "\u0120line": 3362,
    "\u00ea\u00b5\u0143": 3363,
    "OT": 3364,
    "adding": 3365,
    "ND": 3366,
    "\u0120specific": 3367,
    "\u00e8\u00bf\u013d\u00e8\u00a1\u012e": 3368,
    "input": 3369,
    "\u0120appro": 3370,
    "\u0120hum": 3371,
    "\u0120\u00eb\u00b6": 3372,
    "\u0120\u00ec\u0142\u0126": 3373,
    "cor": 3374,
    "\u00e0\u00b4\u00be": 3375,
    "Path": 3376,
    "\u00e5\u0142": 3377,
    "\u00d8\u00a8\u00d8\u00a7\u00d8\u00b1": 3378,
    "\u0120little": 3379,
    "\u00d9\u0127\u00d8\u00b1": 3380,
    "\u0120ber": 3381,
    "\\]": 3382,
    "\u0120And": 3383,
    "\u0120mil": 3384,
    "ython": 3385,
    "\u0120\u00ea\u00b5": 3386,
    "\u00e6\u0125\u00b3": 3387,
    "\u0120\u00ec\u0124\u00ac": 3388,
    "\u00d9\u0126\u00d8\u00a7\u00d9\u0126": 3389,
    "\u00e6\u00ae": 3390,
    "\u00e6\u00b2\u00bb": 3391,
    "\u00d0\u00b0\u00d0\u00b9": 3392,
    "\u00d1\u0122\u00d0\u00b0\u00d0\u00b2": 3393,
    "ared": 3394,
    "\u00c3\u00a1s": 3395,
    "oot": 3396,
    "================": 3397,
    "\u0120\u00d1\u0123\u00d0\u00be": 3398,
    "\u0120disc": 3399,
    "\u0120day": 3400,
    "\u0120\u00c5\u00a1": 3401,
    "bb": 3402,
    "\u0120du": 3403,
    "value": 3404,
    "Get": 3405,
    "\u0120max": 3406,
    "This": 3407,
    "Wh": 3408,
    "\u0120perform": 3409,
    "\u00e4\u00b8\u00a4": 3410,
    "work": 3411,
    "Error": 3412,
    "\u0120very": 3413,
    "ken": 3414,
    "width": 3415,
    "ustom": 3416,
    "\u0120\u00ec\u013e": 3417,
    "\u0120fact": 3418,
    "\u0120Le": 3419,
    "\u00e4\u00bb\u00b7": 3420,
    "\u00e7\u00b1\u00bb": 3421,
    "\u0120\u00d8\u00ba": 3422,
    "\u00e5\u013b": 3423,
    "\u00e7\u0137\u012e": 3424,
    "\u0120students": 3425,
    "co": 3426,
    "sole": 3427,
    "\u0120\u00eb\u00b3": 3428,
    "\u0120eng": 3429,
    "\u0120\u00d8\u00a7\u00d9\u0126\u00d8\u00b1": 3430,
    "\u0120To": 3431,
    "ream": 3432,
    "\u0120\u00d8\u00a7\u00d9\u0126\u00d8\u00aa\u00d9\u012c": 3433,
    "\u00e3\u0123\u0124": 3434,
    "\u0120iz": 3435,
    "\u00d0\u00b8\u00d0\u00b8": 3436,
    "\u0120\u00c3\u00a5": 3437,
    "ki": 3438,
    "asi": 3439,
    "\u0120pot": 3440,
    "\u00e0\u00a4\u00be\u00e0\u00a4\u00b0": 3441,
    "hip": 3442,
    "\u0120An": 3443,
    "\u0120much": 3444,
    "\u00e5\u013d\u00a2": 3445,
    "\u0120oper": 3446,
    "\u00e6\u012e\u0129": 3447,
    "dis": 3448,
    "\u0120\u00eb\u0135": 3449,
    "\u00d8\u00a7\u00d8\u00b1\u00d8\u00a9": 3450,
    "\u0120pri": 3451,
    "\u0120\u00d0\u00bf\u00d0\u00be\u00d0\u00b4": 3452,
    "but": 3453,
    "\u00eb\u0132": 3454,
    "\u00e0\u00b2\u00bf\u00e0\u00b2": 3455,
    "\u0120desc": 3456,
    "\u00e4\u00ba\u00a7\u00e5\u0135\u0123": 3457,
    "\u00e6\u00a3": 3458,
    "\u00e5\u00b0\u0133": 3459,
    "De": 3460,
    "ization": 3461,
    "man": 3462,
    "\u0120content": 3463,
    "\u0120\u0120\u0120\u0120\u0120\u0120\u0120\u0120\u0120\u0120\u0120\u0120\u0120": 3464,
    "ident": 3465,
    "\u0120Ind": 3466,
    "\u00d0\u0141": 3467,
    "\u00d0\u0142": 3468,
    "\u0120ans": 3469,
    "\u00e6\u0142\u00b7": 3470,
    "run": 3471,
    "ottom": 3472,
    "\u0120incre": 3473,
    "\u0120possible": 3474,
    "\u00e8\u00af\u0123": 3475,
    "\u00e6\u0137\u012a": 3476,
    "\u00e5\u0123\u013c": 3477,
    "\u0120As": 3478,
    "\u00ed\u0138\u012a\u00eb\u012d\u00a4": 3479,
    "ini": 3480,
    "\u00e5\u0131\u013a": 3481,
    "\u00d9\u0133": 3482,
    "\u0120main": 3483,
    "IM": 3484,
    "\u00c2\u00b7": 3485,
    "\u00c3\u00a6": 3486,
    "\u00d6\u0122": 3487,
    "ason": 3488,
    "\u0120returns": 3489,
    "\u0120color": 3490,
    "\u0120sit": 3491,
    "\u00a3\u00e0\u00b8": 3492,
    "\u00e4\u00bc\u013a": 3493,
    "\u00e9\u0139\u00ae": 3494,
    "top": 3495,
    "\u00e5\u00bd\u00a2": 3496,
    "\u00d0\u00bd\u00d0\u00b5": 3497,
    "\u00d8\u00af\u00d8\u00b1": 3498,
    "\u00d9\u012a\u00d9\u012c": 3499,
    "Bu": 3500,
    "////": 3501,
    "ending": 3502,
    "\u0120Im": 3503,
    "\u0120must": 3504,
    "\u00e6\u0136\u00b9": 3505,
    "\u0120quest": 3506,
    "\u00e6\u0130\u00a8": 3507,
    "\u00d0\u00b8\u00d0\u00ba": 3508,
    "\u00d0\u00b8\u00d0\u00b5": 3509,
    "ister": 3510,
    "opy": 3511,
    "search": 3512,
    "\u00e7\u00a9\u00b6": 3513,
    "lar": 3514,
    "ouble": 3515,
    "atic": 3516,
    ".,": 3517,
    "\u0120sum": 3518,
    "\u0120ka": 3519,
    "\u0120element": 3520,
    "ref": 3521,
    "\u00e5\u0131\u00a3": 3522,
    "\u00e6\u0138\u00bd": 3523,
    "\u00e6\u00b2\u00a1": 3524,
    "\u0120try": 3525,
    "reg": 3526,
    "\u0120ear": 3527,
    "box": 3528,
    "aan": 3529,
    "\u00e9\u00a2\u0128": 3530,
    "\u0109\u0109\u0109\u0109\u0109\u0109\u0109\u0109": 3531,
    "\u00e9\u0138": 3532,
    "acy": 3533,
    "\u00c5\u0128": 3534,
    "\u00d1\u0125\u00d1\u0130": 3535,
    "ling": 3536,
    "\u00ce\u00bd": 3537,
    "\u00e5\u00b8\u0125": 3538,
    "\u00e6\u0123\u00af": 3539,
    "Add": 3540,
    "].": 3541,
    "\u00e5\u0136": 3542,
    "men": 3543,
    "SSSS": 3544,
    "\u00e5\u013d\u00bd\u00e5\u00ae\u00b6": 3545,
    "\u00ec\u013b": 3546,
    "arget": 3547,
    "WWWW": 3548,
    "Pr": 3549,
    "\u0120contin": 3550,
    "\u0120Ad": 3551,
    "Le": 3552,
    "\u0120step": 3553,
    "\u00d9\u0126\u00db\u012e": 3554,
    "\u0120left": 3555,
    "ght": 3556,
    "\u0120display": 3557,
    "\u00e7\u013d\u00b4": 3558,
    "ysis": 3559,
    "\u00e8\u00ae\u00a4": 3560,
    "\u00d1\u0125\u00d1\u0122": 3561,
    "\u00d0\u00b8\u00d1\u0124\u00d1\u012e": 3562,
    "\u00d9\u012a\u00d8\u00ac": 3563,
    "\u00e5\u00ae\u012e": 3564,
    "\u0120three": 3565,
    "\u0120pop": 3566,
    "\u00e5\u0131\u0124": 3567,
    "\u00e0\u00b4\u00be\u00e0\u00b4": 3568,
    "\u00e6\u013f\u00a1": 3569,
    "\u0120How": 3570,
    "\u0120Get": 3571,
    "\u00d0\u013a": 3572,
    "\u0120during": 3573,
    "\u0120allow": 3574,
    "IS": 3575,
    "ateg": 3576,
    "\u0120beh": 3577,
    "\u0120being": 3578,
    "\u0120\u00d0\u00a2": 3579,
    "CH": 3580,
    "ital": 3581,
    "\u00e8\u00b5\u013d": 3582,
    "\u00e8\u00b0\u0125": 3583,
    "\u0120\u00d8\u00b4\u00d8\u00af": 3584,
    "\u00e5\u0129\u0128": 3585,
    "\u00e5\u013b\u00a8": 3586,
    "word": 3587,
    "\u00e6\u0136\u00af": 3588,
    "ves": 3589,
    "Col": 3590,
    "\u00e6\u0136\u00be": 3591,
    "\u0120Pr": 3592,
    "oken": 3593,
    "\u00e8\u00bf\u0133": 3594,
    "bar": 3595,
    "\u0120\u00d9\u012a\u00d8\u00aa": 3596,
    "ology": 3597,
    "\u00e8\u012c\u0124": 3598,
    "\u0120\u00d8\u00a7\u00d9\u0126\u00d8\u00a8": 3599,
    "\u00eb\u0140": 3600,
    "\u00e6\u012a\u00b7": 3601,
    "\u0120produ": 3602,
    "\u0120mult": 3603,
    "\u0120au": 3604,
    "\u0120kom": 3605,
    "\u0120Sc": 3606,
    "\u0120q": 3607,
    "itial": 3608,
    "raw": 3609,
    "rc": 3610,
    "\u00e0\u00b9\u012a\u00e0\u00b8": 3611,
    "\u0120ok": 3612,
    "\u00d9\u0126\u00d8\u00a9": 3613,
    "oun": 3614,
    "\u00db\u012e\u00d8\u00b1": 3615,
    "\u00e0\u00b5\u0123\u00e0\u00b4": 3616,
    "\u0120\u0120\u0120\u0120\u0120\u0120\u0120\u0120\u0120\u0120\u0120\u0120\u0120\u0120\u0120\u0120\u0120\u0120": 3617,
    "\u00e5\u012c\u0140": 3618,
    "\u0120partic": 3619,
    "\u0120school": 3620,
    "td": 3621,
    "\u00e9\u013b\u0132": 3622,
    "\u00e4\u00b9\u00a6": 3623,
    "\u0120made": 3624,
    "\u0120key": 3625,
    "\u0120conditions": 3626,
    "\u00b4\u0122": 3627,
    "iter": 3628,
    "\u00d9\u0126\u00d8\u00b3": 3629,
    "md": 3630,
    "AP": 3631,
    "\u0120around": 3632,
    "\u00e2\u0122\u012e\u00d9\u0129\u00d8\u00a7\u00db\u012e": 3633,
    "\u013c\u012e": 3634,
    "\u00e9\u0122\u012b": 3635,
    "\u0120example": 3636,
    "\u00ce\u00b5": 3637,
    "\u0120\u00d8\u00a7\u00d9\u0126\u00d9\u0126": 3638,
    "cho": 3639,
    "alt": 3640,
    "view": 3641,
    "ric": 3642,
    "\u00eb\u0135\u00a4": 3643,
    "\u0120\u00d8\u00a7\u00d9\u0126\u00d9\u0125": 3644,
    "\u0120\u00d0\u00bf\u00d1\u0122\u00d0\u00be": 3645,
    "ector": 3646,
    "ameter": 3647,
    "ality": 3648,
    "\u00e6\u00b3\u00a8": 3649,
    "htt": 3650,
    "\u0120\u00d8\u00a7\u00d9\u0126\u00d8\u00b0": 3651,
    "\u00e5\u00b7\u00b1": 3652,
    "\u00e8\u00ae\u00a9": 3653,
    "\u00e8\u00b4\u00b9": 3654,
    "\u0120next": 3655,
    "ved": 3656,
    "\u0120non": 3657,
    "lex": 3658,
    "\u0120\u00d9\u0127\u00d8\u00a7": 3659,
    "\u00c4\u00b1n": 3660,
    "\u00e9\u0141": 3661,
    "ali": 3662,
    "\u00e3\u0123\u00a3\u00e3\u0123\u0141": 3663,
    "!!": 3664,
    "leg": 3665,
    "Object": 3666,
    "\u0120within": 3667,
    "tes": 3668,
    "bin": 3669,
    "ler": 3670,
    "\u00d9\u012a\u00d8\u00aa": 3671,
    "ift": 3672,
    "\u0120term": 3673,
    "\u0120prof": 3674,
    "\u00e5\u00ae\u00a2": 3675,
    "\u0120pa": 3676,
    "\u00d0\u00bc\u00d0\u00b8": 3677,
    "\u00e9\u00bb": 3678,
    "\u00b7\u00b8": 3679,
    "\u0120Eng": 3680,
    "\u0120second": 3681,
    "ron": 3682,
    "ends": 3683,
    "\u00d9\u0128\u00d9\u012c": 3684,
    "\u00d9\u0129\u00d8\u00af": 3685,
    "\u00e6\u00a5": 3686,
    "\u0120organ": 3687,
    "\u00d0\u00b5\u00d0\u00bd\u00d0\u00b8\u00d0\u00b5": 3688,
    "\u0120inde": 3689,
    "\u0120\u00d0\u0140": 3690,
    "\u0120sz": 3691,
    "ita": 3692,
    "way": 3693,
    "\u0120gre": 3694,
    "\u00e6\u00af\u0131": 3695,
    "\u00e6\u0140\u0126": 3696,
    "\u00e3\u0123\u0133": 3697,
    "\u0120without": 3698,
    "\u0120\u00d9\u0127\u00d8\u00b3": 3699,
    "\u00d8\u00a7\u00d8\u00b3\u00d8\u00aa": 3700,
    "net": 3701,
    "\u0120od": 3702,
    "File": 3703,
    "\u00ea\u00b8": 3704,
    "\u0120comments": 3705,
    "\u0120\u00d0\u0136": 3706,
    "\u0120war": 3707,
    "\u0120ur": 3708,
    "\u0120sim": 3709,
    "perty": 3710,
    "\u00e9\u013b\u0127": 3711,
    "\u00d5\u00b8": 3712,
    "\u0120low": 3713,
    "\u00d9\u0123\u00d8\u00aa": 3714,
    "\u0120\u010a\u010a": 3715,
    "\u00e7\u012c": 3716,
    "\u00a1\u00b0": 3717,
    "\u00e7\u013b\u00bd": 3718,
    "He": 3719,
    "\u00e5\u012a\u00ab": 3720,
    "\u0120play": 3721,
    "alk": 3722,
    "\u0120ens": 3723,
    "\u0120last": 3724,
    "\u00a2\u00d7": 3725,
    "\u00d9\u012a\u00db\u012e": 3726,
    "hor": 3727,
    "\u00e5\u00b8\u0124\u00e5\u013e\u00ba": 3728,
    ":\"": 3729,
    "ium": 3730,
    "CC": 3731,
    "\u0120ik": 3732,
    "\u0120cour": 3733,
    "\u00eb\u0141": 3734,
    "\u00e7\u0142\u0136\u00e7\u00a9\u00b6": 3735,
    "\u0120background": 3736,
    "\u00e6\u0137\u00b4": 3737,
    "ypes": 3738,
    "\u0120mov": 3739,
    "\u00e7\u00a9\u00ba": 3740,
    "\u00e7\u00b2\u00be": 3741,
    "\u00e4\u00b9\u012a": 3742,
    "\u0120\u00d7\u013e\u00d7": 3743,
    "\u0120values": 3744,
    "\u00d0\u00bd\u00d1\u012d\u00d0\u00b5": 3745,
    "\u00e8\u00af\u00a5": 3746,
    "\u0120address": 3747,
    "\u00d1\u0128\u00d0\u00b8\u00d0\u00b8": 3748,
    "key": 3749,
    "\u00d9\u0126\u00d8\u00a7": 3750,
    "\u00d9\u0127\u00d9\u012a": 3751,
    "lin": 3752,
    "\u00e0\u00a4\u00ae": 3753,
    "mat": 3754,
    "\u0120az": 3755,
    "met": 3756,
    "\u0120lang": 3757,
    "\u00a4\u0133": 3758,
    "utes": 3759,
    "\u0120\u00ed\u013b": 3760,
    "\u0120product": 3761,
    "\u00e8\u0129\u00aa\u00e5\u00b7\u00b1": 3762,
    "\u00e5\u013d\u013d": 3763,
    "\u0120cu": 3764,
    "max": 3765,
    "\u00ec\u012c\u00b5": 3766,
    "\u00eb\u0124\u013a": 3767,
    "\u0120plan": 3768,
    "content": 3769,
    "\u0120clean": 3770,
    "\u00b9\u0126": 3771,
    "\u00d0\u00b8\u00d1\u0131": 3772,
    "org": 3773,
    "\u00e5\u0131\u00aa": 3774,
    "\u00e6\u00b6\u012a": 3775,
    "oz": 3776,
    "ste": 3777,
    "\u0120exper": 3778,
    "\u00e5\u0127\u012b": 3779,
    "ailed": 3780,
    "ili": 3781,
    "\u0120hist": 3782,
    "viron": 3783,
    "\u00c3\u00a4\u00c3\u00a4": 3784,
    "\u00eb\u00a7\u012e": 3785,
    "\u0120related": 3786,
    "\u00d9\u0127\u00d9\u012c": 3787,
    "Un": 3788,
    "\u00e9\u013a\u0141": 3789,
    "\u00d0\u013c": 3790,
    "\u0120\u00d1\u012f\u00d1\u0124": 3791,
    "\u00c3\u00bd": 3792,
    "user": 3793,
    "\u0120Amer": 3794,
    "\u00ea\u00b2\u012e": 3795,
    "\u00ec\u0142\u013e": 3796,
    "ocus": 3797,
    "\u00e9\u013a\u00b2": 3798,
    "time": 3799,
    "\u0120anal": 3800,
    "amb": 3801,
    "count": 3802,
    "\u00ec\u012a\u013a": 3803,
    "\u00e3\u0124\u012a": 3804,
    "sol": 3805,
    "\u00e3\u0123\u013b\u00e3\u0124\u012d": 3806,
    "\u00e8\u00ae\u00b0": 3807,
    "valid": 3808,
    "\u0120meng": 3809,
    "ament": 3810,
    "\u0120para": 3811,
    "\u00e3\u0123\u013f": 3812,
    "\u0120pres": 3813,
    "\u00e8\u00be\u0125": 3814,
    "\u00e0\u00b9\u0123\u00e0\u00b8": 3815,
    "\u00c3\u0142": 3816,
    "acter": 3817,
    "\u00d0\u00b5\u00d1\u0123\u00d1\u0124": 3818,
    "\u0120pas": 3819,
    "\u00ef\u00bc\u0141": 3820,
    "\u00ec\u0138\u00b4": 3821,
    "\u00e0\u00b2\u00be": 3822,
    "\u0120\u00d0\u00bf\u00d0\u00be\u00d0\u00bb": 3823,
    "\u00d8\u00a7\u00d8\u00ae": 3824,
    "va": 3825,
    "UN": 3826,
    "ross": 3827,
    "\u0120div": 3828,
    "\u00d0\u00b0\u00d0\u00bb\u00d0\u00b8": 3829,
    "\u00d0\u00bd\u00d1\u012d\u00d0\u00b9": 3830,
    "\u0120\u00d8\u00a7\u00d9\u0126\u00d9\u012c": 3831,
    "ero": 3832,
    "\u00eb\u0127": 3833,
    "\u00ec\u00a3\u00bc": 3834,
    "ription": 3835,
    "\u00e5\u00ae\u00b9": 3836,
    "\u0120size": 3837,
    "tn": 3838,
    "\u00e7\u0127": 3839,
    "\u0120provide": 3840,
    "\u00c3\u00a1n": 3841,
    "\u00e8\u00a7\u0128": 3842,
    "\u0120write": 3843,
    "head": 3844,
    "\u00ec\u00b9": 3845,
    "\u00e8\u00b1": 3846,
    "\u0120\u00d8\u00a7\u00d9\u0127": 3847,
    "\u0120think": 3848,
    "\u0120\u00d1\u0123\u00d0\u00b2": 3849,
    "\u00d7\u0137\u00d7\u00aa": 3850,
    "\u00e7\u0125\u0143": 3851,
    "\u00e5\u00b8\u00a6": 3852,
    "\u00e6\u012b\u0135": 3853,
    "\u00d0\u00b5\u00d1\u0122\u00d0\u00b5": 3854,
    "\u00e5\u00a2\u0125": 3855,
    "\u00e7\u0130\u0129": 3856,
    "\u0120\u00d0\u00b3\u00d0\u00be\u00d0\u00b4": 3857,
    "\u0120once": 3858,
    "\u00e5\u012e\u0127": 3859,
    "For": 3860,
    "ails": 3861,
    "\u00e9\u013f\u0140": 3862,
    "ackage": 3863,
    "den": 3864,
    "\u00d0\u00b0\u00d0\u00b4": 3865,
    "ait": 3866,
    "Cl": 3867,
    "\u0120\u00eb\u0131": 3868,
    "ocument": 3869,
    "\u0120life": 3870,
    "\u0120\u00da\u00a9\u00d8\u00b1\u00d8\u00af": 3871,
    "\u00ec\u0137\u0126": 3872,
    "\u0120por": 3873,
    "\u0120\u0120\u010a": 3874,
    "\u00e6\u00b7\u00b1": 3875,
    "\u00d9\u0125\u00d9\u0128": 3876,
    "quest": 3877,
    "\u00e7\u0131": 3878,
    "ibr": 3879,
    "\u0120small": 3880,
    "\u00e9\u00a1\u00b9\u00e7\u013d\u00ae": 3881,
    "\u0120\u00d7\u0133\u00d7": 3882,
    "\u00d1\u0130\u00d1\u0124": 3883,
    "\u0120\u00d9\u0127\u00d8\u00ac": 3884,
    "\u0120ge": 3885,
    "\u0120\u00d0\u0133": 3886,
    "\u00e3\u0125\u00bc\u00e3\u0124": 3887,
    "ape": 3888,
    "\u0120\u00ec\u0140\u012a": 3889,
    "\u00d0\u00b0\u00d0\u00b7": 3890,
    "\u0120effect": 3891,
    "tu": 3892,
    "include": 3893,
    "\u00e8\u00a3\u0127": 3894,
    "\u00e5\u00b1\u0122": 3895,
    "zy": 3896,
    "\u0120output": 3897,
    "path": 3898,
    "MA": 3899,
    "\u0120position": 3900,
    "Mod": 3901,
    "\u0120array": 3902,
    "len": 3903,
    "\u0120simp": 3904,
    "ku": 3905,
    "\u00d9\u0124\u00d9\u012c": 3906,
    "\u00ec\u0142\u0126": 3907,
    "\u00ef\u00bc\u0123": 3908,
    "vo": 3909,
    "\u0120prom": 3910,
    "\u0120understand": 3911,
    "\u00d7\u013b\u00d7\u013f": 3912,
    "\u0120bir": 3913,
    "\u00e0\u00a6\u00a8": 3914,
    "cedure": 3915,
    "\u00e5\u012f\u0130": 3916,
    "\u00e5\u00bc\u0137": 3917,
    "\u0120\u0120\u0120\u0120\u0120\u0120\u0120\u0120\u0120\u0120\u0120\u0120\u0120\u0120": 3918,
    "ju": 3919,
    "indow": 3920,
    "ENT": 3921,
    "\u0120tri": 3922,
    "emb": 3923,
    "\u0120Det": 3924,
    "\u00e5\u0133\u012c": 3925,
    "\u00e9\u0124\u00a3": 3926,
    "\u00e9\u00a3\u0141": 3927,
    "\u00d0\u00a2": 3928,
    "do": 3929,
    "ional": 3930,
    "obj": 3931,
    "\u0120post": 3932,
    "By": 3933,
    "\u00e9\u0122\u0141": 3934,
    "\u0120\u00eb\u00aa": 3935,
    "\u00d0\u00b0\u00d0\u00b5\u00d1\u0124": 3936,
    "lt": 3937,
    "LO": 3938,
    "\u00eb\u00af": 3939,
    "ral": 3940,
    "\u0120\u00e0\u00a4\u00a8": 3941,
    "\u0120consider": 3942,
    "MP": 3943,
    "pty": 3944,
    "\u0120commun": 3945,
    "\u0120item": 3946,
    "\u0120\u00d9\u0127\u00d8\u00af": 3947,
    "gen": 3948,
    "Sh": 3949,
    "\u00e5\u00b7\u0140": 3950,
    "\u0120another": 3951,
    "\u0120ce": 3952,
    "\u00e8\u00a7\u0124": 3953,
    "\u0120order": 3954,
    "\u00e0\u00a5\u012a": 3955,
    "ples": 3956,
    "\u00d0\u00b0\u00d1\u0131": 3957,
    "\u0120\u00d0\u00bf\u00d1\u0122\u00d0\u00b5\u00d0\u00b4": 3958,
    "\u0142\u00d7": 3959,
    "\u0120ide": 3960,
    "\u00e7\u00b1\u00b3": 3961,
    "+=": 3962,
    "\u0120\u00c5\u0141": 3963,
    "\u00e6\u0131\u0132\u00e4\u00be\u013d": 3964,
    "\u0120ca": 3965,
    "TE": 3966,
    "\u00e8\u013b": 3967,
    "\u0120field": 3968,
    "\u00e6\u0143\u00a5": 3969,
    "\u00e0\u00a5\u012f\u00e0\u00a4\u00b0": 3970,
    "jo": 3971,
    "\u0120\u00d9\u0127\u00d8\u00b4": 3972,
    "inc": 3973,
    "\u0120open": 3974,
    "\u00e6\u0122\u013f": 3975,
    "CE": 3976,
    "Im": 3977,
    "\u0120build": 3978,
    "\u00d8\u00aa\u00d9\u012c": 3979,
    "commend": 3980,
    "\u00d0\u00b6\u00d0\u00b5": 3981,
    "\u00e6\u0138\u00af": 3982,
    "\u00e4\u00bd\u0130": 3983,
    "\u00ec\u0126\u00b1": 3984,
    "ffic": 3985,
    "\u00e6\u0137\u013b\u00e8\u0124\u00b2": 3986,
    "\u00e5\u0131\u00b7": 3987,
    "Item": 3988,
    "\u00e0\u00b2\u00be\u00e0\u00b2": 3989,
    "book": 3990,
    "\u00e6\u00a2": 3991,
    "\u0120own": 3992,
    "erc": 3993,
    "less": 3994,
    "bs": 3995,
    "\u00d1\u0122\u00d1\u012d": 3996,
    "Ind": 3997,
    "\u00e8\u0122\u0123": 3998,
    "irt": 3999,
    "\u00e5\u00bb\u00ba\u00e8\u00ae\u00be": 4000,
    "Time": 4001,
    "\u00e4\u00bd\u00bf\u00e7\u0136\u00a8": 4002,
    "\u00e0\u00a5\u00a4": 4003,
    "class": 4004,
    "\u0120ref": 4005,
    "\u0120\u00d1\u0122\u00d0\u00b0\u00d0\u00b7": 4006,
    "ima": 4007,
    "arr": 4008,
    "\u0120\u00ec\u012d\u013e": 4009,
    "\u00e3\u0125\u00b3\u00e3\u0125": 4010,
    "\u00c4\u0123s": 4011,
    "\u0120cr": 4012,
    "\u00e7\u013e\u0141": 4013,
    "\u00ec\u00b0": 4014,
    "\u00ec\u0142\u0123": 4015,
    "ety": 4016,
    "\u00e7\u00a1\u00ae": 4017,
    "\u0120Fr": 4018,
    "\u0120din": 4019,
    "\u00d8\u00a7\u00d8\u00b1\u00db\u012e": 4020,
    "\u00e5\u00a7\u0136": 4021,
    "\u00d9\u012d\u00d8\u00a7": 4022,
    "\u0120Cal": 4023,
    "\u00c3\u00aa": 4024,
    "\u00e6\u00b5\u0130": 4025,
    "omen": 4026,
    "\u0120\u00d9\u0127\u00d8\u00b1": 4027,
    "\u0120tre": 4028,
    "\u0120fun": 4029,
    "\u0120os": 4030,
    "\u00cf\u0126": 4031,
    "You": 4032,
    "\u00e7\u00bb\u0143": 4033,
    "AG": 4034,
    "\\(": 4035,
    "mon": 4036,
    "\u00e0\u00b8\u00b1": 4037,
    "\u0120implementation": 4038,
    "\u00eb\u00b3\u00b4": 4039,
    "\u00e9\u00aa\u012e": 4040,
    "\u00e4\u00ba\u00bf": 4041,
    "ouse": 4042,
    "\u00d9\u012a\u00d9\u0123": 4043,
    "\u0120On": 4044,
    "ormal": 4045,
    "aces": 4046,
    "\u00eb\u00b2": 4047,
    "\u00d9\u0126\u00d8\u00a7\u00d9\u0127": 4048,
    "\u0120\u00d0\u00ba\u00d0\u00be\u00d1\u0124": 4049,
    "\u00e6\u013f\u0132": 4050,
    "lev": 4051,
    "oci": 4052,
    "\u0120nu": 4053,
    "\u0120cases": 4054,
    "efore": 4055,
    "\u0120say": 4056,
    "\u00da\u00be": 4057,
    "itive": 4058,
    "\u0120sym": 4059,
    "\u00e0\u00a4\u00b5": 4060,
    "\u00e6\u012b\u012f": 4061,
    "\u0120task": 4062,
    "\u00e8\u00aa": 4063,
    "\u0120present": 4064,
    "\u00e5\u012c\u00a9": 4065,
    "$\\": 4066,
    "oms": 4067,
    "\u0120pie": 4068,
    "\u00d9\u0125\u00d8\u00b1": 4069,
    "ories": 4070,
    "\u00d1\u0123\u00d0\u00b5": 4071,
    "';": 4072,
    "\u0120less": 4073,
    "\u0120sent": 4074,
    "%;": 4075,
    "\u0120\u00ea\u00b2\u0125": 4076,
    "\u0120script": 4077,
    "\u0120Pl": 4078,
    "\u00e8\u00af\u0137": 4079,
    "(-": 4080,
    "fil": 4081,
    "\u00d9\u0126\u00d9\u0123": 4082,
    "\u00e5\u00a5\u00b3": 4083,
    "\u00d9\u0127\u00d8\u00a7\u00d9\u0126": 4084,
    "ret": 4085,
    "\u00e5\u012c\u0141": 4086,
    "\u00e7\u00a5\u0140": 4087,
    "ffer": 4088,
    "ua": 4089,
    "\u00d0\u00bb\u00d1\u0125": 4090,
    "\u0120old": 4091,
    "\u0120adv": 4092,
    "\u0120state": 4093,
    "ior": 4094,
    "\u00e5\u00a4\u012f": 4095,
    "\u0125\u013f": 4096,
    "\u00ec\u012c\u00b5\u00eb\u012d\u012a\u00eb\u012d\u00a4": 4097,
    "\u0120got": 4098,
    "\u00d8\u00a3\u00d9\u0128": 4099,
    "\u00e7\u00bb\u013b": 4100,
    "za": 4101,
    "\u0120\u00d8\u00b6": 4102,
    "rain": 4103,
    "\u0120String": 4104,
    "\u0120determine": 4105,
    "\u00e5\u00ae\u0125": 4106,
    "pper": 4107,
    "sq": 4108,
    "\u00eb\u012f": 4109,
    "ga": 4110,
    "\u0120indic": 4111,
    "([": 4112,
    "\u0120bit": 4113,
    "\u00e4\u00b9\u0132": 4114,
    "\u00e5\u00a7\u012d": 4115,
    "\u00e6\u012a\u013a": 4116,
    "\u00e6\u013e\u00aa": 4117,
    "\u0120above": 4118,
    "\u00e9\u00a6\u0138": 4119,
    "\u0120So": 4120,
    "ences": 4121,
    "\u00e6\u00a8\u00a1": 4122,
    "\u00ed\u013c\u012e": 4123,
    "\u0120\u00d8\u00aa\u00d8\u0143": 4124,
    "\u0120\u00d7\u00a9\u00d7": 4125,
    "\u0120margin": 4126,
    "\u00e9\u0122\u013c\u00e8\u00bf\u0129": 4127,
    "\u00e6\u013f\u0125": 4128,
    "\u00d0\u0136": 4129,
    "\u0120They": 4130,
    "aks": 4131,
    "\u00d8\u00a8\u00d8\u00af": 4132,
    "\u00e8\u0123\u012e": 4133,
    "\u0120place": 4134,
    "\u00c3\u00b0": 4135,
    "\u00e0\u00a4\u0124\u00e0\u00a4": 4136,
    "vironment": 4137,
    "\u00e4\u00ba\u00ac": 4138,
    "Al": 4139,
    "\u00eb\u00a9\u00b4": 4140,
    "web": 4141,
    "\u00ec\u00a7\u0126": 4142,
    "\u00e8\u0130\u00b7": 4143,
    "\u0120\u00d8\u00aa\u00d9\u0127": 4144,
    "\u00e6\u00b2\u00a1\u00e6\u013e\u012b": 4145,
    "\u0120really": 4146,
    "\u00e6\u0139\u00b6\u00e9\u0139\u00b4": 4147,
    "\u0120activ": 4148,
    "ought": 4149,
    "\u0120spe": 4150,
    "\u00e8\u00b6\u0127": 4151,
    "\u0120self": 4152,
    "\u0120conf": 4153,
    "ican": 4154,
    "\u0120Sp": 4155,
    "\u00e5\u0128\u00b3": 4156,
    "\u00e7\u00a7\u00b0": 4157,
    "\u00e7\u0136\u0141\u00e4\u00ba\u00a7": 4158,
    "\u0120cho": 4159,
    "\u0120\u00ed\u0137": 4160,
    "\u0120Def": 4161,
    "begin": 4162,
    "\u00ed\u012c": 4163,
    "\u0120But": 4164,
    "\u0120support": 4165,
    "plic": 4166,
    "uri": 4167,
    "ots": 4168,
    "\u00e7\u00b5": 4169,
    "EF": 4170,
    "\u00e3\u0123\u0139\u00e3\u0123\u00a6": 4171,
    "load": 4172,
    "DI": 4173,
    "\u0120ret": 4174,
    "\u00e6\u013a\u0135": 4175,
    "\u00e3\u0123\u012a": 4176,
    "\u0120answer": 4177,
    "\u00d8\u00a6\u00d9\u012c\u00d8\u00b3": 4178,
    "\u00e6\u00b9": 4179,
    "\u00e3\u0123\u0135\u00e3\u0123\u00a8": 4180,
    "ban": 4181,
    "\u00d0\u00be\u00d1\u0129": 4182,
    "\u00e9\u00a5": 4183,
    "\u0120best": 4184,
    "\u0120\u00d1\u0131": 4185,
    "\u0120\u00d8\u00a8\u00d8\u00b9\u00d8\u00af": 4186,
    "\u00e8\u00bd\u00ac": 4187,
    "ija": 4188,
    "\u0120\u00e0\u00a4\u00b5": 4189,
    "\u00d1\u012c": 4190,
    "gs": 4191,
    "rix": 4192,
    "\u0120mark": 4193,
    "Out": 4194,
    "\u0120still": 4195,
    "\u00e7\u00a4\u00be\u00e4\u00bc\u013c": 4196,
    "\u0120local": 4197,
    "ways": 4198,
    "\u00e3\u0123\u00a9": 4199,
    "index": 4200,
    "\u0120\u00c5\u00be": 4201,
    "\u0120ident": 4202,
    "ati": 4203,
    "\u013d\u00d7": 4204,
    "\u0120occ": 4205,
    "ole": 4206,
    "ume": 4207,
    "idual": 4208,
    "itor": 4209,
    "roll": 4210,
    "ibility": 4211,
    "\u0120\u00eb\u0135\u00b1": 4212,
    "\u0120\u00d9\u0127\u00d8\u00b5": 4213,
    "\u00c3\u00b1": 4214,
    "\u00d1\u012b\u00d0\u00b5": 4215,
    "Create": 4216,
    "\u0120\u00d0\u00bf\u00d1\u0122\u00d0\u00b5": 4217,
    "nect": 4218,
    "\u00e6\u012c\u00a4": 4219,
    "\u0120jo": 4220,
    "ubl": 4221,
    "\u00ed\u013b\u0136": 4222,
    "\u0120\u00d7\u0140\u00d7": 4223,
    "\u0120\u00d8\u00a7\u00d9\u0126\u00d9\u0127\u00d8\u00aa": 4224,
    "\u0120En": 4225,
    "\u0120might": 4226,
    "\u00e5\u0126": 4227,
    "\u00e7\u00ab\u013b": 4228,
    "\u0120lead": 4229,
    "ha": 4230,
    "ination": 4231,
    "\u00d1\u0124\u00d0\u00b0": 4232,
    "aci\u00c3\u00b3n": 4233,
    "\u0120font": 4234,
    "\u0120polit": 4235,
    "\u0120enc": 4236,
    "\u0120prote": 4237,
    "\u00e6\u00bc\u0136": 4238,
    "\u00d1\u0122\u00d0\u00b0\u00d0\u00bd": 4239,
    "\u0120range": 4240,
    "action": 4241,
    "IG": 4242,
    "\u00d0\u00bb\u00d0\u00b5": 4243,
    "map": 4244,
    "uage": 4245,
    "\u00d8\u00b4\u00d8\u00b1": 4246,
    "\u0120TH": 4247,
    "\u0124\u00b0": 4248,
    "ately": 4249,
    "cer": 4250,
    "lection": 4251,
    "\u00e3\u0123\u00a6\u00e3\u0123\u0126\u00e3\u0124\u012d": 4252,
    "\u00e5\u00bf\u00ab": 4253,
    "\u0120net": 4254,
    "\u0120\u00d9\u0129\u00d9\u0127": 4255,
    "elt": 4256,
    "ais": 4257,
    "<=": 4258,
    "\u0120\u00ea\u00b0\u0122": 4259,
    "\u0120extract": 4260,
    "\u00d0\u00bb\u00d1\u012e": 4261,
    "\u0120Par": 4262,
    "igned": 4263,
    "\u0120Do": 4264,
    "dz": 4265,
    "ds": 4266,
    "\u00d9\u0124\u00d8\u00b1": 4267,
    "\u00e5\u0128\u012f": 4268,
    "ished": 4269,
    "\u00e7\u00ba\u00a6": 4270,
    "\u0120\u00d1\u0124\u00d0\u00b0\u00d0\u00ba": 4271,
    "ether": 4272,
    "\u0120cap": 4273,
    "kit": 4274,
    "\u0120techn": 4275,
    "\u0120\u00ed\u0137\u013e": 4276,
    "ired": 4277,
    "\u00d0\u00ba\u00d0\u00be\u00d0\u00b2": 4278,
    "\u00c5\u013d": 4279,
    "\u0120li": 4280,
    "\u0120\u00d1\u012a": 4281,
    "\u00e8\u00ae\u00ae": 4282,
    "\u0120\u00d0\u00bf\u00d1\u0122\u00d0\u00b8": 4283,
    "ically": 4284,
    "\u0120ki": 4285,
    "\u0120\u00d8\u00a8\u00d9\u0128": 4286,
    "\u00e6\u0141\u00a5": 4287,
    "\u00e0\u00b9\u0125": 4288,
    "\u00e3\u0124\u0123": 4289,
    "imum": 4290,
    "\u0120\u00e0\u00a4\u00ac": 4291,
    "\u0120eas": 4292,
    "abase": 4293,
    "Line": 4294,
    "iddle": 4295,
    "js": 4296,
    "\u0120problem": 4297,
    "ands": 4298,
    "\u00e0\u00b3\u0128": 4299,
    "ATE": 4300,
    "\u00e3\u0124\u0126": 4301,
    "\u00e1\u0125\u013f": 4302,
    "ources": 4303,
    "\u00e7\u00a7\u00af": 4304,
    "\u0120food": 4305,
    "/>": 4306,
    ">=": 4307,
    "\u00e6\u00a1\u012a": 4308,
    "\u0120Check": 4309,
    "her": 4310,
    "We": 4311,
    "....": 4312,
    "\u00e5\u012f\u0129": 4313,
    "\u0120Is": 4314,
    "\u0120dev": 4315,
    "\u0120turn": 4316,
    "\u00e4\u00b8\u0135\u00e4\u00b8\u013c": 4317,
    "\u0120\u00d8\u00a5\u00d9\u0128": 4318,
    "bo": 4319,
    "\u0120width": 4320,
    "\u00e3\u0124\u00bf": 4321,
    "\u0120year": 4322,
    "\u00e7\u00b4\u0142": 4323,
    "\u00e9\u0127\u012f": 4324,
    "\u0120hal": 4325,
    "\u00e5\u0141\u0141": 4326,
    "\u00d8\u00af\u00d9\u012c\u00d8\u00af": 4327,
    "\u00d0\u00b5\u00d0\u00b7": 4328,
    "\u00e3\u0125\u00ac": 4329,
    "\u00e6\u0134": 4330,
    "\u0120score": 4331,
    "\u00ec\u0139\u0127": 4332,
    "\u0120power": 4333,
    "\u00e5\u0143\u00a6\u00e7\u0136\u0141": 4334,
    "ump": 4335,
    "\u0120table": 4336,
    "\u0120les": 4337,
    "\u00e7\u00bb\u0131\u00e6\u00b5\u0130": 4338,
    "\u00cf\u0123": 4339,
    "\u00e8\u00b4\u00a3": 4340,
    "asc": 4341,
    "\u0120\u00d8\u00ae\u00d9\u0126\u00d8\u00a7\u00d9\u0126": 4342,
    "ries": 4343,
    "\u00e5\u00b7\u00a5\u00e7\u00a8\u012d": 4344,
    "\u0120age": 4345,
    "mi": 4346,
    "akan": 4347,
    "\u0139\u00d7": 4348,
    "ponse": 4349,
    "\u00e3\u0123\u012d\u00e3\u0124\u012b": 4350,
    "\u0120\u00d8\u00aa\u00d8\u00b9": 4351,
    "\u0120rest": 4352,
    "\u00c3\u00b8r": 4353,
    "\u00e3\u0123\u00aa\u00e3\u0123\u0126": 4354,
    "\u0120bas": 4355,
    "\u00e4\u00ba\u0136": 4356,
    "\u0120sam": 4357,
    "\u00d9\u012a\u00d8\u00b6": 4358,
    "IB": 4359,
    "\u00e6\u0130\u00a7": 4360,
    "pat": 4361,
    "bol": 4362,
    "ones": 4363,
    "\u0120\u00d8\u00a7\u00d9\u0126\u00d9\u0127\u00d9\u0128": 4364,
    "\u0120research": 4365,
    "side": 4366,
    "\u00e6\u0142\u00b9": 4367,
    "\u0120std": 4368,
    "\u00e0\u0143": 4369,
    "\"\\": 4370,
    "\u00e8\u00af\u00b7": 4371,
    "\u00d9\u012c\u00d9\u0123": 4372,
    "FFF": 4373,
    "\u00ea\u00b5\u00ac": 4374,
    "\u0120\u00d9\u0127\u00d8\u00aa": 4375,
    "\u00d1\u0129\u00d0\u00b5\u00d1\u0123\u00d0\u00ba": 4376,
    "Info": 4377,
    "ko": 4378,
    "\u0120transform": 4379,
    "hold": 4380,
    "obal": 4381,
    "\u0120too": 4382,
    "une": 4383,
    "\u0120\u00d0\u013a": 4384,
    "\u0120length": 4385,
    "\u0120access": 4386,
    "\u0120\u00e0\u00a4\u0137\u00e0\u00a5\u0129": 4387,
    "\u00e5\u012a\u0134": 4388,
    "ware": 4389,
    "ething": 4390,
    "Key": 4391,
    "ours": 4392,
    "height": 4393,
    "loc": 4394,
    "font": 4395,
    "\u0120hygiene": 4396,
    "\u00e4\u00bd\u0137": 4397,
    "void": 4398,
    "_{": 4399,
    "\u00e4\u00bb\u0138\u00e4\u00bb\u00ac": 4400,
    "\u0120bo": 4401,
    "\u00d5\u00b6": 4402,
    "\u00e3\u0123\u00be\u00e3\u0123\u013b": 4403,
    "\u00e5\u0133\u00a8": 4404,
    "\u00d9\u012a\u00d8\u00a3": 4405,
    "result": 4406,
    "\u0120border": 4407,
    "\u0120grow": 4408,
    "\u00e3\u0124\u00b7": 4409,
    "\u00d1\u0140": 4410,
    "\u00e8\u0133": 4411,
    "\u00d9\u0124\u00d9\u0126": 4412,
    "\u00d9\u012a\u00d8\u00b9": 4413,
    "\u00e8\u0124\u00a1": 4414,
    "\u0120various": 4415,
    "\u0120amount": 4416,
    "ope": 4417,
    "erg": 4418,
    "\u00e5\u00be\u00b7": 4419,
    "\u00d0\u00be\u00d1\u0123\u00d1\u0123": 4420,
    "\u00d0\u00b8\u00d1\u0124\u00d0\u00b5\u00d0\u00bb\u00d1\u012e": 4421,
    "\u00eb\u0131\u013b": 4422,
    "\u0120integer": 4423,
    "\u00d0\u0135": 4424,
    "lu": 4425,
    "ya": 4426,
    "\u0120indiv": 4427,
    "\u00ec\u013b\u0122": 4428,
    "\u00e8\u00b6\u012c": 4429,
    "\u00d8\u0143\u00d8\u00a9": 4430,
    "\u0120pract": 4431,
    "\u00eb\u00aa\u0127": 4432,
    "isi": 4433,
    "true": 4434,
    "\u0120\u00d0\u00a3": 4435,
    "\u00e5\u0143\u013a": 4436,
    "\u0120private": 4437,
    "\u00e5\u00a1": 4438,
    "err": 4439,
    "wa": 4440,
    "\u00d0\u00b6\u00d0\u00b4": 4441,
    "ache": 4442,
    "Or": 4443,
    "################": 4444,
    "TR": 4445,
    "\u00e5\u00a4\u00b4": 4446,
    "\u00e0\u00a4\u00aa": 4447,
    "umn": 4448,
    "\u0120lab": 4449,
    "IL": 4450,
    "\u0120mar": 4451,
    "\u0120change": 4452,
    "\u00e4\u00b8\u0138\u00e7\u0137\u012e": 4453,
    "\u0120\u00d0\u00ba\u00d0\u00be\u00d1\u0124\u00d0\u00be\u00d1\u0122": 4454,
    "\u0120\u00da\u0128": 4455,
    "\u00e5\u00ba\u0139": 4456,
    "\u0120\u00e0\u00a4\u00b0": 4457,
    "\u00d8\u00a7\u00d8\u00a9": 4458,
    "\u0120\u00d3\u00a9": 4459,
    "\u0120\u00d8\u00b0": 4460,
    "`,": 4461,
    "\u00d1\u0122\u00d0\u00b0\u00d1\u0124": 4462,
    "\u00d8\u00af\u00d9\u0127": 4463,
    ")=": 4464,
    "ression": 4465,
    "uration": 4466,
    "\u0120\u00ec\u0142\u0137": 4467,
    "\u00e5\u00a3\u00ab": 4468,
    "\u0120uz": 4469,
    "\u00e6\u00b8\u0127": 4470,
    "pi": 4471,
    "\u0120break": 4472,
    "\u0120project": 4473,
    "\u00e8\u00a8\u0122": 4474,
    "\u00d1\u0123\u00d1\u0124\u00d1\u012e": 4475,
    "\u00d8\u00ae\u00d8\u00b1": 4476,
    "orn": 4477,
    "\u0120body": 4478,
    "On": 4479,
    "\u00d0\u00ba\u00d0\u00be": 4480,
    "uh": 4481,
    "\u0120ein": 4482,
    "\u0120chang": 4483,
    "\u00d9\u0125\u00d9\u0126": 4484,
    "sm": 4485,
    "\u0120represent": 4486,
    "\u0120\u00ec\u013c": 4487,
    "\u0120mas": 4488,
    "ika": 4489,
    "\u0120group": 4490,
    "\u00e8\u00ae\u00ba": 4491,
    "\u00e5\u0122\u00bc": 4492,
    "\u0120\u00d8\u00a7\u00d9\u0126\u00d8\u00b7": 4493,
    "\u0120sample": 4494,
    "\u0120takes": 4495,
    "\u0120book": 4496,
    "));": 4497,
    "\u0120kind": 4498,
    "ici": 4499,
    "App": 4500,
    "{$": 4501,
    "\u0120System": 4502,
    "\u0120clear": 4503,
    "rec": 4504,
    "iving": 4505,
    "su": 4506,
    "\u00d9\u012c\u00d8\u00a7\u00d8\u00aa": 4507,
    "\u0120serv": 4508,
    "ides": 4509,
    "\u0120ha": 4510,
    "icle": 4511,
    "\u0120decision": 4512,
    "\u00d9\u0130": 4513,
    "\u00e4\u00b8\u00bb\u00e8\u00a6\u0123": 4514,
    "\u00d0\u013e": 4515,
    "rect": 4516,
    "\u0120cert": 4517,
    "\u0120Val": 4518,
    "\u00e8\u00a7\u0123": 4519,
    "\u0120\u00d9\u0123\u00d8\u00b1": 4520,
    "ags": 4521,
    "\u00e3\u0125\u0143": 4522,
    "\u00e9\u0129\u0129": 4523,
    "\u0120exam": 4524,
    "ference": 4525,
    "\u00e9\u0139\u00ae\u00e9\u00a2\u013a": 4526,
    "\u0120statement": 4527,
    "\u0120view": 4528,
    "\u0128\u00b5": 4529,
    "\u00e7\u0138\u0139": 4530,
    "\u0120Pol": 4531,
    "\u0120sure": 4532,
    "ideo": 4533,
    "\u00e7\u012d": 4534,
    "ither": 4535,
    "\u00d0\u00b5\u00d1\u0123": 4536,
    "body": 4537,
    "\u00d0\u013d": 4538,
    "code": 4539,
    "\u00e8\u00a1\u012e\u00e4\u00b8\u013c": 4540,
    "pected": 4541,
    "\u00e0\u00b3\u0123": 4542,
    "ently": 4543,
    "^{": 4544,
    "\u0120Trans": 4545,
    "\u00c8\u013bi": 4546,
    "\u00e6\u013a\u00be": 4547,
    "\u00d8\u00a7\u00d9\u0128\u00d8\u00aa": 4548,
    "onna": 4549,
    "\u0120\u00d0\u0135": 4550,
    "\u0120Or": 4551,
    "vern": 4552,
    "oto": 4553,
    "\u0120wr": 4554,
    "\u0120\u00e0\u00a4\u0127": 4555,
    "\u00d0\u00a3": 4556,
    "a\u00c5\u0141": 4557,
    "\u00d9\u0122": 4558,
    "\u0120including": 4559,
    "define": 4560,
    "ineer": 4561,
    "\u0120bi": 4562,
    "\u00e6\u0122\u0123": 4563,
    "\u00e0\u00a5\u0124": 4564,
    "\u0120leg": 4565,
    "yd": 4566,
    "IP": 4567,
    "ena": 4568,
    "\u0120required": 4569,
    "icon": 4570,
    "$(": 4571,
    "che": 4572,
    "ils": 4573,
    "EC": 4574,
    "\u00e4\u00bf\u00a1\u00e6\u0123\u00af": 4575,
    "\u0120cost": 4576,
    "\u0120Dis": 4577,
    "\u0120redu": 4578,
    "\u0120\u00d9\u0126\u00d9\u0127": 4579,
    "Test": 4580,
    "$.": 4581,
    "\u0120mill": 4582,
    "\u00e8\u00af\u0128": 4583,
    "\u0120sever": 4584,
    "ances": 4585,
    "\u00e6\u0138\u0143": 4586,
    "rap": 4587,
    "\u0120\u00ed\u013a": 4588,
    "\u0120ini": 4589,
    ",.": 4590,
    "\u0120record": 4591,
    "\u00d0\u00bc\u00d0\u00b0": 4592,
    "\u00e6\u00b1\u0141": 4593,
    "sum": 4594,
    "\u0120Set": 4595,
    "\u0120\u00d9\u012a\u00d8\u00b2": 4596,
    "ala": 4597,
    "ploy": 4598,
    "\u00e8\u0140": 4599,
    "outh": 4600,
    "\u00c3\u00a8": 4601,
    "\u00d9\u0123\u00d8\u00b1": 4602,
    "\u00e7\u00b3\u00bb\u00e7\u00bb\u0141": 4603,
    "\u00e5\u00bf\u0127": 4604,
    "\u0120stand": 4605,
    "*)": 4606,
    "cur": 4607,
    "ropri": 4608,
    "\u00e9\u00a2\u0126": 4609,
    "\u00e5\u0135\u012f": 4610,
    "\u0120important": 4611,
    "\u0120recommend": 4612,
    "');": 4613,
    "aterial": 4614,
    "\u0120\u00e0\u00a4\u0128": 4615,
    "\u00e5\u0125": 4616,
    "\u0120bus": 4617,
    "\u00e5\u0127\u00bb": 4618,
    "page": 4619,
    "\u0120keep": 4620,
    "\u00d8\u00b7\u00d9\u0126": 4621,
    "ores": 4622,
    "\u00d0\u00b8\u00d0\u00bb\u00d0\u00b8": 4623,
    "\u0120necess": 4624,
    "lib": 4625,
    "\u00e5\u0131\u012f": 4626,
    "\u00d5\u00a5": 4627,
    "\u0120\u0120\u0120\u0120\u0120\u0120\u0120\u0120\u0120\u0120\u0120\u0120\u0120\u0120\u0120\u0120\u0120\u0120\u0120\u0120\u0120\u0120\u0120": 4628,
    "\u0120\u00e0\u00a4\u00a6": 4629,
    "\u00e5\u0130\u0128": 4630,
    "\u0120head": 4631,
    "\u00e4\u00be\u012d": 4632,
    "\u0120store": 4633,
    "\u0120something": 4634,
    "\u00e9\u0127\u0134": 4635,
    "\u00e0\u00a7\u0129\u00e0\u00a6": 4636,
    "\u00e6\u012a\u00bf": 4637,
    "As": 4638,
    "\u0120\u00e0\u00a4\u013e": 4639,
    "istr": 4640,
    "message": 4641,
    "\u0120land": 4642,
    "\u0120za": 4643,
    "ls": 4644,
    "\u00e7\u0136\u0141\u00e6\u00b4\u00bb": 4645,
    "background": 4646,
    "\u0120There": 4647,
    "\u00c4\u00bc": 4648,
    "\u0120\u00eb\u00ac": 4649,
    "\u0120No": 4650,
    "\u00e8\u012c\u00b1": 4651,
    "\u00d8\u00b4\u00d8\u00a7\u00d8\u00b1": 4652,
    "inally": 4653,
    "corpor": 4654,
    "ingle": 4655,
    "\u00d8\u00af\u00d8\u00a9": 4656,
    "length": 4657,
    "\u00d9\u0126\u00d9\u0127": 4658,
    "\u00ed\u0137\u013a\u00eb\u012c\u0136": 4659,
    "\u0120void": 4660,
    "\u0120seg": 4661,
    "\u00d5\u00ab": 4662,
    "EX": 4663,
    "\u00e5\u00ba\u013e": 4664,
    "\u00e7\u012b\u0129": 4665,
    "erson": 4666,
    "iti": 4667,
    "\u00e8\u012e\u0125": 4668,
    "uint": 4669,
    "\u00e8\u00b6\u00b3": 4670,
    "\u0120mus": 4671,
    "\u0120IF": 4672,
    "\u00d1\u0127\u00d0\u00be\u00d0\u00b4": 4673,
    "\u00e9\u0136\u0122": 4674,
    "\u00e6\u0140\u0123": 4675,
    "ho": 4676,
    "\u0120children": 4677,
    "ailable": 4678,
    "\u00e6\u0127": 4679,
    "\u00e7\u012a\u00b1": 4680,
    "\u00e8\u012b\u00ba": 4681,
    "ING": 4682,
    "Text": 4683,
    "\u00d8\u00aa\u00d8\u00b5": 4684,
    "\u00e3\u0125\u0137": 4685,
    "\u00e6\u0139\u0127": 4686,
    "ager": 4687,
    "\u00d0\u00ba\u00d1\u0124": 4688,
    "\u0109\u0109\u0109\u0109\u0109": 4689,
    "\u0120fac": 4690,
    "\u0120los": 4691,
    "\u0120lim": 4692,
    "\u00e8\u00ae\u00be\u00e8\u00ae\u00a1": 4693,
    "vis": 4694,
    "\u00e7\u0136\u00bb": 4695,
    "\u0120height": 4696,
    "Ad": 4697,
    "\u00eb\u0127\u0126": 4698,
    "yt": 4699,
    "\u0120CO": 4700,
    "\u00e5\u0128\u013e": 4701,
    "\u0120individual": 4702,
    "`.": 4703,
    "\u0120\u00d8\u00a7\u00d9\u0126\u00d9\u012c\u00d9\u012a\u00d9\u0127": 4704,
    "ee": 4705,
    "\u00ed\u012c\u00b8": 4706,
    "\u0120gen": 4707,
    "\u00d8\u00a7\u00d9\u0126\u00d9\u0127": 4708,
    "rist": 4709,
    "Of": 4710,
    "aving": 4711,
    "\u00e6\u00b8\u00a9": 4712,
    "\u0120great": 4713,
    "\u00e3\u0122\u0124\u00e2\u0122\u013f": 4714,
    "\u0120mel": 4715,
    "DB": 4716,
    "margin": 4717,
    "\u00e9\u013b\u00a4": 4718,
    "\u0120il": 4719,
    "nav": 4720,
    "\u0120side": 4721,
    "ches": 4722,
    "\u00e0\u00a5\u0129\u00e0\u00a4": 4723,
    "\u0120light": 4724,
    "\\<": 4725,
    "ived": 4726,
    "\u00e5\u012a\u013b": 4727,
    "(),": 4728,
    "dir": 4729,
    "\u0120model": 4730,
    "\u00d9\u012a\u00d8\u00a7": 4731,
    "\u00e5\u00ae\u012b\u00e5\u0127\u00a8": 4732,
    "important": 4733,
    "\u0120\u00da\u00a9\u00db\u012e": 4734,
    "ention": 4735,
    "\u0120dol": 4736,
    "odes": 4737,
    "///": 4738,
    "\u00e5\u012a\u0139": 4739,
    "\u00ea\u00b1": 4740,
    "\u00e6\u0130\u0134": 4741,
    "ission": 4742,
    "\u0120far": 4743,
    "\u0120\u00d0\u00b8\u00d0\u00bd": 4744,
    "\u00eb\u00a9\u00b0": 4745,
    "oolean": 4746,
    "\u0120um": 4747,
    "\u00e2\u0122\u013f\u00ef\u00bc\u012e": 4748,
    "iness": 4749,
    "\u00e0\u00bb": 4750,
    "inn": 4751,
    "\u0120Col": 4752,
    "\u00d8\u00a7\u00d9\u0128\u00d9\u012c": 4753,
    "\u00e5\u00b0\u0136": 4754,
    "\u0120happ": 4755,
    "\u0120mean": 4756,
    "}}": 4757,
    "\u0120orig": 4758,
    "\u0120\u00d8\u00a8\u00d9\u012c\u00d9\u0128": 4759,
    "\u00e9\u013e\u0122\u00e8\u00a6\u0123": 4760,
    "otal": 4761,
    "\u0120social": 4762,
    "ively": 4763,
    "Ag": 4764,
    "\u0120\u00d8\u00a7\u00d9\u0126\u00d8\u00ab": 4765,
    "\u00e6\u013b\u00af": 4766,
    "\u00e7\u00bb\u00b4": 4767,
    "lication": 4768,
    "arge": 4769,
    "\u00e5\u0128\u00b5": 4770,
    "akes": 4771,
    "Att": 4772,
    "\u00e6\u00b5\u012d": 4773,
    "\u00ec\u0124\u00b0": 4774,
    "\u00e0\u00aa\u00be": 4775,
    "\u0120path": 4776,
    "oint": 4777,
    "\u0120Er": 4778,
    "\u00e5\u0143\u0139": 4779,
    "\u0120common": 4780,
    "\u0120Use": 4781,
    "\u0120human": 4782,
    "\u00d1\u0129\u00d0\u00b0": 4783,
    "\u0120\u00d9\u0129\u00d8\u00b0\u00d8\u00a7": 4784,
    "ainer": 4785,
    "\u0120fore": 4786,
    "\u0120making": 4787,
    "\u00d9\u0131": 4788,
    "\u0120module": 4789,
    "\u0120\u00d0\u00be\u00d0\u00b4": 4790,
    "\u0120calculate": 4791,
    "di": 4792,
    "param": 4793,
    "\u00e7\u012c\u00b6": 4794,
    "\u0120af": 4795,
    "\u00d8\u00b3\u00d9\u012c": 4796,
    "engan": 4797,
    "\u0120sem": 4798,
    "\u0120\u00d8\u00a7\u00d9\u0126\u00d9\u012a": 4799,
    "\u0120respons": 4800,
    "iment": 4801,
    "\u0120Te": 4802,
    "\u0120\u0109": 4803,
    "\u00e5\u0123\u00a5": 4804,
    "border": 4805,
    "\u0120\u00d9\u012a\u00d9\u0127": 4806,
    "\u0120\u0120\u0120\u0120\u0120\u0120\u0120\u0120\u0120\u0120\u0120\u0120\u0120\u0120\u0120\u0120\u0120\u0120\u0120\u0120\u0120\u0120\u0120\u0120": 4807,
    "\u0120exist": 4808,
    "si": 4809,
    "\u0120appropri": 4810,
    "\u00ec\u0128\u012e": 4811,
    "\u00e4\u00b9\u0142": 4812,
    "FFFFFFFFFFFFFFFF": 4813,
    "\u0120ol": 4814,
    "\u0120home": 4815,
    "\u0120ben": 4816,
    "\u00e8\u0129\u00b4": 4817,
    "\u00ea\u00b9": 4818,
    "\u00e9\u013b\u012f": 4819,
    "\u00ed\u0126": 4820,
    "\u00ec\u013a\u0123": 4821,
    "\u00e4\u00bc\u0139": 4822,
    "\u0120Dry": 4823,
    "\u0120question": 4824,
    "\u0120Be": 4825,
    "\u00e6\u013f\u0133": 4826,
    "\u00e3\u0124\u00b3": 4827,
    "\u0120\u00d8\u00a7\u00d9\u0126\u00d8\u00b0\u00d9\u012c": 4828,
    "ulation": 4829,
    "\u0123\u00e0\u00b8\u00b2\u00e0\u00b8": 4830,
    "bre": 4831,
    "\u0120addition": 4832,
    "\u0120\u00d1\u0123\u00d0\u00bf": 4833,
    "\u00e3\u0123\u00a4": 4834,
    "icense": 4835,
    "\u0120default": 4836,
    "ception": 4837,
    "gl": 4838,
    "\u00db\u012e\u00d8\u00aa": 4839,
    "\u00e4\u00bb\u00a5\u00e5\u0131\u012c": 4840,
    "\u0120air": 4841,
    "Config": 4842,
    "\u00e7\u00aa": 4843,
    "post": 4844,
    "ameters": 4845,
    "\u00c9\u013bn": 4846,
    "\u00e8\u0131": 4847,
    "[\"": 4848,
    "\u0120approach": 4849,
    "\u0120course": 4850,
    "table": 4851,
    "\u00d9\u012a\u00d9\u0126\u00d8\u00a9": 4852,
    "\u0120until": 4853,
    "ids": 4854,
    "\u00aa\u00d7": 4855,
    "State": 4856,
    "\u00e6\u00b4\u00bb\u00e5\u012c\u00a8": 4857,
    "error": 4858,
    "aging": 4859,
    "\u00e5\u0127\u013c": 4860,
    "\u00e5\u012f\u0131": 4861,
    "\u00e6\u0138\u0129\u00e5\u012e\u0138": 4862,
    "\u0120\u00ec\u00b6": 4863,
    "\u00e6\u0133": 4864,
    "\u00e5\u0131\u00af\u00e8\u0125\u00bd": 4865,
    "\u0120\u00d1\u0122": 4866,
    "\u00d1\u013a": 4867,
    "nie": 4868,
    "\u00d8\u00b7\u00d8\u00a9": 4869,
    "\u00e5\u00a4\u00a7\u00e5\u0143\u00a6": 4870,
    "\u0120mot": 4871,
    "\u00e6\u013c": 4872,
    "ules": 4873,
    "At": 4874,
    "\u00ed\u0125": 4875,
    "\u00e7\u00bd\u00ae": 4876,
    "\u0120mag": 4877,
    "\u00d8\u00a7\u00d8\u00af\u00d8\u00a9": 4878,
    "\u00e0\u00b8\u00a2": 4879,
    "\u0120explaining": 4880,
    "\u0120index": 4881,
    "\u0120pod": 4882,
    "\u00e5\u013d\u0143": 4883,
    "\u00a4\u00d7": 4884,
    "\u00d0\u00bd\u00d0\u00b3": 4885,
    "\u0120match": 4886,
    "DA": 4887,
    "\u0120tog": 4888,
    "agement": 4889,
    "\u0120\u00d0\u00b2\u00d0\u00be": 4890,
    ">>": 4891,
    "\u00e8\u00af\u0126": 4892,
    "\u0120dry": 4893,
    "\u0120come": 4894,
    "parency": 4895,
    "\u0120Int": 4896,
    "\u0120va": 4897,
    "iod": 4898,
    "Num": 4899,
    "\u0120cut": 4900,
    "\u00e0\u00b5\u0128": 4901,
    ":**": 4902,
    "\u00d8\u00a7\u00d8\u00b1\u00d8\u00af": 4903,
    "ende": 4904,
    "PS": 4905,
    "pace": 4906,
    "\u00e0\u00a8\u00be": 4907,
    "alam": 4908,
    "\u00d8\u00b1\u00d9\u012c\u00d9\u0124": 4909,
    "No": 4910,
    "\u0120cell": 4911,
    "ique": 4912,
    "\u0120\u0120\u0120\u0120\u0120\u0120\u0120\u0120\u010a": 4913,
    "\u00d0\u0137": 4914,
    "\u00ec\u013c\u00a9": 4915,
    "\u00d6\u0124": 4916,
    "IF": 4917,
    "ws": 4918,
    "\u0120dest": 4919,
    "\u00e3\u0123\u00a7\u00e3\u0123\u013b": 4920,
    "ji": 4921,
    "\u0120Cl": 4922,
    "\u00e4\u00b8\u0143\u00e5\u00bf\u0125": 4923,
    "Index": 4924,
    "\u0120All": 4925,
    "bottom": 4926,
    "\u00e1\u0125\u013f\u00e1\u0125": 4927,
    "\u0120neg": 4928,
    "ured": 4929,
    "\u0120provided": 4930,
    "hing": 4931,
    "ros": 4932,
    "\u00e8\u012d\u00b1": 4933,
    "before": 4934,
    "Request": 4935,
    "\u0139\u00e0\u00b8\u00b5": 4936,
    "\u00e5\u0132\u012e\u00e6\u0139\u00b6": 4937,
    "ury": 4938,
    "\u0120\u00c3\u0142": 4939,
    "\u00c3\u00a3": 4940,
    "\u00d1\u0122\u00d0\u00be": 4941,
    "ording": 4942,
    "imal": 4943,
    "Qu": 4944,
    "\u00d1\u0125\u00d0\u00bf": 4945,
    "kl": 4946,
    "\u0120sal": 4947,
    "<-": 4948,
    "\u00e7\u0127\u00a7": 4949,
    "US": 4950,
    "\u0120\u00d7\u0132\u00d7": 4951,
    "\u0120Qu": 4952,
    "\u00e2\u0122\u012d": 4953,
    "\u00e8\u0140\u012f": 4954,
    "info": 4955,
    "\u00d8\u00a7\u00d8\u00b1\u00d8\u00aa": 4956,
    "\u0120sat": 4957,
    "aps": 4958,
    "\u00e7\u00a2": 4959,
    "\u0120invol": 4960,
    "ML": 4961,
    "\u00e4\u00b8\u0136": 4962,
    "\u00e4\u00ba\u00a7\u00e4\u00b8\u013c": 4963,
    "\u00e6\u00a3\u0122": 4964,
    "\u0120gonna": 4965,
    "\u00e6\u012c\u012c": 4966,
    "pa": 4967,
    "arning": 4968,
    "\u00e9\u00a9\u00ac": 4969,
    "\u0120htt": 4970,
    "\u00d9\u012c\u00d8\u00b1\u00d8\u00a9": 4971,
    "\u00e3\u0125\u0139": 4972,
    "\u00db\u00b0": 4973,
    "\u0120\u00d0\u00ba\u00d0\u00be\u00d0\u00bc": 4974,
    "User": 4975,
    "\u00e5\u012a\u013f": 4976,
    "\u00d1\u012a\u00d0\u00b5": 4977,
    "\u0120feel": 4978,
    "System": 4979,
    "\u0120Per": 4980,
    "\u0120Some": 4981,
    "\u0120action": 4982,
    "DF": 4983,
    "\u00e0\u00b8\u013c": 4984,
    "conom": 4985,
    "\u00e5\u013d\u00bd\u00e9\u013b\u0127": 4986,
    "\u00e5\u00b0\u00b1\u00e6\u013a\u00af": 4987,
    "\u0120\u00ec\u0138": 4988,
    "ining": 4989,
    "\u0120\u00ec\u0140\u012a\u00eb\u012d\u00a4": 4990,
    "\u00e0\u00b8\u00b0": 4991,
    "\u0120together": 4992,
    "rel": 4993,
    "\u0120results": 4994,
    "\u00e6\u012a\u0132\u00e4\u00b8\u00ba": 4995,
    "\u0120since": 4996,
    "\u0120event": 4997,
    "db": 4998,
    "\u0120\u00ec\u0128": 4999,
    "\u0120writ": 5000,
    "\u0120Mar": 5001,
    "dev": 5002,
    "\u00d8\u00b1\u00d8\u00a7\u00d8\u00a1": 5003,
    "New": 5004,
    ".\u00e2\u0122\u013f": 5005,
    "irm": 5006,
    "open": 5007,
    "\u0120cult": 5008,
    "\u0120\u00ea\u00b7\u00b8": 5009,
    "\u00c3\u00a1r": 5010,
    "\u0120appropriate": 5011,
    "\u0120opt": 5012,
    "\u0120Dec": 5013,
    "\u00d8\u00a7\u00d8\u00b1\u00d8\u00a7\u00d8\u00aa": 5014,
    "hand": 5015,
    "Count": 5016,
    "\u0120\u00c8\u013bi": 5017,
    "='": 5018,
    "\u00e3\u0123\u00a3\u00e3\u0123\u00a6": 5019,
    "ners": 5020,
    "\u0120times": 5021,
    "bas": 5022,
    "check": 5023,
    "reen": 5024,
    "\u00e6\u0138\u00b9\u00e9\u013f\u00a2": 5025,
    "\u00e0\u00a5\u0129\u00e0\u00a4\u0124": 5026,
    "ternal": 5027,
    "position": 5028,
    "\u00ed\u0137\u013a\u00ea\u00b3\u0142": 5029,
    "\u0120option": 5030,
    "\u0120dar": 5031,
    "iversity": 5032,
    "ients": 5033,
    "\u00d0\u00b0\u00d1\u0124\u00d0\u00b0": 5034,
    "webkit": 5035,
    "\u00e4\u00ba\u00ba\u00e5\u0133\u013a": 5036,
    "ux": 5037,
    "\u00e0\u00a4\u0139": 5038,
    "from": 5039,
    "\u0120Cons": 5040,
    "\u00c3\u0143a": 5041,
    "ben": 5042,
    "EL": 5043,
    "\u0120\u00d0\u00ba\u00d0\u00b0\u00d0\u00ba": 5044,
    "\u0120inte": 5045,
    "\u0120report": 5046,
    "\u00e9\u0129\u012f\u00e8\u00a6\u0123": 5047,
    "\u0120area": 5048,
    "api": 5049,
    "Pl": 5050,
    "vi": 5051,
    "\u00e0\u00a7\u0123": 5052,
    "ram": 5053,
    "\u00ec\u00b6": 5054,
    "\u00e5\u0127\u012d": 5055,
    "\u00d0\u00b1\u00d0\u00be\u00d1\u0124": 5056,
    "\u0120often": 5057,
    "\u00d0\u00bb\u00d0\u00be": 5058,
    "\u00d1\u012d\u00d1\u0127": 5059,
    "\u00d1\u012d\u00d0\u00b5": 5060,
    "\u0120dengan": 5061,
    "\u00e6\u00ae\u00b5": 5062,
    "\u0120voor": 5063,
    "html": 5064,
    "\u00e8\u0127": 5065,
    "\u00d8\u00a7\u00d8\u00ab": 5066,
    "\u00e9\u0141\u00b3": 5067,
    "\u00e5\u013f\u0129": 5068,
    "\u0120uses": 5069,
    "\u00e0\u00b2\u00b0": 5070,
    "(:": 5071,
    "era": 5072,
    "ension": 5073,
    "\u00d8\u00a8\u00d8\u00a9": 5074,
    "\u0120along": 5075,
    "}\\": 5076,
    "\u0120web": 5077,
    "It": 5078,
    "\u00d8\u00a7\u00d9\u0128\u00db\u012e": 5079,
    "ude": 5080,
    "\u0120\u00d9\u012a\u00d8\u00a3": 5081,
    "\u00e7\u013d\u00b8\u00e5\u0127\u00b3": 5082,
    "\u0120always": 5083,
    "pdate": 5084,
    "this": 5085,
    "\u0120success": 5086,
    ":#": 5087,
    "\u0120\u00ea\u00b3\u00b5": 5088,
    "['": 5089,
    "mit": 5090,
    "Array": 5091,
    "\u00e4\u00ba\u013c": 5092,
    "\u00e6\u013b\u00ba": 5093,
    "\u0120cover": 5094,
    "align": 5095,
    "\u0120iss": 5096,
    "\u0120logic": 5097,
    "\u00e3\u0123\u012c": 5098,
    "\u00e6\u0132": 5099,
    "\u00e5\u00b1\u0140": 5100,
    "\u0120temper": 5101,
    "\u0120few": 5102,
    "\u0120dom": 5103,
    "\u00e9\u013c\u00be": 5104,
    "\u0120\u00ec\u00a4\u0133": 5105,
    "mas": 5106,
    "\u00e7\u013d\u0133": 5107,
    "\u00e7\u00ae\u0139": 5108,
    "\u0120ensure": 5109,
    "\u0120invest": 5110,
    "\u0120pen": 5111,
    "\u0120enter": 5112,
    "place": 5113,
    "\u0120against": 5114,
    "ALL": 5115,
    "start": 5116,
    "\u00e7\u0141\u00b3": 5117,
    "\u0120s\u00c4\u0125": 5118,
    "\u0120\u00ec\u0137\u0126": 5119,
    "AAAAAAAA": 5120,
    "\u0120\u00e0\u00a4\u00b2": 5121,
    "\u0120\u00d0\u00b4\u00d0\u00bb\u00d1\u0131": 5122,
    "atan": 5123,
    "\u0120\u00d8\u00a8\u00d8\u00b1\u00d8\u00a7\u00db\u012e": 5124,
    "\u0120comput": 5125,
    "\u0120\u00d8\u00a7\u00d9\u0123": 5126,
    "\u010a\u0109": 5127,
    "\u0120reason": 5128,
    "lood": 5129,
    "\"]": 5130,
    "\u0120prim": 5131,
    "cs": 5132,
    "Please": 5133,
    "fect": 5134,
    "\u00e8\u00af\u0143": 5135,
    "\u00e5\u00ba\u00b7": 5136,
    "\u0120fri": 5137,
    "ijn": 5138,
    "\u00e7\u013d\u012c": 5139,
    "wise": 5140,
    "\u00e0\u00a4\u00be\u00e0\u00a4\u00a8": 5141,
    "sg": 5142,
    "\u0120things": 5143,
    "\u00e4\u00bb\u00bd": 5144,
    "\u0120\u00ec\u00b0": 5145,
    "\u00e3\u0123\u00a1": 5146,
    "part": 5147,
    "\u0120port": 5148,
    "\u00d0\u00b0\u00d1\u0127": 5149,
    "\u00e7\u012b\u012e": 5150,
    "\u00e8\u0132\u00bd": 5151,
    "->{": 5152,
    "\u00ea\u00b3\u0126": 5153,
    "\u0120nat": 5154,
    "\u0120\u00ea\u00b2\u00bd": 5155,
    "%>": 5156,
    "ULL": 5157,
    "\u0120hold": 5158,
    "\u00e6\u0136\u00bf\u00e5\u00ba\u013e": 5159,
    "\u0120select": 5160,
    "\u00e7\u00bb\u0129": 5161,
    "\u0120bar": 5162,
    "\u0120untuk": 5163,
    "title": 5164,
    "\u0120meas": 5165,
    "\u00d8\u00b5\u00d9\u0126": 5166,
    "\u0120solution": 5167,
    "\u00e7\u0130\u00af\u00e5\u00a2\u0125": 5168,
    "\u0120pur": 5169,
    "\u00d0\u00b0\u00d0\u00bd\u00d0\u00b8\u00d1\u0131": 5170,
    "BC": 5171,
    "cal": 5172,
    "\u00c3\u00a1t": 5173,
    "\u00e7\u0143\u0138": 5174,
    "zi": 5175,
    "\u0120request": 5176,
    "\u00c4\u0123k": 5177,
    "\u0120kon": 5178,
    "\u0120interest": 5179,
    "ilt": 5180,
    "aa": 5181,
    "\u0120arr": 5182,
    "\u0120\u00ec\u013f\u00b4\u00eb": 5183,
    "ready": 5184,
    "\u00d0\u00bd\u00d1\u012d\u00d0\u00bc": 5185,
    "\u0120focus": 5186,
    "\u00e8\u012f\u00af": 5187,
    "\u00d8\u00a7\u00d9\u0126\u00d8\u00a9": 5188,
    "\u0120initial": 5189,
    "andom": 5190,
    "cd": 5191,
    "ationship": 5192,
    "ige": 5193,
    "\u0120study": 5194,
    "\u00d0\u00ba\u00d1\u0125": 5195,
    "\u0120better": 5196,
    "\u00d0\u00b8\u00d1\u0124\u00d0\u00b5": 5197,
    "\u00c2\u00bb.": 5198,
    "\u0120environment": 5199,
    "\u0120\u00d0\u00ba\u00d0\u00be\u00d0\u00bd": 5200,
    "\u0120risk": 5201,
    "\u00e5\u0131\u012a": 5202,
    "\u0120appe": 5203,
    "\u0120\u00d8\u00a2\u00d9\u0128": 5204,
    "\u0120\u00d8\u00a7\u00d9\u0126\u00d8\u00b9\u00d8\u00a7\u00d9\u0127": 5205,
    "\u00d8\u00b1\u00d8\u00b6": 5206,
    "http": 5207,
    "cle": 5208,
    "\u00e0\u00b9\u012b\u00e0\u00b8": 5209,
    "\u0120\u00e0\u00a4\u00b9\u00e0\u00a5\u012a": 5210,
    "\u00e8\u00b1\u00a1": 5211,
    "\u00e5\u00a4\u00aa": 5212,
    "\u0120custom": 5213,
    "Size": 5214,
    "____": 5215,
    "vers": 5216,
    "\u00e9\u00be": 5217,
    "\u00ed\u0126\u00b0": 5218,
    "ird": 5219,
    "\u0120middle": 5220,
    "\u0120days": 5221,
    "_,": 5222,
    "\u00d8\u00ae\u00d8\u00b5": 5223,
    "\u00e9\u013c\u0131": 5224,
    "\u0120block": 5225,
    "\u0120center": 5226,
    "\u0120US": 5227,
    "\u00e5\u012c\u00bf": 5228,
    "\u0120final": 5229,
    "\u0120padding": 5230,
    "\u00e5\u013d\u00be": 5231,
    "\u0120El": 5232,
    "\u0120character": 5233,
    "\u0120\u00ec\u00a3\u00bc": 5234,
    "\u00ea\u00b3\u00b5": 5235,
    "\u0120\u00d1\u0128": 5236,
    "\u00e5\u0130\u00bf": 5237,
    "\u0120Ass": 5238,
    "\u00e4\u00bd\u0131": 5239,
    "hr": 5240,
    "\u00e6\u013a\u0141": 5241,
    "uga": 5242,
    "ami": 5243,
    "pping": 5244,
    "\u00e6\u0140\u0139": 5245,
    "ca": 5246,
    "\u00e6\u012c\u0137\u00e8\u00b5\u0126": 5247,
    "\u0120bro": 5248,
    "\u00ec\u0140\u00ac": 5249,
    "\u00e5\u00bd\u00b1\u00e5\u0135\u012f": 5250,
    "yes": 5251,
    "iction": 5252,
    "rie": 5253,
    "\u00a7\u00d7": 5254,
    "\u0120\u00d9\u0127\u00d9\u012a": 5255,
    "\u0120mer": 5256,
    "\u0120Su": 5257,
    "\u0120dig": 5258,
    "\u0120opp": 5259,
    "\u00d1\u0133": 5260,
    "\u00e5\u012f\u00b3": 5261,
    "ards": 5262,
    "If": 5263,
    "\u00c2\u00bb,": 5264,
    "\u0120govern": 5265,
    "\u0120rece": 5266,
    "){": 5267,
    "\u00d1\u012d\u00d0\u00b9": 5268,
    "\u0120\u00d9\u0128\u00db\u012e": 5269,
    "\u0120hab": 5270,
    "\u0120treat": 5271,
    "\u0120unit": 5272,
    "aring": 5273,
    "\u0120\u00d8\u00aa\u00d8\u00b1": 5274,
    "\u00d0\u00b0\u00d0\u00bc\u00d0\u00b8": 5275,
    "\u00d9\u012a\u00d9\u0128\u00d8\u00a7": 5276,
    "\u00d8\u00af\u00d9\u012c": 5277,
    "Hand": 5278,
    "\u00d0\u00bd\u00d1\u0131": 5279,
    "\u00e5\u0133\u00bd": 5280,
    "\u00e5\u00ae\u00a4": 5281,
    "\u0120prob": 5282,
    "\u0120\u00ec\u013e\u0126": 5283,
    "\u00e5\u0130\u012d": 5284,
    "\u00e4\u00be\u013f": 5285,
    "off": 5286,
    "\u00c3\u0143t": 5287,
    "thers": 5288,
    "\u0120double": 5289,
    "\u00d0\u00b3\u00d0\u00b0": 5290,
    "\u0120four": 5291,
    "\u00e4\u00be\u00bf": 5292,
    "\u0120crit": 5293,
    "\u00e0\u00b9\u0125\u00e0\u00b8": 5294,
    "\u00d8\u00a8\u00d9\u0129": 5295,
    "\u0120\u00d8\u00b3\u00d9\u012c": 5296,
    "\u0120update": 5297,
    "\u00e5\u00bc\u0142": 5298,
    "\u0120\u00ec\u0142\u013e": 5299,
    "\u00e3\u0124\u0131": 5300,
    "ani": 5301,
    "\u00d9\u012a\u00d9\u0125": 5302,
    "\u00db\u00b1": 5303,
    "\u00c3\u00bcr": 5304,
    "field": 5305,
    "\u0120\u00e0\u00a4\u00a4": 5306,
    "\u0120By": 5307,
    "ului": 5308,
    "atures": 5309,
    "\u0120ta": 5310,
    "\u00d8\u00aa\u00db\u012e": 5311,
    "\u00e3\u0125\u0140": 5312,
    "CL": 5313,
    "\u0120These": 5314,
    "\u0120situ": 5315,
    "\u00e5\u0143\u00a6\u00e6\u0142\u00a1": 5316,
    "PE": 5317,
    "config": 5318,
    "ibrary": 5319,
    "\u0120thought": 5320,
    "\u00e8\u00a6\u0123\u00e6\u00b1\u0124": 5321,
    "\u00e0\u00a4\u00be\u00e0\u00a4\u0124": 5322,
    "\u00e6\u00bb\u00a1": 5323,
    "\u00e5\u012a\u0129": 5324,
    "block": 5325,
    "ilar": 5326,
    "Node": 5327,
    "eli": 5328,
    "\u0120\u0120\u0120\u0120\u0120\u0120\u0120\u0120\u0120\u0120\u0120\u0120\u0120\u0120\u0120\u0120\u0120": 5329,
    "\u0120\u00d8\u00a7\u00d9\u0126\u00d9\u0127\u00d8\u0143": 5330,
    "icro": 5331,
    "\u00d1\u0123\u00d1\u0124\u00d0\u00b2\u00d0\u00b5\u00d0\u00bd": 5332,
    "\u00e6\u0137\u00b0\u00e6\u012f\u00ae": 5333,
    "\u0120\u00eb\u00b3\u00b4": 5334,
    "\u00e7\u0130\u012d": 5335,
    "point": 5336,
    "\u0120impro": 5337,
    "\u00e5\u0127\u00b7\u00e6\u013e\u012b": 5338,
    "OS": 5339,
    "\u0120valid": 5340,
    "\u00e4\u00b9\u012b": 5341,
    "\u0120elect": 5342,
    "\u00e6\u00b2\u00b9": 5343,
    "\u00e7\u013b\u00be": 5344,
    "\u0120\u00d1\u0123\u00d0\u00b5": 5345,
    "eder": 5346,
    "icy": 5347,
    "\u00e8\u00bf\u0140": 5348,
    "\u0120Med": 5349,
    "cks": 5350,
    "Is": 5351,
    "\u0120\u00d9\u0126\u00d8\u00aa": 5352,
    "\u00e4\u00bf\u00ae": 5353,
    "\u00da\u00af\u00db\u012e": 5354,
    "\u0120month": 5355,
    "\u0120\u00d8\u00a3\u00d9\u012a": 5356,
    "\u0120maj": 5357,
    "\u00d8\u00b2\u00d8\u00a7\u00d8\u00b1": 5358,
    "ribut": 5359,
    "\u00d1\u0125\u00d1\u0129": 5360,
    "\u00ec\u0126\u0142": 5361,
    "\u00d0\u00bd\u00d0\u00be\u00d0\u00bc": 5362,
    "\u00e5\u0129\u0142": 5363,
    "ification": 5364,
    "ips": 5365,
    "\u00e7\u012e": 5366,
    "ival": 5367,
    "\u00e6\u012b\u00bf": 5368,
    "\u00e6\u013e\u013d": 5369,
    "\u00e8\u00ae\u00be\u00e5\u00a4\u0129": 5370,
    "\u0120certain": 5371,
    "\u0120bool": 5372,
    "\u0120\u00ec\u0140\u0132": 5373,
    "\u00ec\u013e\u0126": 5374,
    "label": 5375,
    "\u00d1\u0123\u00d0\u00ba\u00d0\u00be\u00d0\u00b9": 5376,
    "Message": 5377,
    "\u00e7\u00ac\u00ac\u00e4\u00b8\u0122": 5378,
    "\u00d1\u0122\u00d0\u00b5\u00d0\u00bc": 5379,
    "\u0120none": 5380,
    "\u00d0\u00b0\u00d0\u00bb\u00d0\u00b0": 5381,
    "cy": 5382,
    "\u00d1\u0123\u00d1\u0124\u00d0\u00b2\u00d0\u00b0": 5383,
    "\u0120\u00d9\u0126\u00d8\u00a7": 5384,
    "\u00c3\u00a9n": 5385,
    "btn": 5386,
    "\u00e5\u0136\u00ae": 5387,
    "OL": 5388,
    "\u00e6\u0142\u00b8": 5389,
    "\u00e5\u00a5\u00b9": 5390,
    "\u0120\u00ea\u00b1": 5391,
    "\u0120dari": 5392,
    "\u0120either": 5393,
    "\u0120mu": 5394,
    "\u00ec\u013c\u0136": 5395,
    "II": 5396,
    "\u00d0\u00bb\u00d0\u00b5\u00d0\u00b4": 5397,
    "\u0120language": 5398,
    "\u0120red": 5399,
    "\u00e5\u00b9\u00b2": 5400,
    "\u00d9\u012a\u00d8\u00a7\u00d8\u00aa": 5401,
    "ained": 5402,
    "vious": 5403,
    "Form": 5404,
    "\u00d5\u00b8\u00d6\u0124": 5405,
    "\u0120App": 5406,
    "\u00e5\u00a5\u0138": 5407,
    "zt": 5408,
    "\u00e0\u00b4\u00a4": 5409,
    "\u00e8\u00ae\u00b8": 5410,
    "\u00ce\u00bf\u00cf": 5411,
    "xtreme": 5412,
    "\u00e8\u00af\u013f": 5413,
    "lim": 5414,
    "\u0120What": 5415,
    "\u00e8\u00b4\u0141": 5416,
    "\u00d5\u00a1\u00d5\u00b6": 5417,
    "\u0120\u00d8\u00a3\u00d9\u012c": 5418,
    "\u0120done": 5419,
    "ett": 5420,
    "\u0120\u00c4\u00af": 5421,
    "pen": 5422,
    "iler": 5423,
    "\u0120\u00d0\u00bf\u00d0\u00be\u00d1\u0123": 5424,
    "{}": 5425,
    "\u0120educ": 5426,
    "\u00d1\u0124\u00d0\u00b8": 5427,
    "come": 5428,
    "\u0120detailed": 5429,
    "][": 5430,
    "\u00e7\u00a6\u00bb": 5431,
    "\u0120Man": 5432,
    "\u00e8\u0125\u00bd\u00e5\u012c\u013d": 5433,
    "Script": 5434,
    "\u0120sav": 5435,
    "Result": 5436,
    "\u00e9\u013f\u0134": 5437,
    "\u00e6\u00ac\u00be": 5438,
    "json": 5439,
    "ona": 5440,
    "address": 5441,
    "\u0120High": 5442,
    "Log": 5443,
    "\u0120At": 5444,
    "\u0120\u00d8\u00a8\u00d8\u00af": 5445,
    "\u00eb\u00ac\u00b8": 5446,
    "perts": 5447,
    "clus": 5448,
    "\u00e5\u0141\u00b9": 5449,
    "\u00e0\u00a6\u00be\u00e0\u00a6\u00b0": 5450,
    "ura": 5451,
    "\u0120able": 5452,
    "\u0120Sch": 5453,
    "gu": 5454,
    "<%": 5455,
    "\u00e0\u00a4\u013c": 5456,
    "\u00e9\u0122\u0124": 5457,
    "\u00e0\u00a7\u0141": 5458,
    "state": 5459,
    "\u00d9\u0127\u00d8\u00b9": 5460,
    "\u0120\u00d0\u00b1\u00d1\u0125\u00d0\u00b4": 5461,
    "gt": 5462,
    "\u00ed\u0131": 5463,
    "lete": 5464,
    "\u0120\u00ec\u00b2": 5465,
    "ming": 5466,
    "\u0120However": 5467,
    "\u00d8\u00a7\u00d9\u0125": 5468,
    "Str": 5469,
    "verage": 5470,
    "\u00a8\u00e0\u00b5\u012f\u00e0\u00b4": 5471,
    "oon": 5472,
    "\u0120known": 5473,
    "\u00ec\u012d\u0142": 5474,
    "\u0120pent": 5475,
    "\u0120ask": 5476,
    "urther": 5477,
    "ieve": 5478,
    "group": 5479,
    "aper": 5480,
    "\u0120give": 5481,
    ")+": 5482,
    "\u0120nov": 5483,
    "\u00e4\u00bb\u0127": 5484,
    "\u0120\u00d8\u00a7\u00d9\u0126\u00d9\u0127\u00d8\u00b5": 5485,
    "df": 5486,
    "\u00c4\u0139s": 5487,
    "\u0120\u00e0\u00b9\u0122\u00e0\u00b8": 5488,
    "\u00c4\u0123r": 5489,
    "\u00e5\u013e\u0141": 5490,
    "\u0120\u00d8\u00ab": 5491,
    "\u0120nam": 5492,
    "\u00ea\u00b2\u00bd": 5493,
    "\u0120\u00d8\u00a7\u00d9\u0126\u00d8\u00a3\u00d9\u0127": 5494,
    "\u00e5\u00b7\u00b2\u00e7\u00bb\u0131": 5495,
    "ese": 5496,
    "\u00e3\u0125\u00b3\u00e3\u0124": 5497,
    "())": 5498,
    "\u0120trust": 5499,
    "\u0120variable": 5500,
    "ctor": 5501,
    "\u00d9\u0125\u00d9\u012a\u00d9\u0128": 5502,
    "url": 5503,
    "down": 5504,
    "itten": 5505,
    "\u00e8\u012b\u00af": 5506,
    "ental": 5507,
    "\u0120available": 5508,
    "\u00e5\u00a8": 5509,
    "\u0120ach": 5510,
    "lock": 5511,
    "\u0120\u00d0\u00b4\u00d0\u00b0": 5512,
    "\u0120She": 5513,
    "\u010a\u0120\u0120\u0120\u0120\u0120\u0120\u0120\u0120\u010a": 5514,
    "\u00e5\u00bf\u00b5": 5515,
    "\u00e5\u012f\u012c": 5516,
    "ikan": 5517,
    "\u00e8\u00b5\u00b0": 5518,
    "\u0120special": 5519,
    "\u00ec\u00b9\u013a": 5520,
    "\u0120today": 5521,
    "\u0120numbers": 5522,
    "\u0120hard": 5523,
    "\u013d\u0126": 5524,
    "\u0120kor": 5525,
    "transform": 5526,
    "\"$": 5527,
    "area": 5528,
    "ias": 5529,
    "\u00e7\u013c\u0126\u00e4\u00b8\u0122": 5530,
    "valu": 5531,
    "\u0120necessary": 5532,
    "\u0120Add": 5533,
    "rij": 5534,
    "n\u00c3\u0143": 5535,
    "\u0120\u00d8\u00aa\u00d9\u0128": 5536,
    "\u0120supp": 5537,
    "QL": 5538,
    "PI": 5539,
    "\u00e7\u013c\u0126\u00e4\u00ba\u00ba": 5540,
    "\u0120means": 5541,
    "OD": 5542,
    "eturn": 5543,
    "\u0120mai": 5544,
    "ula": 5545,
    "\u00e5\u013d\u0142\u00e4\u00b8\u00ba": 5546,
    "\u0120Ne": 5547,
    "\u0120\u00d7\u0137": 5548,
    "UM": 5549,
    "\\\\": 5550,
    "\u0120\u00ec\u013f\u00b8": 5551,
    "\u00e5\u0126\u00bf": 5552,
    "omet": 5553,
    "icult": 5554,
    "\u0120lik": 5555,
    "\u0120\u00c3\u00bc": 5556,
    "(*": 5557,
    "\u00e5\u00a6\u0124\u00e6\u0140\u013e": 5558,
    "\u00e5\u00a4\u00b1": 5559,
    "\u0120solid": 5560,
    "\u0120Define": 5561,
    "\u0120sus": 5562,
    "\u0120\u00d9\u0127\u00d9\u0124": 5563,
    "\u0120space": 5564,
    "\u00e6\u0125\u0127\u00e5\u0128\u00b5": 5565,
    "\u00e3\u0123\u0137\u00e3\u0124\u012e": 5566,
    "\u00e5\u0125\u0131": 5567,
    "\u00e4\u00bb\u00a5\u00e4\u00b8\u012c": 5568,
    "\u0120Ph": 5569,
    "\u0120Euro": 5570,
    "Token": 5571,
    "\u0120sy": 5572,
    "\u0120\u00da\u00a9\u00db\u0134": 5573,
    "\u00e5\u0131\u00b2": 5574,
    "ida": 5575,
    "culate": 5576,
    "\u00ed\u0137\u0142": 5577,
    "\u0120subject": 5578,
    "\u0120material": 5579,
    "\u00ed\u0138\u012b": 5580,
    "izing": 5581,
    "\u0120least": 5582,
    "package": 5583,
    "\u00e3\u0122\u0124<|": 5584,
    "uments": 5585,
    "math": 5586,
    "\u00c5\u00af": 5587,
    "Context": 5588,
    "\u0120\u00d8\u00a7\u00d8\u00b9": 5589,
    "\u00e3\u0125\u00a1": 5590,
    "\u00d8\u00b3\u00d8\u00b1": 5591,
    "\u0120large": 5592,
    "EE": 5593,
    "\u00e5\u00a2\u0140\u00e9\u0137\u00bf": 5594,
    "\u00e7\u013d\u00ae\u00e5\u012b\u012f": 5595,
    "\u0120\u00da\u00a9\u00d8\u00b1": 5596,
    "\u0120\u00d9\u012a\u00d9\u0124": 5597,
    "zen": 5598,
    "An": 5599,
    "\u00d1\u0123\u00d1\u0123": 5600,
    "lish": 5601,
    "/**": 5602,
    "\u00e3\u0125\u012b": 5603,
    "\u0120target": 5604,
    "pped": 5605,
    "And": 5606,
    "ker": 5607,
    "\u00ed\u012e": 5608,
    "\u00e8\u0143": 5609,
    "ogle": 5610,
    "\u00e8\u00bf\u013b\u00e4\u00b8\u00aa": 5611,
    "\u0120procedure": 5612,
    "\u00d9\u0128\u00d8\u00a9": 5613,
    "\u0120press": 5614,
    "\u0120seem": 5615,
    "gi": 5616,
    "\u0120ei": 5617,
    "\u00e6\u013f\u00bf": 5618,
    "lem": 5619,
    "\u0120\u00c3\u00a9s": 5620,
    "\u0120\u00d8\u00a3\u00d9\u0127": 5621,
    "iple": 5622,
    "\u0120design": 5623,
    "link": 5624,
    "abil": 5625,
    "\u00c3\u00a3o": 5626,
    "\u0120Anal": 5627,
    "respon": 5628,
    "false": 5629,
    "(_": 5630,
    "\u0120Can": 5631,
    "\u00e0\u00a6\u0137": 5632,
    "ades": 5633,
    "\u00e5\u0127\u00b6\u00e4\u00b8\u0143": 5634,
    "View": 5635,
    "\u00e8\u00b2": 5636,
    "\u00e0\u00a4\u00a6": 5637,
    "TH": 5638,
    "\u00d8\u00af\u00d8\u00af": 5639,
    "\u0120page": 5640,
    "\u00d8\u00a7\u00d9\u0126\u00d9\u012c": 5641,
    "\u00e3\u0124\u00ab": 5642,
    "\u00e5\u0143\u00a3": 5643,
    "\u00d8\u00a7\u00d9\u0127\u00d9\u0126": 5644,
    "\u00e4\u00bd\u013e\u00e4\u00b8\u00ba": 5645,
    "opt": 5646,
    "\u0120story": 5647,
    "ograph": 5648,
    "AF": 5649,
    "\u00e3\u0125\u0128": 5650,
    "ista": 5651,
    "\u00d9\u0125\u00d8\u00aa": 5652,
    "\u00eb\u00b9\u0126": 5653,
    "\u00e6\u012e\u012b": 5654,
    "lient": 5655,
    "\u00e7\u00bb\u0128": 5656,
    "\u00d0\u00b5\u00d0\u00bd\u00d1\u012e": 5657,
    "\u0120bal": 5658,
    ")-": 5659,
    "\u00e0\u00aa\u00be\u00e0\u00aa": 5660,
    "xff": 5661,
    "UE": 5662,
    "span": 5663,
    "\u0120\u00ec\u0125\u0123": 5664,
    "\u00e9\u013b\u00a9": 5665,
    "\u00ed\u0136": 5666,
    "\u0120already": 5667,
    "\u00d0\u00b3\u00d0\u00b8": 5668,
    "\u00e6\u012d\u012b": 5669,
    "\u0120style": 5670,
    "ych": 5671,
    "\u00eb\u012d\u00b9": 5672,
    "\u00d8\u00a2": 5673,
    "\u00b5\u013e": 5674,
    "cm": 5675,
    "\u00ec\u0139\u0143": 5676,
    "\u0120ant": 5677,
    "\u0120mind": 5678,
    "yr": 5679,
    "plate": 5680,
    "wards": 5681,
    "ges": 5682,
    "ivity": 5683,
    "Level": 5684,
    "\u00e3\u0123\u00a8\u00e3\u0123\u0126": 5685,
    "\u0120dim": 5686,
    "\u00e5\u00a3\u00b0": 5687,
    "script": 5688,
    "\u0120database": 5689,
    "\u0120float": 5690,
    "button": 5691,
    "sequ": 5692,
    "With": 5693,
    "light": 5694,
    "corporate": 5695,
    "\u0120levels": 5696,
    "\u0120hands": 5697,
    "\u0120\u00d9\u012a\u00d8\u00ac": 5698,
    "\u0120mom": 5699,
    "\u0120\u00d3\u00a9\u00d0\u00bd\u00d0\u00b3": 5700,
    "kn": 5701,
    "\u00e3\u0124\u00a3": 5702,
    "\u0120tid": 5703,
    "\u00e5\u012f\u0137\u00e4\u00bd\u012f": 5704,
    "ino": 5705,
    "\u0120sn": 5706,
    "OP": 5707,
    "\u0120video": 5708,
    "\u0120title": 5709,
    "vol": 5710,
    "\u0120cir": 5711,
    "\u00ea\u00b4\u0122": 5712,
    "\u0120define": 5713,
    "\u0120complex": 5714,
    "plement": 5715,
    "\u00e7\u00a7\u0133\u00e6\u012c\u0122": 5716,
    "\u00d0\u00b5\u00d1\u0122\u00d0\u00b0": 5717,
    "ster": 5718,
    "adius": 5719,
    "\u00e5\u00b1\u0124": 5720,
    "\u00e7\u00bb\u0126\u00e7\u00bb\u0129": 5721,
    "*(": 5722,
    "\"\"\"": 5723,
    "\u0120lay": 5724,
    "\u0120kl": 5725,
    "ergy": 5726,
    "Trans": 5727,
    "\u00c3\u00b5": 5728,
    "\u00d8\u00b9\u00d9\u012a\u00d8\u00af": 5729,
    "\u00d8\u00b3\u00db\u012e": 5730,
    "\u00d0\u00b5\u00d1\u0129": 5731,
    "\u0120tur": 5732,
    "\u0120version": 5733,
    "\u0120\u00d0\u00b2\u00d1\u0123\u00d0\u00b5": 5734,
    "\u00ea\u00b0\u0126": 5735,
    "\u00e9\u013a\u00b3": 5736,
    "ving": 5737,
    "\u0120upon": 5738,
    "active": 5739,
    "Def": 5740,
    "\u0120null": 5741,
    "\u0120AS": 5742,
    "eld": 5743,
    "\u0120gra": 5744,
    "display": 5745,
    "\u0120itu": 5746,
    "\u0120\u00d9\u0127\u00d8\u00b3\u00d8\u00aa": 5747,
    "\u00e5\u0141\u0130\u00e5\u00b8\u0124": 5748,
    "\u00d8\u00a7\u00d8\u00b1\u00d9\u012c": 5749,
    "\u00e2\u0122\u012f": 5750,
    "(`": 5751,
    "\u00e6\u00b2\u00b3": 5752,
    "\u00e4\u00ba\u00ba\u00e6\u00b0\u0133": 5753,
    "\u0120\u00c4\u012f": 5754,
    "\u0120\u00db\u0123\u00db\u0134": 5755,
    "\u00c4\u0123m": 5756,
    "[:": 5757,
    "\u0120\u00eb\u00af": 5758,
    "********************************": 5759,
    "\u00db\u012e\u00d8\u00b4": 5760,
    "\u0120signific": 5761,
    "comp": 5762,
    "\u00d8\u00b3\u00d9\u0127": 5763,
    "Build": 5764,
    "\u00ea\u00b7": 5765,
    "\u00e0\u00b8\u00b9": 5766,
    "\u00e9\u013d\u0128\u00e5\u013d\u00a2": 5767,
    "\u0120free": 5768,
    "\u00d0\u00be\u00d0\u00b5": 5769,
    "\u0120son": 5770,
    "\u00e8\u00a1\u00a8\u00e7\u00a4\u00ba": 5771,
    "\u00e6\u013a\u00af\u00e4\u00b8\u0122": 5772,
    "padding": 5773,
    "\u0120tw": 5774,
    "\u0120kad": 5775,
    "yl": 5776,
    "#,": 5777,
    "\u00e5\u0128\u013d": 5778,
    "\u00e5\u0127\u00a8\u00e5\u013d\u00bd": 5779,
    "\u00e3\u0123\u00bf": 5780,
    "\u00d1\u0125\u00d0\u00bc": 5781,
    "ored": 5782,
    "\u0120\u00c4\u0133": 5783,
    "\u0120\u00da\u00a9\u00d8\u00b4": 5784,
    "ijas": 5785,
    "\u00e4\u00b8\u00be": 5786,
    "\u0120\u00c3\u00a1": 5787,
    "plit": 5788,
    "\u00d0\u00b8\u00d0\u00bd\u00d0\u00b0": 5789,
    "fa": 5790,
    "\u0120learn": 5791,
    "\u00e5\u0127\u0127": 5792,
    "\u00e4\u00ba\u0134": 5793,
    "\u0120Joh": 5794,
    "From": 5795,
    "\u0120\u00eb\u00b6\u0122": 5796,
    "ledge": 5797,
    "\u0120sv": 5798,
    "IV": 5799,
    "enn": 5800,
    "ounter": 5801,
    "But": 5802,
    "\u00d0\u00b8\u00d1\u0124\u00d0\u00b5\u00d0\u00bb": 5803,
    "$,": 5804,
    "\u0120\u00e0\u00ac": 5805,
    "stit": 5806,
    "\u0120correct": 5807,
    "\u00e5\u012a\u013d\u00e6\u0138\u00b0": 5808,
    "eta": 5809,
    "\u0120pentru": 5810,
    "\u00e6\u0124\u00a3": 5811,
    "\u0120behind": 5812,
    "\u0120young": 5813,
    "serv": 5814,
    "\u00e2\u0122\u013f\u00e3\u0122\u0124": 5815,
    "\u00e7\u0123\u00ab": 5816,
    "\u00d8\u00ab\u00d8\u00b1": 5817,
    "\u0120las": 5818,
    "\u00e0\u00a4\u00af": 5819,
    "irus": 5820,
    "Input": 5821,
    "bit": 5822,
    "\u0120sort": 5823,
    "pecial": 5824,
    "\u0135\u00d7": 5825,
    "\u00d0\u00bb\u00d0\u00b5\u00d0\u00bd": 5826,
    "\u00e7\u012b\u012a": 5827,
    "\u00e4\u00bb\u0122": 5828,
    "\u00ec\u00a1\u00b0": 5829,
    "KE": 5830,
    "\u0120trad": 5831,
    "\u0120node": 5832,
    "\u0120potential": 5833,
    "\u0133\u013e": 5834,
    "eq": 5835,
    "\u0120percent": 5836,
    "abled": 5837,
    "().": 5838,
    "\u0120away": 5839,
    "\u00e4\u00b8\u00a5": 5840,
    "\u0120\u00c5\u0141i": 5841,
    "\u0120types": 5842,
    "\u00db\u012e\u00da\u00ba": 5843,
    "\u0120super": 5844,
    "\u00d8\u00b3\u00d8\u00aa\u00d8\u00a7\u00d9\u0128": 5845,
    "\u0120Go": 5846,
    "\u0120\u00d9\u0124\u00d8\u00b1": 5847,
    "Ser": 5848,
    "\u00e8\u00b4\u00a8\u00e9\u0129\u0131": 5849,
    "orld": 5850,
    "\u0120\u00d7\u0137\u00d7": 5851,
    "\u0120\u00c5": 5852,
    "\u00ce\u00b7": 5853,
    "iek": 5854,
    "Status": 5855,
    "acity": 5856,
    "Field": 5857,
    "ponent": 5858,
    "orth": 5859,
    "msg": 5860,
    "\u00e5\u0138\u0126": 5861,
    "\u0120simple": 5862,
    "\u0120minutes": 5863,
    "\u00e5\u0122\u013b": 5864,
    "\u0120concept": 5865,
    "\u00d0\u00ba\u00d0\u00b0\u00d0\u00b7": 5866,
    "\u0120Cont": 5867,
    "\u00e3\u0123\u013d": 5868,
    "\u00e6\u013e\u012b\u00e9\u013b\u0132": 5869,
    "\u0120static": 5870,
    "\u00d1\u0125\u00d0\u00b1": 5871,
    "l\u00c4\u00b1": 5872,
    "ills": 5873,
    "\u0120personal": 5874,
    "\u0120\u00c3\u00b6": 5875,
    "\u0120status": 5876,
    "\u00e2\u0122\u013f,": 5877,
    "\u0129\u00e0\u00b8\u013c": 5878,
    "\u00d1\u0131\u00d0\u00b2": 5879,
    "mm": 5880,
    "\u0137\u00e0\u00b5\u012f\u00e0\u00b4": 5881,
    "unn": 5882,
    "\u00ce\u00bb": 5883,
    "\u0120variables": 5884,
    "\u0120\u00e0\u00a5\u012f": 5885,
    "\u0120reli": 5886,
    "\u00eb\u00af\u00bc": 5887,
    "\u0120thing": 5888,
    "\u00e5\u0127\u00b6\u00e4\u00bb\u0138": 5889,
    "\u0120kan": 5890,
    "\u00e5\u00be\u00ae": 5891,
    "\u00e5\u013d\u00b4": 5892,
    "\u00d0\u00b5\u00d0\u00ba\u00d1\u0124": 5893,
    "\u0120ill": 5894,
    "\u00e4\u00ba\u012b": 5895,
    "\u00e7\u00bb\u012a": 5896,
    "\u0120words": 5897,
    "ensive": 5898,
    "\u0120never": 5899,
    "\u00d8\u00aa\u00d9\u0129\u00d8\u00a7": 5900,
    "\u00e7\u0143\u0133": 5901,
    "\u0120phys": 5902,
    "\u00e5\u0132\u012a\u00e4\u00bd\u013e": 5903,
    "\u0120due": 5904,
    "\u00e5\u00be\u0122": 5905,
    "\u00e5\u0131\u00a4": 5906,
    "\u00e6\u013b\u00ae": 5907,
    "\\)": 5908,
    "\u00d0\u00bd\u00d0\u00be\u00d1\u0123\u00d1\u0124\u00d0\u00b8": 5909,
    "\u00ef\u00bd": 5910,
    "\u0120Write": 5911,
    "inary": 5912,
    "pan": 5913,
    "\u0120family": 5914,
    "\u0120intro": 5915,
    "ogn": 5916,
    "init": 5917,
    "\u0120When": 5918,
    "\u00e5\u00a4\u00a7\u00e7\u013c\u0126": 5919,
    "\u00c5\u00a1an": 5920,
    "\u0120este": 5921,
    "www": 5922,
    "oad": 5923,
    "\u0120ko": 5924,
    "TER": 5925,
    "dom": 5926,
    "\u00e9\u0125\u00a8\u00e5\u012a\u0128": 5927,
    "\u00ec\u0140\u0127": 5928,
    "\u00e0\u00a4\u00a3": 5929,
    "\u0120pu": 5930,
    "\u0120map": 5931,
    "\u00da\u00af\u00d8\u00a7\u00d9\u0129": 5932,
    "\u0120why": 5933,
    "\u00eb\u012d\u00a8": 5934,
    "\u0120elements": 5935,
    "////////": 5936,
    "\u00d8\u00a7\u00da\u00a9": 5937,
    "\u00e2\u0122\u012e\u00d9\u0129\u00d8\u00a7": 5938,
    "\u0120exec": 5939,
    "\u0120associ": 5940,
    "\u00e5\u0129\u0131": 5941,
    "\u0139\u00e0\u00b8": 5942,
    "times": 5943,
    "ota": 5944,
    "iff": 5945,
    "\u00d0\u0143": 5946,
    "\u00d0\u00bd\u00d0\u00b0\u00d1\u0131": 5947,
    "\u0120describ": 5948,
    "apt": 5949,
    "\u0120c\u00c4\u0125": 5950,
    "\u0120particular": 5951,
    "\u0120Prof": 5952,
    "\u00e2\u0122\u013f.": 5953,
    "ogy": 5954,
    "\u0120\u00e0\u00a4\u00ae\u00e0\u00a5\u0129\u00e0\u00a4\u0124": 5955,
    "MS": 5956,
    "\u00e6\u012d\u00ac": 5957,
    "\u0120among": 5958,
    "\u00da\u00af\u00d8\u00b1": 5959,
    "essionals": 5960,
    "\u00e4\u00b8\u012f\u00e5\u0132\u012e": 5961,
    "\u0120account": 5962,
    "\u0120dise": 5963,
    "\u0120history": 5964,
    "ran": 5965,
    "\u0120creating": 5966,
    "ila": 5967,
    "\u0120\u00db\u012e\u00da\u00a9": 5968,
    "\u0120kas": 5969,
    "\u0120\u00d0\u0137": 5970,
    "\u0124\u00e0\u00b2": 5971,
    "\u0120\u00ea\u00b4\u0122": 5972,
    "sel": 5973,
    "Response": 5974,
    "\u0120\u00eb\u012d\u00a4": 5975,
    "\u0120\u00ea\u00b5\u0143": 5976,
    "\u0120source": 5977,
    "cz": 5978,
    "icht": 5979,
    "\u00e5\u0131\u012d": 5980,
    "aim": 5981,
    "\u00c3\u00a5r": 5982,
    "\u00e0\u00a4\u00be\u00e0\u00a4\u00a4": 5983,
    "osed": 5984,
    "hover": 5985,
    "Code": 5986,
    "angan": 5987,
    "\u0120others": 5988,
    "\u00c3\u00a4n": 5989,
    "\u00e7\u00ba\u00a2": 5990,
    "\u00e5\u0132\u00ab": 5991,
    "\u0120specified": 5992,
    "\u0120game": 5993,
    "\u0120caus": 5994,
    "\u0120\u00d0\u00be\u00d0\u00bf": 5995,
    "\u00e5\u00af\u012e": 5996,
    "DC": 5997,
    "\u00d8\u00a7\u00db\u012e\u00db\u012e": 5998,
    "\u00e5\u00a4\u0126\u00e7\u0132\u0128": 5999,
    "\u0120enough": 6000,
    "\u00e5\u0124": 6001,
    "\u00e6\u012b\u00b9": 6002,
    "\u0120\u00ed\u0138": 6003,
    "\u00e6\u00b1\u00bd": 6004,
    "\u00e5\u00ae\u0140\u00e7\u0130\u00b0": 6005,
    "\u00e5\u00bd\u0137": 6006,
    "\u0120needs": 6007,
    "het": 6008,
    "\u0120techni": 6009,
    ")))": 6010,
    "\u00e6\u0142\u0129\u00e5\u0129\u0128": 6011,
    "\u0120stop": 6012,
    ",$": 6013,
    "\u0120\u00e0\u00a4\u00af": 6014,
    "perties": 6015,
    "\u0120normal": 6016,
    "\u00e6\u0142\u00b9\u00e6\u012f\u00ae": 6017,
    "has": 6018,
    "flow": 6019,
    "\u0120inn": 6020,
    "\u0120Prov": 6021,
    "iles": 6022,
    "!(": 6023,
    "\u00d1\u0123\u00d1\u0124\u00d0\u00b0\u00d0\u00b2": 6024,
    "gor": 6025,
    "\u0120\u00d9\u0129\u00d8\u00b0\u00d9\u0129": 6026,
    "iden": 6027,
    "\u00e8\u00af\u00be": 6028,
    "\u0120job": 6029,
    "\u0120fut": 6030,
    "\u0120context": 6031,
    "weight": 6032,
    "\u0120ten": 6033,
    "nection": 6034,
    "\u00d0\u00bd\u00d0\u00b8\u00d0\u00ba": 6035,
    "pend": 6036,
    "\u0120past": 6037,
    "\u0120functions": 6038,
    "\u0120several": 6039,
    "Output": 6040,
    "\u0120period": 6041,
    "Not": 6042,
    "\u0120config": 6043,
    "\u00e5\u00a5\u00bd\u00e7\u013c\u0126": 6044,
    "inst": 6045,
    "\u00c3\u00b3w": 6046,
    "\u0120\u00eb\u0124\u013a": 6047,
    "\u00d9\u0125\u00d8\u00a9": 6048,
    "\u0120United": 6049,
    "usi": 6050,
    "\u0120\u00ec\u013f\u00bc": 6051,
    "\u00e8\u00bf\u013b\u00e4\u00ba\u013d": 6052,
    "\u00d0\u00bd\u00d0\u00be\u00d0\u00b5": 6053,
    "\u00e1\u0122\u00b9": 6054,
    "\u00d0\u00b8\u00d1\u0122": 6055,
    "\u0120tas": 6056,
    "ije": 6057,
    "idence": 6058,
    "\u00eb\u00a3": 6059,
    "orage": 6060,
    "\u0120tu": 6061,
    "Man": 6062,
    "\u0120infl": 6063,
    "\u00d0\u0133": 6064,
    "ico": 6065,
    "\u00d0\u00b2\u00d0\u00b5\u00d1\u0122": 6066,
    "\u0120La": 6067,
    "\u0120\u00ec\u013a\u00a4": 6068,
    "\u0120American": 6069,
    "\u00e3\u0125\u0129": 6070,
    "imate": 6071,
    "\u0120week": 6072,
    "\u0120actually": 6073,
    "\u00e8\u00b4\u00a2": 6074,
    "\u00d9\u012a\u00d9\u0124\u00d8\u00b9": 6075,
    ")^": 6076,
    "iting": 6077,
    "isa": 6078,
    "akt": 6079,
    "EB": 6080,
    "\u0120upd": 6081,
    "\u00d8\u00b6\u00d8\u00a7\u00d9\u0123": 6082,
    "\u0120scen": 6083,
    "\u00cf\u0125": 6084,
    "gress": 6085,
    "\u0120teach": 6086,
    "\u00e0\u00a4\u00b0\u00e0\u00a5\u012f\u00e0\u00a4": 6087,
    "ques": 6088,
    "\u0120weight": 6089,
    "\u00cf\u0124": 6090,
    "\u0120\u00d9\u012a\u00d8\u00a7\u00d9\u0126\u00d9\u0127": 6091,
    "bi": 6092,
    "\u00d3\u00a8": 6093,
    "Sub": 6094,
    "\u0120econom": 6095,
    "\u00e4\u00bb\u0122\u00e4\u00b9\u012a": 6096,
    "\u0120pay": 6097,
    "\u0120half": 6098,
    "\u0120loop": 6099,
    "\u00e0\u00a4\u00be\u00e0\u00a4\u00b2": 6100,
    "\u00ef\u00bc\u0133": 6101,
    "\u0120sel": 6102,
    "\u00d1\u0122\u00d0\u00b0\u00d0\u00b7": 6103,
    "\u0120\u00e0\u00a4\u0139": 6104,
    "\u00e5\u00a4\u0141": 6105,
    "\u00d0\u00be\u00d0\u00b1\u00d1\u012b": 6106,
    "struct": 6107,
    "oud": 6108,
    "\u00d1\u0123\u00d0\u00ba\u00d0\u00be\u00d0\u00b3\u00d0\u00be": 6109,
    "Su": 6110,
    "\u00e0\u00a8\u00be\u00e0\u00a8": 6111,
    "\u00a1\u00d7": 6112,
    "\u0120prior": 6113,
    "\u00e5\u00bc\u0122\u00e5\u00a7\u012d": 6114,
    "\u0120sw": 6115,
    "\u0120big": 6116,
    "\u0120face": 6117,
    "call": 6118,
    "\u0120relationship": 6119,
    "oke": 6120,
    "pol": 6121,
    "\u00eb\u0124\u013e": 6122,
    "\u00e1\u0125\u013a\u00e1\u0125\u00a1": 6123,
    "\u0120single": 6124,
    "\u00e6\u0141\u0135": 6125,
    "ido": 6126,
    "ille": 6127,
    "\u0120Let": 6128,
    "\u00e4\u00ba\u00bf\u00e5\u0127\u0125": 6129,
    "\u0120NULL": 6130,
    "\u010a\u0120\u0120\u010a": 6131,
    "\u00c3\u00a1l": 6132,
    "FB": 6133,
    "\u0120Python": 6134,
    "\u00ea\u00b0\u013e": 6135,
    "Date": 6136,
    "node": 6137,
    "ename": 6138,
    "Reg": 6139,
    "\u00d8\u00a7\u00d8\u00af\u00d9\u0129": 6140,
    "\u00e5\u00ba\u0136\u00e7\u0136\u00a8": 6141,
    "\u00eb\u0141\u00ac": 6142,
    "\u0120\u00d8\u00b9\u00d9\u0126\u00d9\u012c": 6143,
    "\u0120\u00d9\u012a\u00d9\u0129": 6144,
    "\u00e0\u00a6\u00a4": 6145,
    "ette": 6146,
    "\u0120\u00d8\u00a8\u00d9\u012a\u00d8\u00af": 6147,
    "\u0120needed": 6148,
    "\u00e3\u0123\u00a7\u00e3\u0123\u00af": 6149,
    "\u0120respect": 6150,
    "\u0120\u00d8\u00a7\u00d9\u0128\u00d8\u00aa": 6151,
    "ably": 6152,
    "\u0120ste": 6153,
    "\u0120fost": 6154,
    "\u0123\u00e0\u00b8\u00b2\u00e0\u00b8\u00a3": 6155,
    "\u0120\u00d8\u00a8\u00d9\u0126": 6156,
    "\u0120Then": 6157,
    "\u00e7\u00a6\u0131": 6158,
    "\u00e6\u0143\u00a2": 6159,
    "\u0120Am": 6160,
    "\u00e9\u0135\u00b6": 6161,
    "ante": 6162,
    "\u0120rate": 6163,
    "\u0120Me": 6164,
    "\u00e2\u0136": 6165,
    "tep": 6166,
    "del": 6167,
    "\u00d1\u0123\u00d1\u0124\u00d0\u00b0\u00d0\u00bd": 6168,
    "\u00ea\u00b9\u012e": 6169,
    "%%%%": 6170,
    "ukan": 6171,
    "':": 6172,
    "\u0120okay": 6173,
    "\u0120fall": 6174,
    "{\"": 6175,
    "\u00ec\u0137\u012a": 6176,
    "\u010a\u0109\u010a": 6177,
    "../": 6178,
    "\u00e5\u00be\u012d": 6179,
    "ators": 6180,
    "dr": 6181,
    "\u00e5\u0133\u00b3": 6182,
    "\u00e5\u012e\u0127\u00e6\u012d\u00ac": 6183,
    "\u0120Test": 6184,
    "\u0120working": 6185,
    "xf": 6186,
    "\u0120full": 6187,
    "\u00d9\u012c\u00d8\u00ab": 6188,
    "\u0120\u00d0\u013d": 6189,
    "\u0120nav": 6190,
    "\u00db\u00b2": 6191,
    "\u00d9\u0128\u00d8\u00aa": 6192,
    "\u0120\u00d9\u0123\u00d9\u012b": 6193,
    "\u0120Finally": 6194,
    "\u00e8\u00b4\u0143": 6195,
    "\u00ec\u013f\u00b4\u00eb\u012d\u00a4": 6196,
    "upt": 6197,
    "How": 6198,
    "\u00e9\u0135\u0123": 6199,
    "\u00d1\u0123\u00d1\u0124\u00d0\u00b2\u00d0\u00be": 6200,
    "\u0120nem": 6201,
    "Dis": 6202,
    "\u00e9\u0122\u0123": 6203,
    "\u0120\u00ec\u00a1\u00b0": 6204,
    "\u0120hours": 6205,
    "\u0120exc": 6206,
    "\u00d8\u00ae\u00d8\u00aa": 6207,
    "\u00ed\u0138\u012a": 6208,
    "\u0120Result": 6209,
    "\u00a1\u00e0\u00b8": 6210,
    "\u00e3\u0124\u00b8": 6211,
    "\u00e7\u00a7\u0133\u00e5\u0143\u00a6": 6212,
    "\u0120development": 6213,
    "\u00e7\u00be\u0130\u00e5\u013d\u00bd": 6214,
    "\u00e5\u0142\u00b4": 6215,
    "\u00e5\u012f\u0142": 6216,
    "\u0120\u00d8\u00b9\u00d8\u00a7\u00d9\u0127": 6217,
    "\u0120nie": 6218,
    "\u0120complet": 6219,
    "\u0120Br": 6220,
    "\u00ec\u0126\u00b8": 6221,
    "\u00db\u0136": 6222,
    "\u0120una": 6223,
    "\u00e5\u0127\u012f": 6224,
    "\u0120energy": 6225,
    "select": 6226,
    "\u00d1\u0125\u00d1\u0123": 6227,
    "\u0120\u00d9\u0125\u00d9\u0126": 6228,
    "\u0120lot": 6229,
    "\u0120become": 6230,
    "UB": 6231,
    "\u0120\u00cf\u0126": 6232,
    "\u0120later": 6233,
    "\u0120points": 6234,
    "\u00e4\u00bb\u012d": 6235,
    "anya": 6236,
    "\u00e4\u00b8\u0143\u00e7\u013c\u0126": 6237,
    "\u0120mi": 6238,
    "\u00d9\u012a\u00d9\u012b": 6239,
    "\u0120\u00d9\u0128\u00d8\u00b8": 6240,
    "Color": 6241,
    "\u00e5\u00ae\u00a1": 6242,
    "Attribute": 6243,
    "Fr": 6244,
    ".''": 6245,
    "\u0120average": 6246,
    "\u00e0\u00a7\u0129\u00e0\u00a6\u00b0": 6247,
    "\u00ec\u013c\u00b0": 6248,
    "\u00d8\u00b7\u00d8\u00b1": 6249,
    "\u0120\u00d0\u00b4\u00d0\u00be": 6250,
    "\u0120\u00d9\u0124\u00d8\u00af": 6251,
    "ication": 6252,
    "\u00d8\u00b2\u00d9\u012c": 6253,
    "\u0120Car": 6254,
    "\u00d0\u00b8\u00d1\u0129\u00d0\u00b5\u00d1\u0123\u00d0\u00ba": 6255,
    "\u0120License": 6256,
    "\u0120won": 6257,
    "\u0120kar": 6258,
    "ashing": 6259,
    "\u00eb\u0142\u00a5": 6260,
    "\u00e5\u00af\u0128": 6261,
    "\u00c3\u00a9r": 6262,
    "All": 6263,
    "\u00e6\u012a\u0131": 6264,
    "\u0120sugg": 6265,
    "\u0120ess": 6266,
    "ires": 6267,
    "\u00e5\u00b1\u0127": 6268,
    "\u00e5\u00bb\u00ba\u00e7\u0143\u0133": 6269,
    "\u0120\u00ec\u013f\u013a": 6270,
    "\u00e6\u0139\u00a5\u00e6\u013e\u00ac": 6271,
    "unk": 6272,
    "\u0120\u00d8\u00aa\u00d8\u00b5": 6273,
    "\u00e3\u0123\u0124\u00e3\u0124\u012d": 6274,
    "atal": 6275,
    "\u0120k\u00c3\u00b6": 6276,
    "\u00d9\u0125\u00d8\u00af": 6277,
    "\u0120memory": 6278,
    "\u00e9\u0125\u00a8\u00e9\u0139\u00a8": 6279,
    "\u00d0\u00b5\u00d1\u0124\u00d1\u0123\u00d1\u0131": 6280,
    "ounds": 6281,
    "ptoms": 6282,
    "\u0120saf": 6283,
    "\u00e5\u00bf\u0139": 6284,
    "\u0120\u00eb\u00b2": 6285,
    "roups": 6286,
    "ding": 6287,
    "\u0120near": 6288,
    "\u00e5\u012f\u013c": 6289,
    "\u00d8\u00a8\u00d8\u00aa": 6290,
    "\"`": 6291,
    "\u0120suggest": 6292,
    "\u0109\u0109\u0109\u0109\u0109\u0109": 6293,
    "\u0120\u00ed\u0131": 6294,
    "\u0120fra": 6295,
    "py": 6296,
    "\u00e5\u0131\u012e": 6297,
    "ief": 6298,
    "\u0120famous": 6299,
    "\u0120chall": 6300,
    "\u00d8\u00a7\u00d9\u0128\u00d9\u012c\u00d8\u00a9": 6301,
    "\u0120Your": 6302,
    "\u0120soft": 6303,
    "\u0120mut": 6304,
    "\",\"": 6305,
    "\u00d9\u0127\u00d9\u0129": 6306,
    "\u0120diff": 6307,
    "\u00a2\u0127": 6308,
    "\u00e6\u0139\u00a9": 6309,
    "yy": 6310,
    "\u0120kur": 6311,
    "\u00e0\u00b4\u00b0": 6312,
    "\u0120someone": 6313,
    "\u00e5\u0143\u00a6\u00e4\u00b9\u0142": 6314,
    "\u0120zijn": 6315,
    "\u00e6\u0137\u0127": 6316,
    "\u0120That": 6317,
    "\u0120console": 6318,
    "\u00d0\u00b0\u00d0\u00bd\u00d0\u00b4": 6319,
    "\u0120prec": 6320,
    "atory": 6321,
    "><": 6322,
    "\u0120\u00d0\u0142\u00d0\u00be\u00d1\u0123\u00d1\u0123": 6323,
    "\u0120Fl": 6324,
    "\u00e8\u00b5\u0126\u00e6\u00ba\u0132": 6325,
    "\u00bd\u0136": 6326,
    "\u0120ku": 6327,
    "\u00d9\u012a\u00d8\u00b4": 6328,
    "Loc": 6329,
    "wner": 6330,
    "\u00e7\u00be\u00a4": 6331,
    "\u0120frequ": 6332,
    "\u0120Ab": 6333,
    "\u0120ist": 6334,
    "\u0120\u00d0\u00bb\u00d0\u00b8": 6335,
    "\u00e6\u013b\u0124": 6336,
    "sqrt": 6337,
    "\u00e6\u012d\u0127": 6338,
    "jon": 6339,
    "\u0120analysis": 6340,
    "ora": 6341,
    "\u0120property": 6342,
    "image": 6343,
    "\u00e6\u0138\u00b9\u00e5\u00bc\u0131": 6344,
    "\u0120member": 6345,
    "jum": 6346,
    "\u00e6\u013f\u0132\u00e6\u0138\u013b": 6347,
    "\u0120\u00d0\u00b0\u00d0\u00b2": 6348,
    "python": 6349,
    "lay": 6350,
    "\u00d2\u00af\u00d2\u00af": 6351,
    "\u00e0\u00a6\u00b2": 6352,
    "\u00ec\u013d\u0136": 6353,
    "oney": 6354,
    "\u00e7\u013c\u00ae": 6355,
    "\u0120across": 6356,
    "\u0120ak": 6357,
    "\u0120Gr": 6358,
    "uck": 6359,
    "\u0120apply": 6360,
    "eds": 6361,
    "\u00c9\u013bt": 6362,
    "\u00e4\u00ba\u00ba\u00e7\u013c\u0126": 6363,
    "\u0120Implement": 6364,
    "\u0120\u00c3\u00ba": 6365,
    "\u0120\u00ec\u0126\u0142": 6366,
    "FC": 6367,
    "So": 6368,
    ",-": 6369,
    "TT": 6370,
    "ios": 6371,
    "\u00e7\u0131\u0143": 6372,
    "\u00d9\u012a\u00d8\u00b1\u00d8\u00a9": 6373,
    "\u00c4\u00af": 6374,
    "\u00e8\u00bf\u013e": 6375,
    "hel": 6376,
    "parent": 6377,
    "\u00c3\u00b3n": 6378,
    "\u0120\u00d1\u012f\u00d1\u0124\u00d0\u00be": 6379,
    "aca": 6380,
    "\u0120\u00e0\u00a4\u0137\u00e0\u00a5\u012d": 6381,
    "\u0120query": 6382,
    "\u00d8\u00b9\u00d8\u00a8": 6383,
    "\u0120\u00d8\u00a7\u00d9\u0126\u00d9\u0127\u00d8\u00b3\u00d8\u00aa": 6384,
    "\u00e5\u013f\u013c": 6385,
    ":-": 6386,
    "MM": 6387,
    "ols": 6388,
    "\u00cf\u0122": 6389,
    "\u0120heart": 6390,
    "\u00d8\u00a7\u00d9\u0128\u00d9\u0129": 6391,
    "']": 6392,
    "\u00ce\u00af": 6393,
    "Map": 6394,
    "igen": 6395,
    "ae": 6396,
    "with": 6397,
    "last": 6398,
    "\u00d8\u00a7\u00d9\u0126\u00d8\u00aa": 6399,
    "dy": 6400,
    "\u00e4\u00ba\u012a": 6401,
    "hal": 6402,
    "uby": 6403,
    "\u0120quote": 6404,
    "\u0120fmt": 6405,
    ",\u00e2\u0122\u013f": 6406,
    "Us": 6407,
    "NS": 6408,
    "\u00e7\u0136\u00b3": 6409,
    "\u0120format": 6410,
    "\u0120integr": 6411,
    "\u00e5\u012f\u00b0": 6412,
    "\u0120\u00d8\u00b4\u00d8\u00af\u00d9\u0129": 6413,
    "---": 6414,
    "\u00d8\u00a6\u00d8\u00a9": 6415,
    "\u00d0\u00bd\u00d0\u00be\u00d0\u00b2": 6416,
    "\u00e5\u00af\u00b9\u00e4\u00ba\u0130": 6417,
    "ky": 6418,
    "Inst": 6419,
    "\u00e0\u00a7\u012d": 6420,
    "\u00e8\u00a9": 6421,
    "Inter": 6422,
    "\u00d9\u0125\u00d9\u0127": 6423,
    "\u0120understanding": 6424,
    "\u0120Reg": 6425,
    "\u00e7\u0138\u00ab": 6426,
    "\u0120echo": 6427,
    "\u00d0\u00ba\u00d1\u0122\u00d0\u00b0": 6428,
    "\u0120proper": 6429,
    "\u0120larg": 6430,
    "\u00e6\u0131\u0132\u00e9\u00ab\u013a": 6431,
    "\u0120base": 6432,
    "\u0120auto": 6433,
    "\u00e3\u0123\u00a8\u00e3\u0123\u0126\u00e3\u0123\u0128": 6434,
    "\u0120works": 6435,
    "ifier": 6436,
    "\u00e9\u00a2\u013f": 6437,
    "\u0120\u00d0\u00b2\u00d0\u00be\u00d0\u00b7": 6438,
    "in\u00c4\u0123": 6439,
    "escription": 6440,
    "\u0120Low": 6441,
    "\u0120Incorporate": 6442,
    "Here": 6443,
    "\u0120continu": 6444,
    "Print": 6445,
    "\u0120maint": 6446,
    "Aut": 6447,
    "\u00ec\u0139\u00b0": 6448,
    "\u0120response": 6449,
    "\u0120s\u00c3\u00bc": 6450,
    "\u0120\u00d8\u00ae\u00d8\u00a8\u00d8\u00b1": 6451,
    "\u00e5\u013e\u00b0\u00e5\u012e\u00ba": 6452,
    "\u0120\u00d8\u00a8\u00d8\u0143": 6453,
    "\u0120short": 6454,
    "ised": 6455,
    "\u0120according": 6456,
    "\u00d8\u00b0\u00d8\u00a7": 6457,
    "\u00aa\u00e0\u00b8": 6458,
    "(\\": 6459,
    "\u00e6\u00a4": 6460,
    "\u00ec\u0139\u00ac": 6461,
    "'.": 6462,
    "aya": 6463,
    "\u0109\u0120\u0120\u0120": 6464,
    "\u0120actions": 6465,
    "FI": 6466,
    "\u0120box": 6467,
    "aged": 6468,
    "\u00e7\u00ae\u0122": 6469,
    "\u0120\u00d8\u00b4\u00d8\u00b1": 6470,
    "\u00c3\u00a9g": 6471,
    "aily": 6472,
    "option": 6473,
    "\u0120Cent": 6474,
    "\u0120\u00d9\u0127\u00db\u012e\u00da\u00ba": 6475,
    "\u0120Java": 6476,
    "version": 6477,
    "\u00d8\u00a7\u00d9\u0127\u00d9\u0129": 6478,
    "\u0120\u00da\u00a9\u00d9\u0128": 6479,
    "\u0120pal": 6480,
    "UP": 6481,
    "nsure": 6482,
    "module": 6483,
    "imo": 6484,
    "Do": 6485,
    "header": 6486,
    "\u0120changes": 6487,
    "\u00ec\u0137\u00bc": 6488,
    "status": 6489,
    "\u00e7\u00a8\u0130": 6490,
    "\u00e6\u00bf": 6491,
    "\u00e8\u012a\u00aa": 6492,
    "\u00e9\u00be\u013b": 6493,
    "\u0120\u00d8\u00a8\u00d9\u0127": 6494,
    "\u0120\u00d8\u00a8\u00d8\u00b4": 6495,
    "rs": 6496,
    "igr": 6497,
    "\u0120Begin": 6498,
    "\u0120stra": 6499,
    "Ab": 6500,
    "\u0120\u00d1\u0123\u00d0\u00be\u00d0\u00be\u00d0\u00b1\u00d1\u012b": 6501,
    "\u00e5\u0130\u0124": 6502,
    "\u00e5\u00bc\u0122\u00e5\u0131\u0133": 6503,
    "\u0120knowledge": 6504,
    "\u00e4\u00bd\u013b": 6505,
    "\u00e0\u00a5\u012d\u00e0\u00a4\u0124": 6506,
    "Rec": 6507,
    "dat": 6508,
    "\u00e8\u00a1\u0122": 6509,
    "\u0120God": 6510,
    "\u0120i\u00c5\u00a1": 6511,
    "Class": 6512,
    "\u00e8\u00a7\u0134": 6513,
    "\u00e7\u00bb\u013e": 6514,
    "\u00e5\u0128\u013b": 6515,
    "ales": 6516,
    "idden": 6517,
    "stract": 6518,
    "\u0120cook": 6519,
    "\u0120\u00d8\u00a7\u00d9\u0126\u00d9\u0129": 6520,
    "\u0128\u0134": 6521,
    "================================": 6522,
    "\u0120\u00d9\u012a\u00d8\u00a7\u00d9\u0126\u00d8\u00aa": 6523,
    "\u0120depending": 6524,
    "\u00e7\u012d\u00ac": 6525,
    "eter": 6526,
    "\u00ea\u00b8\u012a": 6527,
    "DS": 6528,
    "\u0120\u00e0\u00a6\u00ac": 6529,
    "\u00d0\u00b5\u00d0\u00bd\u00d0\u00b8\u00d0\u00b8": 6530,
    "\u0120University": 6531,
    "\u0120\u00d0\u00b4\u00d0\u00b5": 6532,
    "\u00e5\u012f\u00ab": 6533,
    "\u0120date": 6534,
    "bed": 6535,
    "ez": 6536,
    "\u0120sche": 6537,
    "\u0120Em": 6538,
    "\u0120temperature": 6539,
    "\u0120wer": 6540,
    "\u0120han": 6541,
    "\u00d1\u012f\u00d0\u00bd": 6542,
    "apter": 6543,
    "\u00c3\u00b4": 6544,
    "\u00e6\u012d\u013d": 6545,
    "fix": 6546,
    "\u0120cur": 6547,
    "indows": 6548,
    "\u00d8\u00a8\u00d9\u0128": 6549,
    "medi": 6550,
    "\u00e7\u00ba\u00aa": 6551,
    "\u0120\u00d0\u00b8\u00d0\u00bc": 6552,
    "\u0120Bar": 6553,
    "inition": 6554,
    "ados": 6555,
    "\u0120State": 6556,
    "oman": 6557,
    "\u00d0\u00b7\u00d0\u00b0": 6558,
    "gorith": 6559,
    "uel": 6560,
    "just": 6561,
    "\u0120white": 6562,
    "Group": 6563,
    "\u0120publ": 6564,
    "\u0120\u00d1\u0122\u00d0\u00b0\u00d0\u00b1\u00d0\u00be\u00d1\u0124": 6565,
    "\u00e3\u0124\u00b5": 6566,
    "\u00e5\u00ae\u00b3": 6567,
    "\u0120decl": 6568,
    "\u00d9\u0125\u00d9\u012a\u00d9\u0127": 6569,
    "\u00d8\u00b9\u00d9\u0127": 6570,
    "\u00d8\u00ac\u00d9\u0126": 6571,
    "\u0120\u00d3\u00a9\u00d0\u00bd\u00d0\u00b3\u00d3\u00a9": 6572,
    "\u00e9\u00bb\u0126": 6573,
    "\u00e5\u0123\u00a5\u00e5\u00ba\u00b7": 6574,
    "\u0120tim": 6575,
    "roid": 6576,
    "','": 6577,
    "\u0120\u00d1\u0122\u00d1\u0125": 6578,
    "\u00d1\u0128\u00d0\u00b8\u00d1\u0131": 6579,
    "\u00eb\u0132\u013e": 6580,
    "\u00e3\u0125\u0132": 6581,
    "uv": 6582,
    "\u0120tell": 6583,
    "\u00e5\u013d\u00bd\u00e5\u0128\u0127": 6584,
    "main": 6585,
    "inin": 6586,
    "\u00d0\u00b0\u00d1\u0122\u00d0\u00b0": 6587,
    "\u0120items": 6588,
    "\u0120government": 6589,
    "\u0120role": 6590,
    "ira": 6591,
    "\u00ec\u00b2\u00b4": 6592,
    "\u0120Christ": 6593,
    "\u00e8\u00a7\u0126\u00e5\u00ae\u013c": 6594,
    "BA": 6595,
    "\u0120p\u00c5\u013b": 6596,
    "\u0120One": 6597,
    "\u0120command": 6598,
    "\u0120END": 6599,
    "\u00ec\u013e\u0142": 6600,
    "\u0120additional": 6601,
    "level": 6602,
    "\u0120List": 6603,
    "\u00a3\u00e1\u0125": 6604,
    "\u0120Analysis": 6605,
    "gar": 6606,
    "\u00d8\u00a7\u00d8\u00a8\u00d8\u00a9": 6607,
    "ithub": 6608,
    "\u0120OR": 6609,
    "\u0120IS": 6610,
    "\u00d0\u00bb\u00d0\u00be\u00d0\u00b2": 6611,
    "\u00e9\u00a6\u013b": 6612,
    "\u0120WH": 6613,
    "\u0120sud": 6614,
    "ilor": 6615,
    "XX": 6616,
    "\u00d0\u00ba\u00d0\u00b5": 6617,
    "este": 6618,
    "\u0120\u00d8\u00a7\u00d8\u00aa": 6619,
    "istic": 6620,
    "\u0120\u00eb\u00aa\u00a8": 6621,
    "\u00e6\u0139\u0127\u00e6\u00b8\u00b8": 6622,
    "\u0120mit": 6623,
    "\u0120\u00d8\u00a8\u00d8\u00aa": 6624,
    "\u0120document": 6625,
    "\u00d0\u00b0\u00d1\u0122\u00d1\u0124": 6626,
    "Per": 6627,
    "\u0120unique": 6628,
    "\u0120ki\u00c5\u0141": 6629,
    "\u00e9\u013f\u0140\u00e5\u00b8\u00b8": 6630,
    "\u0120bes": 6631,
    "\u0120Rep": 6632,
    "\u0120\u00d8\u00af\u00d9\u012a\u00d9\u0126": 6633,
    "\u00e6\u013e\u012b\u00e9\u013b\u0132\u00e5\u0127\u00ac\u00e5\u0131\u00b8": 6634,
    "\u00e0\u00a4\u00bf\u00e0\u00a4\u00af": 6635,
    "fficient": 6636,
    "\u0120significant": 6637,
    "ride": 6638,
    "\u0120\u00ea\u00b8": 6639,
    "\u0120\u00d8\u00a7\u00d9\u0126\u00d9\u0127\u00d8\u00b3": 6640,
    "atter": 6641,
    "\u0120\u00d8\u00aa\u00d8\u00ac": 6642,
    "\u0120names": 6643,
    "ison": 6644,
    "\u00e3\u0124\u00a6": 6645,
    "\u0120fa": 6646,
    "\u00e5\u0127\u00b4": 6647,
    "dit": 6648,
    "\u0120god": 6649,
    "\u0120\u00d8\u00ae\u00d9\u012a\u00d8\u00af": 6650,
    "\u0120further": 6651,
    "\u0120\u00e0\u00a6\u0137": 6652,
    "\u0120\u00ed\u013b\u0137": 6653,
    "\u0120steps": 6654,
    "\u00e4\u00bb\u013a": 6655,
    "\u00c9\u013bl": 6656,
    "mu": 6657,
    "\u00d8\u00a7\u00d8\u00af\u00d9\u012c": 6658,
    "\u00c6\u00b0": 6659,
    "\u00e6\u012d\u00a9": 6660,
    "\u0120inf": 6661,
    "\u0120blood": 6662,
    "acc": 6663,
    "\u0120\u00d9\u0127\u00d8\u0143\u00d9\u0127\u00d8\u00af": 6664,
    "args": 6665,
    "\u00e0\u00a4\u013e": 6666,
    "\u00d8\u00b9\u00d8\u00aa": 6667,
    "nes": 6668,
    "\u0120avoid": 6669,
    "Invalid": 6670,
    "\u0120Out": 6671,
    "adow": 6672,
    "\u00d8\u00af\u00d9\u0129": 6673,
    "\u00e5\u00b9\u00b3\u00e5\u0131\u00b0": 6674,
    "Parameter": 6675,
    "asa": 6676,
    "\u0120RE": 6677,
    "\u0120\u0120\u0120\u0120\u0120\u0120\u0120\u0120\u0120\u0120\u0120\u0120\u0120\u0120\u0120\u0120\u0120\u0120\u0120\u0120\u0120\u0120\u0120\u0120\u0120\u0120\u0120\u0120\u0120\u0120\u0120\u0120\u0120\u0120\u0120\u0120\u0120\u0120\u0120\u0120\u0120\u0120\u0120": 6678,
    "Em": 6679,
    "\u0120\u00ec\u013e\u0142": 6680,
    "\u00d8\u00b1\u00d8\u00a7\u00d9\u0128": 6681,
    "\u00e5\u0141\u00ba\u00e7\u00a1": 6682,
    "\u0120dos": 6683,
    "\u00c3\u00bcn": 6684,
    "\u0120\u00eb\u012f": 6685,
    "\u0120prevent": 6686,
    "\u0134\u00d7": 6687,
    "\u0120\u00d0\u00b3\u00d0\u00be\u00d0\u00b4\u00d0\u00b0": 6688,
    "\u0120qui": 6689,
    "\u0120Min": 6690,
    "tings": 6691,
    "\u0120extreme": 6692,
    "\u00d0\u00b4\u00d0\u00b5": 6693,
    "\u0120Jul": 6694,
    "\u0120\u00ed\u0137\u013a": 6695,
    "TY": 6696,
    "\u00e5\u00be\u012a\u00e5\u00a4\u013c": 6697,
    "\u0120\u00eb\u0131\u013b": 6698,
    "===": 6699,
    "ando": 6700,
    "\u00e5\u0141\u00ba\u00e7\u00a1\u0122": 6701,
    "\u0120says": 6702,
    "\u00c3\u00a9t": 6703,
    "\u00e0\u00b8\u00b1\u00e0\u00b8": 6704,
    "\u00d1\u0122\u00d0\u00b3": 6705,
    "\u0120service": 6706,
    "cos": 6707,
    "\u0120author": 6708,
    "\u0120pred": 6709,
    "\u00e7\u0128": 6710,
    "\u0120\u00d0\u00be\u00d1\u0123": 6711,
    "\u00e4\u00b8\u013c\u00e5\u012c\u00a1": 6712,
    "\u0120explain": 6713,
    "TO": 6714,
    "\u0120ann": 6715,
    "raft": 6716,
    "\u0120\u00e0\u00a4\u0137\u00e0\u00a4\u00b0": 6717,
    "\u0120\u00d8\u00b1\u00d8\u00a6\u00d9\u012c\u00d8\u00b3": 6718,
    "\u00e6\u012b\u0122\u00e4\u00bb\u00a5": 6719,
    "ategory": 6720,
    "\u0120patient": 6721,
    "aster": 6722,
    "\u0120price": 6723,
    "bal": 6724,
    "\u00e7\u0136\u00b0": 6725,
    "\u00d9\u012a\u00d8\u00b1\u00d9\u012c": 6726,
    "Client": 6727,
    "arp": 6728,
    "default": 6729,
    "\u00e6\u00b8\u00af": 6730,
    "jen": 6731,
    "\u00d0\u00b5\u00d1\u0122\u00d0\u00b2": 6732,
    "zer": 6733,
    "\u00e8\u00be\u0135": 6734,
    "\u0120fi": 6735,
    "\u00ec\u0125\u013f": 6736,
    "\u0120copy": 6737,
    "\u00e4\u00b9\u0141\u00e6\u013a\u00af": 6738,
    "\u00c4\u0135t": 6739,
    "\u0120directly": 6740,
    "\u00e5\u00b7\u00a5\u00e4\u00b8\u013c": 6741,
    "\u0120http": 6742,
    "\u0120country": 6743,
    "\u00c4\u012fi": 6744,
    "\u00e1\u0125\u0136\u00e1\u0125\u0133": 6745,
    "\u0120\u00e1\u0122": 6746,
    "\u00e3\u0125\u0123": 6747,
    "\u00e6\u0135": 6748,
    "\u0120My": 6749,
    "\u0120NOT": 6750,
    "\u00e5\u0128\u0127\u00e5\u00ae\u00b9": 6751,
    "\u00e3\u0124\u00aa": 6752,
    "array": 6753,
    "\u0120\u00d8\u00a7\u00d9\u0126\u00d9\u0127\u00d8\u00ac": 6754,
    "\u0120Engineer": 6755,
    "fully": 6756,
    "\u00e0\u00a6\u00ac": 6757,
    "\u00d9\u0128\u00da\u00af": 6758,
    "\u00d1\u0122\u00d0\u00b0\u00d0\u00bc": 6759,
    "izer": 6760,
    "asing": 6761,
    "\u00e9\u0134\u00a2": 6762,
    "aten": 6763,
    "\u00e8\u00a6\u012d": 6764,
    "\u012b\u00b4": 6765,
    "\u0120Create": 6766,
    "\u0120files": 6767,
    "\u0120das": 6768,
    "\u0120equal": 6769,
    "\u0120instance": 6770,
    "\u0120Mod": 6771,
    "\u0120benef": 6772,
    "\u0120Dr": 6773,
    "\u0120\u00ec\u012d\u0142": 6774,
    "What": 6775,
    "aries": 6776,
    "\u0120\u00ec\u00b5\u013e": 6777,
    "uf": 6778,
    "equ": 6779,
    "\u00e7\u00bf": 6780,
    "SP": 6781,
    "\u0120writing": 6782,
    "There": 6783,
    "agn": 6784,
    "\u0120dru": 6785,
    "ako": 6786,
    "\u00e3\u0125\u00a3": 6787,
    "\u00eb\u012d\u012a": 6788,
    "\u0120pan": 6789,
    "\u00d0\u00b4\u00d0\u00b5\u00d0\u00bb": 6790,
    "}\"": 6791,
    "\u00e6\u013e\u00a8": 6792,
    "\u0120topic": 6793,
    "\u0120perm": 6794,
    "det": 6795,
    "ological": 6796,
    "\u00e8\u00be\u00b9": 6797,
    "\u00e7\u00bc\u0138": 6798,
    "\u0120written": 6799,
    "AME": 6800,
    "\u00e5\u012e\u0139\u00e4\u00ba\u00ac": 6801,
    "\u0120major": 6802,
    "VER": 6803,
    "model": 6804,
    "Event": 6805,
    "\u0120below": 6806,
    "\u0120\u00d0\u00bc\u00d0\u00be\u00d0\u00b6": 6807,
    "\u00e5\u0129\u00ba\u00e7\u0130\u00b0": 6808,
    "\u00ce\u00bc": 6809,
    "\u00e8\u00ae\u0143": 6810,
    "\u0120dalam": 6811,
    "\u0120scenari": 6812,
    "pha": 6813,
    "\u0120\u00d8\u00a7\u00d9\u0126\u00d8\u00af\u00d9\u012a\u00d9\u0126": 6814,
    ")/": 6815,
    "\u00e5\u012b\u00af": 6816,
    "QU": 6817,
    "\u00e8\u0130\u00b7\u00e5\u00be\u0139": 6818,
    "\u00d9\u012c\u00d9\u012a": 6819,
    "\u00e0\u00a4\u00bf\u00e0\u00a4\u0137": 6820,
    "\u0120Europe": 6821,
    "ync": 6822,
    "apan": 6823,
    "\u00e5\u00ba\u0137": 6824,
    "\u00d1\u0128\u00d0\u00b0": 6825,
    "CM": 6826,
    "uid": 6827,
    "\u0120link": 6828,
    "\u0120learning": 6829,
    "CR": 6830,
    "\u0120having": 6831,
    "Low": 6832,
    "\u00ed\u0140": 6833,
    "\u00e5\u012b\u00a7": 6834,
    "\u00d0\u00bb\u00d1\u0130": 6835,
    "\u00e6\u013e\u00ba\u00e6\u0140\u0126": 6836,
    "\u0120\u00e0\u00a4\u0137\u00e0\u00a5\u0122": 6837,
    ".)": 6838,
    "ato": 6839,
    "\u0120\u00d9\u0124\u00d8\u00a8\u00d9\u0126": 6840,
    "ede": 6841,
    "\u0120regular": 6842,
    "\u0120san": 6843,
    "\u00e7\u013b\u00ba": 6844,
    "\u0120juga": 6845,
    "\u00d0\u00b8\u00d1\u0122\u00d0\u00be\u00d0\u00b2": 6846,
    "\u0120ing": 6847,
    "\u0120continue": 6848,
    "});": 6849,
    "\u00e5\u012a\u00b0\u00e4\u00ba\u0128": 6850,
    "\u00d8\u00b9\u00d8\u00b6": 6851,
    "NO": 6852,
    "\u0120methods": 6853,
    "\u0120Data": 6854,
    "proto": 6855,
    "\u00d9\u0128\u00d9\u012c\u00d8\u00a9": 6856,
    "\u0120\u00ec\u0139\u00b0": 6857,
    "ente": 6858,
    "\u0120women": 6859,
    "\u0120\u00d1\u0123\u00d0\u00b2\u00d0\u00be": 6860,
    "\u0120protect": 6861,
    "\u00e8\u00a7\u012b": 6862,
    "(!": 6863,
    "\u00e9\u0138\u0135": 6864,
    "\u00e5\u0143\u00a9": 6865,
    "\u00e7\u00bd\u0139": 6866,
    "lang": 6867,
    "\u0120\u00eb\u00b9\u0126": 6868,
    "\u0120\u00d8\u00b4\u00d9\u0129\u00d8\u00b1": 6869,
    "\u0120doing": 6870,
    "\u0120deg": 6871,
    "\u0120early": 6872,
    "\u0120love": 6873,
    "\u00d1\u0122\u00d0\u00be\u00d1\u0123": 6874,
    "\u00d9\u0127\u00db\u012e": 6875,
    "\u0120Console": 6876,
    "https": 6877,
    "\u0120pun": 6878,
    "ering": 6879,
    "oe": 6880,
    "ead": 6881,
    "CA": 6882,
    "\u0120image": 6883,
    "\u00e5\u00ba\u00a7": 6884,
    "\u00e0\u00a7\u012f\u00e0\u00a6\u00b0": 6885,
    "\u00a6\u00d7": 6886,
    "\u0120d\u00c3\u00a9": 6887,
    "\u0120anim": 6888,
    "\u0120DO": 6889,
    "\u00d8\u00b1\u00d9\u0125\u00d8\u00a9": 6890,
    "Address": 6891,
    "\u00e8\u00bf\u0129\u00e7\u00a8\u012d": 6892,
    "style": 6893,
    "\u0120\u00ed\u012e": 6894,
    "kk": 6895,
    "\u0120impact": 6896,
    "\u0120len": 6897,
    "ermine": 6898,
    "\u00e5\u0143\u00a6\u00e9\u013b\u00a2": 6899,
    "Now": 6900,
    "\u00eb\u0135\u013e": 6901,
    "\u0120aan": 6902,
    "\u0120similar": 6903,
    "ascript": 6904,
    "Am": 6905,
    "\u00e4\u00ba\u0133": 6906,
    "iety": 6907,
    "\u00d9\u0126\u00d9\u0129": 6908,
    "\u00c4\u0123d": 6909,
    "\u00e6\u012b\u00a7": 6910,
    "\u0120row": 6911,
    ",'": 6912,
    "EM": 6913,
    "\u0120pel": 6914,
    "\u0120\u00ea\u00b3\u0142": 6915,
    "\u00e4\u00b8\u012f\u00e6\u0138\u0143": 6916,
    "----------------------------------------------------------------": 6917,
    "avascript": 6918,
    "\u0120parameter": 6919,
    "\u00e5\u00b8\u012e": 6920,
    "Des": 6921,
    "\u00d0\u00bd\u00d0\u00be\u00d1\u0123\u00d1\u0124\u00d1\u012e": 6922,
    "\u0120Hand": 6923,
    "oring": 6924,
    "ided": 6925,
    "cut": 6926,
    "\u00e5\u00be\u0127": 6927,
    "\u0120typ": 6928,
    "\u00d6\u0122\u00d5": 6929,
    "\u0120options": 6930,
    "\u00e5\u00b7\u00b4": 6931,
    "curity": 6932,
    "\u00d0\u00be\u00d1\u0122\u00d0\u00b0": 6933,
    "\u00e7\u00bd\u0133\u00e7\u00bb\u013e": 6934,
    "\u0120\u00d8\u00aa\u00d9\u012a": 6935,
    "\u00e3\u0125\u012c": 6936,
    "\u0120With": 6937,
    "\u0120\u00d9\u012c\u00d8\u00aa": 6938,
    "\u0120\u0120\u0120\u0120\u0120\u0120\u0120\u0120\u0120\u0120\u0120\u0120\u0120\u0120\u0120\u0120\u0120\u0120\u0120\u0120\u0120\u0120\u0120\u0120\u0120\u0120\u0120\u0120": 6939,
    "mun": 6940,
    "\u00e1\u0122\u00b8": 6941,
    "\u0120Aut": 6942,
    "Service": 6943,
    "\u0120\u00da\u00af\u00d9\u0123\u00d8\u00aa": 6944,
    "\u00b6\u012e": 6945,
    "\u0120Ensure": 6946,
    "\u00e7\u00a7\u00bb": 6947,
    "\u00e7\u0136\u00b7": 6948,
    "\u00d1\u0125\u00d0\u00bb": 6949,
    "\u00e8\u00bd\u00bb": 6950,
    "\u00e3\u0124\u012a\u00e3\u0123\u0128": 6951,
    "\u00e3\u0125\u00a5": 6952,
    "\u0120\u00d8\u00a7\u00d9\u0124": 6953,
    "\u00d0\u00a4": 6954,
    "\u0120bij": 6955,
    "una": 6956,
    "\u0120\u00d9\u012a\u00d9\u0123": 6957,
    "\u0120defined": 6958,
    "xe": 6959,
    "kin": 6960,
    "(@": 6961,
    "lig": 6962,
    "\u0120contains": 6963,
    "\u00e4\u00bb\u012c\u00e5\u00b9\u00b4": 6964,
    "\u00ed\u0133\u013e": 6965,
    "\u0120vel": 6966,
    "\u0120\u00e0\u00a6\u00b8": 6967,
    "can": 6968,
    "\u0120Ear": 6969,
    "\u0120general": 6970,
    "\u00e9\u00a2\u0128\u00e5\u0141\u0141": 6971,
    "\u00e7\u00aa\u0123": 6972,
    "\u0120Bl": 6973,
    "\u0120indust": 6974,
    "\u0120\u00d1\u0123\u00d0\u00b0\u00d0\u00bc": 6975,
    "lab": 6976,
    "\u0120strong": 6977,
    "\u00e7\u013c\u0126\u00e6\u013a\u00af": 6978,
    ")]": 6979,
    "ites": 6980,
    "\u00e5\u00ae\u00a3": 6981,
    "\u0120lower": 6982,
    "\u00d8\u00b0\u00d9\u0126\u00d9\u0125": 6983,
    "\u0120doesn": 6984,
    "ruction": 6985,
    "\u0120original": 6986,
    "\u0120\u00d8\u00b3\u00d8\u00a7\u00d9\u0126": 6987,
    "\u00e6\u00b2\u00bb\u00e7\u0138\u0139": 6988,
    "({": 6989,
    "\u00e9\u0122\u012b\u00e6\u012d\u00a9": 6990,
    "\u00e0\u00b8\u013b\u00e0\u00b8\u00b1": 6991,
    "ley": 6992,
    "\u0120Comp": 6993,
    "\u0120Type": 6994,
    "\u0120affect": 6995,
    "\u00e5\u00ae\u013a": 6996,
    "\u0120tik": 6997,
    "\u0120door": 6998,
    "\u0120Ge": 6999,
    "\u0120\u00d9\u012a\u00d9\u0125": 7000,
    "\u00e5\u0132\u00b8": 7001,
    "annel": 7002,
    "\u00e6\u00bf\u0122": 7003,
    "FA": 7004,
    "\u00e8\u00bf\u013b\u00e6\u0142\u00b7": 7005,
    "\u00d8\u00aa\u00d9\u0127\u00d8\u00a7\u00d8\u00b9": 7006,
    "next": 7007,
    "\u0120\u00e0\u00a6\u00aa": 7008,
    "oper": 7009,
    "github": 7010,
    "\u0120pada": 7011,
    "\u0120States": 7012,
    "\u0120squ": 7013,
    "\u0120ikke": 7014,
    "oph": 7015,
    "\u0120meg": 7016,
    "\u00e0\u00b8\u0143\u00e0\u00b8\u00a5": 7017,
    "Det": 7018,
    "\u0120kil": 7019,
    "\u00e5\u00b3": 7020,
    "INT": 7021,
    "\u00ef\u00bc\u013c\u00e2\u0122\u013e": 7022,
    "\u0120lib": 7023,
    "\u0120\u00d8\u00a7\u00d8\u00ac": 7024,
    "istance": 7025,
    "ended": 7026,
    "sin": 7027,
    "\u0120\u00ec\u0128\u012e": 7028,
    "Fl": 7029,
    "\u0120inside": 7030,
    "\u0120\u00d8\u00a7\u00d8\u00ae": 7031,
    "fort": 7032,
    "\u0120\u00d0\u0143": 7033,
    "\u00d0\u00b0\u00d0\u00bd\u00d0\u00b8\u00d0\u00b5": 7034,
    ";}": 7035,
    "{\\": 7036,
    "\u0137\u00e0\u00b5\u012f\u00e0\u00b4\u0137": 7037,
    "\u0120business": 7038,
    "\u00e6\u00b1\u00bd\u00e8\u00bd\u00a6": 7039,
    "radius": 7040,
    "\u0120natural": 7041,
    "\u00e6\u00bd": 7042,
    "avor": 7043,
    "atur": 7044,
    "\u0120href": 7045,
    "anced": 7046,
    "\u00e7\u0137\u00a5": 7047,
    "\u00e0\u00a9\u0122": 7048,
    "\u0120city": 7049,
    "late": 7050,
    "\u00d9\u0132": 7051,
    "\u00ed\u0128\u00b5": 7052,
    "\u0120Us": 7053,
    "\u0120\u00eb\u00b0\u00a9": 7054,
    "\u0120\u00d8\u00b3\u00d8\u00b1": 7055,
    "\u00e0\u00ab\u0129": 7056,
    "\u0120law": 7057,
    "base": 7058,
    "\u00d8\u00b9\u00d8\u00a7": 7059,
    "\u0120ID": 7060,
    "\u00e5\u012f\u00b4": 7061,
    "\u00c4\u00abt": 7062,
    "Base": 7063,
    "\u0120black": 7064,
    "\u0120parameters": 7065,
    "sent": 7066,
    "\u0120close": 7067,
    "\"),": 7068,
    "\u00e7\u013b\u00bb": 7069,
    "\u0120mor": 7070,
    "\u00e8\u00af\u00bb": 7071,
    "\u00d0\u00a8": 7072,
    "\u00c3\u00ab": 7073,
    "mand": 7074,
    "\u0120rad": 7075,
    "\u0120ze": 7076,
    "\u0120println": 7077,
    "\u0120areas": 7078,
    "atform": 7079,
    "\u00d8\u00b5\u00d8\u00af": 7080,
    "\u00e5\u00ae\u012e\u00e6\u012a\u0132": 7081,
    "Number": 7082,
    "pid": 7083,
    "\u0120\u00d0\u00b1\u00d0\u00be\u00d0\u00bb": 7084,
    "\u00d0\u00a5": 7085,
    "\u0120\u00eb\u00b0\u013e": 7086,
    "\u00e6\u00b9\u0138": 7087,
    "\u0120empty": 7088,
    "\u00e7\u00ab\u00af": 7089,
    "\u0120conc": 7090,
    "\u0120gal": 7091,
    "%\u00ef\u00bc\u012e": 7092,
    "\u00e5\u012f\u0125": 7093,
    "\u00e6\u00a5\u0143": 7094,
    "\u00e0\u00a4\u00a1": 7095,
    "\u00e9\u0137\u0129": 7096,
    "\u0120instead": 7097,
    "\u0120textbook": 7098,
    "\u0120\u00ec\u013d": 7099,
    "\u00e7\u0135": 7100,
    "\u0142\u00e1\u0125": 7101,
    "xb": 7102,
    "\u0120offer": 7103,
    "\u00e4\u00b8\u0122\u00e4\u00ba\u013d": 7104,
    "mar": 7105,
    "Element": 7106,
    "\u0120dire": 7107,
    "child": 7108,
    "\u0120\u00eb\u0132": 7109,
    "\u00a4\u0122": 7110,
    "\u0120cause": 7111,
    "\u0120ang": 7112,
    "\u0120makes": 7113,
    "\u00d8\u00a7\u00d8\u00b1\u00d8\u00ac": 7114,
    "Read": 7115,
    "\u00e9\u00a1\u00bb": 7116,
    "Pos": 7117,
    "></": 7118,
    "\u0120constant": 7119,
    "\u0120experience": 7120,
    "\u0120\u00d0\u00b5\u00d0\u00b3\u00d0\u00be": 7121,
    "\u00e8\u00ae\u00b2": 7122,
    "ything": 7123,
    "comment": 7124,
    "\u0120CON": 7125,
    "chen": 7126,
    "\u0120multiple": 7127,
    "othing": 7128,
    "\u0120\u00d0\u0139": 7129,
    "IR": 7130,
    "\u00ce\u00ba": 7131,
    "pc": 7132,
    "\u0120\u00d8\u00aa\u00d8\u00b4": 7133,
    "\u0120niet": 7134,
    "\u00e2\u0136\u0122": 7135,
    "\u0120wa": 7136,
    "\u0120\u00d8\u00a8\u00d9\u012c": 7137,
    "\u0120\u00d8\u00a7\u00d9\u0126\u00d9\u0127\u00d9\u012a": 7138,
    "ened": 7139,
    "\u0120sens": 7140,
    "\u00e7\u0142\u00b4": 7141,
    "\u00d8\u00a7\u00d8\u00b1\u00d9\u0129": 7142,
    "\u0120evalu": 7143,
    "\u00c3\u00b6r": 7144,
    "\u0120connect": 7145,
    "\u0120consent": 7146,
    "\u0120ways": 7147,
    "kr": 7148,
    "\u00d1\u0125\u00d0\u00b6": 7149,
    "\u0120discuss": 7150,
    "mary": 7151,
    "\u0120yet": 7152,
    "\u00e0\u00b8\u00a5": 7153,
    "\u0120\u00d9\u0125\u00d8\u00a7\u00d9\u0128": 7154,
    "\u0120inc": 7155,
    "CON": 7156,
    "\u0120\u00d0\u00bf\u00d0\u00b5\u00d1\u0122\u00d0\u00b5": 7157,
    "\u0120\u00d8\u00a7\u00d8\u0143": 7158,
    "\u00e5\u00b0\u00bd": 7159,
    "char": 7160,
    "ivate": 7161,
    "\u0120\u00eb\u00af\u00b8": 7162,
    "\u0120ps": 7163,
    "\u0120\u00d8\u00a7\u00d9\u0126\u00d8\u00b3\u00d9\u012c": 7164,
    "\u0120ul": 7165,
    "\u0120moment": 7166,
    "\u0120employ": 7167,
    "\u00d0\u00b5\u00d0\u00b5": 7168,
    "ening": 7169,
    "\u00e5\u0135\u0123\u00e7\u012b\u012e": 7170,
    "using": 7171,
    "\u00e7\u00bb\u00a7": 7172,
    "\u00eb\u00af\u00b8": 7173,
    "\u00e4\u00bb\u00a3\u00e8\u00a1\u00a8": 7174,
    "\u0120\u00d9\u012a\u00d9\u012c": 7175,
    "\u00e5\u013d\u0142\u00e6\u0143\u00a4": 7176,
    "ney": 7177,
    "\u0120Extreme": 7178,
    "\u0120bottom": 7179,
    "\u0120Pre": 7180,
    "verse": 7181,
    "orts": 7182,
    "\u0120positive": 7183,
    "\u0120separ": 7184,
    "\u0120products": 7185,
    "\u00e9\u00b2": 7186,
    "ums": 7187,
    "\u00ec\u00b0\u00a8": 7188,
    "\u00e5\u0138\u013e": 7189,
    "most": 7190,
    "nu": 7191,
    "rav": 7192,
    "\u00d9\u012a\u00d9\u012c\u00d8\u00a9": 7193,
    "\u0120scient": 7194,
    "\u0120external": 7195,
    "\u0120examples": 7196,
    "\u0120eyes": 7197,
    "\u00e0\u00b9\u012e": 7198,
    "\u00ec\u00a6": 7199,
    "\u0120\u00d7\u00a2\u00d7": 7200,
    "\u00e7\u00ab\u0140": 7201,
    "\u0120throw": 7202,
    "\u0120Making": 7203,
    "duc": 7204,
    "\u0120application": 7205,
    "\u00e6\u00ac\u00a7": 7206,
    "\u0120Calculate": 7207,
    "\u0120behav": 7208,
    "\u0120five": 7209,
    "\u00d0\u00bd\u00d0\u00b8\u00d0\u00bc": 7210,
    "\u00e5\u0127\u0143": 7211,
    "xc": 7212,
    "\u0120\u00d0\u00a4": 7213,
    "\u00e6\u0134\u0143": 7214,
    "\u00d8\u00b1\u00d8\u00a7\u00d9\u0124": 7215,
    "ising": 7216,
    "\u00e3\u0125\u012d": 7217,
    "\u00d0\u00be\u00d0\u00b2\u00d0\u00be\u00d1\u0122": 7218,
    "\u00e0\u00a4\u00a8\u00e0\u00a5\u0129": 7219,
    "\u0120taken": 7220,
    "\u0120structure": 7221,
    "gba": 7222,
    "\"/": 7223,
    "\u0120\u00d8\u00b9\u00d8\u00a8\u00d8\u00af": 7224,
    "ERE": 7225,
    "PL": 7226,
    "mark": 7227,
    "\u00e8\u0123\u013c": 7228,
    "\u00e8\u0125\u00bd\u00e5\u00a4\u0141": 7229,
    "\u0120pour": 7230,
    "\u0120histor": 7231,
    "\u0120future": 7232,
    "\u00e8\u0129\u00aa\u00e5\u00b7\u00b1\u00e7\u013c\u0126": 7233,
    "\u0120AND": 7234,
    "\u0120\u00d0\u00a7": 7235,
    "anger": 7236,
    "\u00b4\u00e0\u00b8": 7237,
    "\u00e6\u0138\u00b9\u00e6\u00b3\u0137": 7238,
    "\u00d9\u0125\u00d9\u012c": 7239,
    "\u00e7\u00a5\u00a8": 7240,
    "\u00e0\u00b9\u012a\u00e0\u00b8\u00b2\u00e0\u00b8": 7241,
    "ijk": 7242,
    "\u00e6\u012b\u0122\u00e6\u013e\u012b": 7243,
    "\u00d0\u00b0\u00d0\u00bf": 7244,
    "\u0120estab": 7245,
    "iu": 7246,
    "\u00d8\u00a7\u00d8\u00a8\u00d8\u00a7\u00d8\u00aa": 7247,
    "println": 7248,
    "\u0120\u00d9\u012a\u00d8\u00b3": 7249,
    "\u0123\u00ac": 7250,
    "\u0120house": 7251,
    "\u0120fig": 7252,
    "\u00e6\u00ac\u00a2": 7253,
    "pu": 7254,
    "Check": 7255,
    "\u0120\u00d9\u012a\u00d8\u00a8": 7256,
    "\u0120\u00d0\u00b7\u00d0\u00b0\u00d0\u00ba": 7257,
    "\u0120vers": 7258,
    "thing": 7259,
    "\u00e3\u0124\u0143": 7260,
    "\u00e5\u0127\u00a8\u00e7\u0132\u0125": 7261,
    "\u0120\u00da\u00a9\u00d9\u012a": 7262,
    "\u0120Cor": 7263,
    "\u0120\u00da\u00a9\u00d8\u00b4\u00d9\u012a\u00d8\u00b1": 7264,
    "spec": 7265,
    "osp": 7266,
    "\u0120\u00d0\u00bd\u00d0\u00be": 7267,
    "\u0120meet": 7268,
    "\u0120\u00d0\u00b4\u00d0\u00be\u00d0\u00bb": 7269,
    "\u0120\u00d8\u00b9\u00d9\u0127\u00d9\u0126": 7270,
    "\u00d0\u00b8\u00d1\u0123\u00d1\u0124": 7271,
    "\u00e6\u013a\u00a5": 7272,
    "\u0120indicating": 7273,
    "\u00ec\u00a1": 7274,
    "\u00d1\u0125\u00d0\u00bd": 7275,
    "menu": 7276,
    "float": 7277,
    "ROM": 7278,
    "\u0120\u00d8\u00a7\u00d8\u00b3\u00d8\u00aa\u00d8\u00a7\u00d9\u0128": 7279,
    "\u00da\u00a9\u00d9\u0128": 7280,
    "Pol": 7281,
    "\u0120includes": 7282,
    "\u00e4\u00bd\u0128\u00e6\u013a\u00af": 7283,
    "\u00e8\u012a\u00ac": 7284,
    "\u00e3\u0125\u0138": 7285,
    "BB": 7286,
    "req": 7287,
    "\u0133\u0132": 7288,
    "\u00e5\u012a\u00a9\u00e7\u0136\u00a8": 7289,
    "\u0120particip": 7290,
    "ched": 7291,
    "\u00c4\u0135j": 7292,
    "\u0120created": 7293,
    "\u0120\u00d0\u00be\u00d0\u00bd": 7294,
    "\u00eb\u00b6\u0126": 7295,
    "\u00d8\u00a7\u00d9\u0129\u00d8\u00af": 7296,
    "PO": 7297,
    "\u0120associated": 7298,
    "\u0120b\u00c5\u00ab": 7299,
    "\").": 7300,
    "\u00e8\u0139": 7301,
    "Ph": 7302,
    "\u00e7\u00bb\u00bc": 7303,
    "\u0120tradition": 7304,
    "\u0120\u00eb\u00a7\u0132": 7305,
    "olution": 7306,
    "\u00e5\u0131\u00a6": 7307,
    "\u00e3\u0123\u00ab\u00e3\u0123\u00aa": 7308,
    "\u0120Decision": 7309,
    "\u00d0\u00b0\u00d1\u012a": 7310,
    "\u0120refer": 7311,
    "\u00e8\u00a1\u00a5": 7312,
    "\u00e7\u0137\u013b": 7313,
    "\u00e9\u013f\u00a9": 7314,
    "pass": 7315,
    "\u00e6\u0139\u0131": 7316,
    "\u00ec\u012d\u013f": 7317,
    "urch": 7318,
    "\u00e3\u0123\u013a": 7319,
    "\u00ed\u0137\u00a9": 7320,
    "Rep": 7321,
    "AE": 7322,
    "\u00e4\u00bd\u013e\u00e7\u0136\u00a8": 7323,
    "\u00d0\u00b0\u00d1\u0124\u00d0\u00b5\u00d0\u00bb\u00d1\u012e": 7324,
    "\u00c4\u00abbas": 7325,
    "ICAg": 7326,
    "\u00c4\u0135r": 7327,
    "\u0120Bu": 7328,
    "\u0120\u00d0\u00bf\u00d1\u0122\u00d0\u00b0\u00d0\u00b2": 7329,
    "\u00e4\u00ba\u00b2": 7330,
    "\u0120\u00d1\u0124\u00d0\u00b5": 7331,
    "\u00e0\u00a7\u0122": 7332,
    "\u0120\u00d8\u00aa\u00d9\u0123": 7333,
    "\u0120ju": 7334,
    "\u0120seb": 7335,
    "\u00e4\u00b8\u00b4": 7336,
    "\u00e5\u00a4\u00a7\u00e5\u00ae\u00b6": 7337,
    "\u00d8\u00a1": 7338,
    "\u0120May": 7339,
    "\u0120\u00d8\u00a7\u00d9\u0126\u00d9\u0127\u00d8\u00af": 7340,
    "\u0120plant": 7341,
    "SD": 7342,
    "\u0120Gener": 7343,
    "\u0120True": 7344,
    "\u0120\u00d8\u00a8\u00d8\u00a7\u00d8\u00b2": 7345,
    "Te": 7346,
    "output": 7347,
    "\u0120deb": 7348,
    "\u00ea\u00b1\u00b0": 7349,
    "Az": 7350,
    "\u0120hair": 7351,
    "\u00d0\u00be\u00d0\u00bc\u00d1\u0125": 7352,
    "\u00e8\u00b3": 7353,
    "umb": 7354,
    "score": 7355,
    "\u0120\u00d8\u00a7\u00d9\u0126\u00d8\u00b2": 7356,
    "\u00e7\u00a8\u00b3": 7357,
    "\u0120implements": 7358,
    "ouch": 7359,
    "\u00e6\u00b1\u00a1": 7360,
    "ises": 7361,
    "\u0120\u00ea\u00b0\u013e": 7362,
    "Acc": 7363,
    "\u0120\u00d8\u00af\u00db\u012e": 7364,
    "\u00ea\u00b7\u00b8": 7365,
    "attribute": 7366,
    "Ent": 7367,
    "\u0120\u00d8\u0143\u00d9\u012c\u00d8\u00ab": 7368,
    "\u00e8\u00ae\u00a1\u00e5\u012a\u0134": 7369,
    "\u0120symptoms": 7370,
    "\u00e4\u00b8\u012f\u00e6\u013a\u00af": 7371,
    "\u0120shift": 7372,
    "\u0120actual": 7373,
    "\u0120hot": 7374,
    "\u00d5\u00b8\u00d6\u0124\u00d5": 7375,
    "\u00e0\u00a6\u00ae": 7376,
    "(&": 7377,
    "\u00e5\u00b9\u00b4\u00e7\u013c\u0126": 7378,
[...]
